53
0a
13
ba
b6
2b
24
ef
87
1e
74
b3
57
5f
1d
b0
b7
9a
68
84
02
10
32
04
ce
b8
d8
1e
bc
44
4d
04
68
70
7b
9f
24
2b
8c
48
50
6b
23
f2
27
73
df
6c
d0
e1
9f
32
ac
0e
21
9a
7b
8b
26
da
99
73
e0
b9
0b
c8
d4
8b
b1
4d
5e
a3
4e
25
e7
b3
5d
6a
af
1f
1f
00
9a
16
a8
ff
1f
b9
c8
03
6c
70
cf
61
d1
ef
fb
56
a5
14
62
86
5a
84
88
46
2b
13
40
85
15
43
90
5f
f6
0d
06
64
d2
3c
b2
c4
a9
77
97
a7
13
f9
70
78
28
7b
59
48
8b
15
4f
d9
ed
3c
e8
b1
c3
7a
b0
0e
6a
ea
29
01
f2
34
8e
c4
20
7b
12
3e
14
a3
7f
86
9d
67
02
4e
66
8f
26
3c
aa
3f
78
fb
2a
b7
75
a3
5f
4d
ca
43
5d
f1
68
61
2f
8a
ba
fd
1e
a6
0a
7d
a8
c0
10
6f
8e
a3
29
7b
84
f8
f1
95
66
ad
8a
6b
03
c9
62
c0
38
bc
87
f9
21
0a
58
e8
9e
2d
62
25
e5
a6
6d
f7
dc
6d
93
50
19
0b
ed
52
6f
0b
21
6d
c2
82
52
0e
14
2e
54
f8
d4
ba
5a
1c
c4
29
cc
a6
8d
24
46
8b
6b
41
09
06
7c
cd
9e
94
15
b9
b5
87
53
44
5f
ce
12
c1
de
0c
4a
da
be
53
36
e0
1f
7d
d1
13
59
7a
63
18
c3
aa
41
8d
6f
ad
bd
00
97
a4
f3
a4
c8
2d
ac
6d
5a
cc
b3
99
4c
98
92
74
78
cb
67
a8
8c
33
45
e5
29
98
65
db
94
d9
a8
f5
47
29
e3
19
aa
a6
35
d9
30
c3
7a
ef
74
d6
91
ec
32
20
ba
6f
34
c4
6c
c4
c3
6d
0b
0c
b3
78
25
a1
eb
70
12
90
44
94
54
da
15
7f
f4
28
55
d2
35
f4
aa
5e
6c
16
77
8e
f7
40
03
5b
8d
1e
c9
f5
d4
e4
c8
71
c6
4c
9d
ac
2f
45
ab
77
d1
0c
10
87
ec
98
1b
36
e1
be
61
8a
55
47
43
3f
cd
6e
9c
9a
b7
e7
6a
67
c0
ff
9d
32
dc
de
2e
82
4e
04
68
5f
b3
fa
e8
1f
c4
04
93
47
8e
bb
ac
17
21
7b
e6
eb
bc
f3
dc
86
b6
45
84
ae
d5
a8
82
38
73
59
f8
a8
72
ce
22
32
6c
47
f8
9f
ca
e6
95
6b
7c
08
40
25
bf
97
4c
62
36
19
5b
5b
2b
97
10
d1
62
e4
79
be
1b
08
