b5
58
83
63
88
64
29
9d
81
13
f7
77
2c
e8
e0
e1
f2
1f
19
5c
6a
e6
57
24
a8
66
b5
3c
88
da
a6
6a
1a
a6
6e
cc
13
58
ca
e2
d6
bd
e2
73
45
d4
90
6b
ae
d2
19
8d
22
54
dd
8d
f0
86
5f
94
19
25
8d
3c
ad
b7
95
a8
b3
a8
b3
33
4a
af
0b
89
19
e8
8a
92
dd
13
36
a5
c2
83
73
cf
2f
c3
a7
48
88
79
d5
04
99
f0
d5
82
6e
17
0f
1c
99
70
dc
e1
b8
07
fb
f2
72
2c
01
30
73
c9
66
19
b2
9b
2c
ae
98
d7
f8
2a
87
ac
a7
4a
a9
64
88
ba
c5
6b
ef
79
ac
53
0d
ff
7c
71
a8
1e
94
b0
1a
e6
ac
66
f8
04
aa
b0
fa
d4
90
21
45
c7
bc
a7
cd
10
93
20
0f
dc
02
1c
fe
2f
9c
8d
97
93
db
ac
ee
e4
93
31
f4
86
70
39
70
da
fb
a3
01
d2
c0
42
45
00
8f
25
b7
6a
51
d9
06
9b
6f
12
67
fd
67
96
6b
16
66
e3
1e
08
94
41
59
4a
07
88
96
47
4e
fc
d0
5a
ae
27
c2
d1
a3
6e
7e
21
3f
30
68
e8
57
8d
fa
5d
1c
83
f0
fe
2a
ba
35
50
d9
d9
f7
7a
be
db
11
cb
f8
02
7d
3a
71
bb
0e
e0
02
11
99
f8
d1
48
42
98
76
18
0c
62
8d
08
0c
9a
68
a6
8d
62
9f
20
41
2f
cc
ba
c7
43
59
0a
e1
d8
8b
90
86
1d
18
4f
b0
12
7b
ba
42
e5
3c
08
21
d5
8a
86
ae
c0
86
e2
91
af
2f
86
72
58
41
6a
ff
11
63
27
70
26
92
44
a5
03
1c
67
5c
8f
93
ef
77
55
99
a6
25
d2
ae
18
ae
83
51
65
86
c4
bf
5e
5e
30
7c
c4
f4
22
87
7c
2d
3e
ff
49
9e
9c
77
94
bd
86
0c
11
95
33
23
d4
89
90
ba
8d
6f
01
6d
a1
23
5d
68
7d
27
1c
f9
68
d9
39
86
b4
4e
d6
5d
3a
e1
89
55
60
1b
6c
c5
02
5d
1a
2e
0f
ac
5e
f1
61
76
a6
3a
ff
67
0e
95
3d
4a
ea
18
85
47
25
70
4d
10
0d
63
d3
0d
76
96
ff
b3
d9
e4
6c
e8
06
d5
d9
92
0b
9b
d3
ac
ca
d1
d8
3b
a9
93
dc
e7
29
24
a8
93
b4
4a
d1
7b
6a
ed
6d
90
f1
1c
57
1d
82
c2
73
64
db
04
5a
71
ab
6e
dc
6f
1b
53
dc
df
9c
ae
50
9f
af
