ec
ef
01
93
44
91
a0
79
5b
13
da
6e
0d
1d
e9
d4
b0
34
83
c5
e6
9e
ac
67
cb
cc
85
56
76
66
d2
5d
de
f9
c8
42
d0
e2
5e
3a
a8
06
43
9a
be
b1
dc
d5
f1
10
e3
46
f1
7b
70
a8
fb
39
21
94
b7
e0
7b
65
04
26
74
11
08
de
ad
71
22
b3
c3
7b
33
e3
3b
f2
58
d0
67
1b
68
54
38
b4
a0
8c
65
12
3c
34
ee
8d
58
60
d8
bc
40
71
cf
c0
af
d5
e2
fd
8c
fb
71
bb
5c
4c
a1
f4
37
de
a3
be
33
82
51
46
a8
3c
46
75
5d
83
83
a7
29
d2
eb
e7
96
2e
90
0c
f9
eb
c8
19
fe
4f
cb
ce
0e
f4
6a
3e
c0
da
f1
f5
20
f4
b7
75
53
57
10
32
cb
3f
e8
73
48
eb
bb
95
f8
7d
e7
0c
57
84
21
ef
25
38
72
be
a9
bb
35
fa
f9
5f
fa
b8
8b
13
c2
b1
4f
91
50
f9
4d
f6
9f
20
b8
2b
ff
5c
3c
1a
75
3e
8a
d0
5b
d4
89
e0
4d
b1
15
d8
c6
62
0b
06
ae
79
1b
2a
86
60
95
04
b0
ab
2a
32
8f
37
bc
7d
66
57
3b
f9
48
66
f1
81
d2
66
97
95
8f
9d
75
13
fd
88
90
32
a7
e0
5d
1f
cb
d3
31
a3
6e
75
e6
d6
ab
d4
45
96
b4
7c
b1
8a
4b
fd
e3
5f
90
ca
11
4f
50
8f
9d
6d
a1
d3
3c
b0
5c
f9
92
d4
54
fb
27
38
64
eb
a2
5d
e7
e7
17
21
72
47
4e
91
a1
3f
ff
54
08
9e
c4
f1
d2
64
9d
c1
95
ec
71
91
b2
84
1c
9e
01
20
a7
23
d8
04
bd
b1
66
b9
2d
78
d4
57
ad
65
d1
d9
75
d8
97
3d
69
4f
51
83
31
d7
42
f8
44
5c
38
5a
26
48
ee
f8
16
ae
5d
74
58
79
ee
4d
77
26
27
22
4b
c0
39
a6
db
05
05
6d
a2
b8
7e
6b
99
12
85
e5
79
b6
34
da
1f
8b
22
94
52
b5
0f
db
f7
cc
1a
8f
ff
f7
0e
5d
fd
8d
ac
f8
13
4e
60
b7
ef
cd
7b
f1
dc
40
d4
c9
ec
66
fd
4a
8a
6a
bd
35
d0
a0
d6
b6
d4
11
89
b5
a1
d3
4b
79
6d
db
c9
41
6a
72
bd
f8
72
26
25
c6
5f
81
c7
1f
9a
d8
dc
21
a7
bf
ff
64
94
f1
2e
b3
3a
3e
63
29
e9
fa
60
b4
f3
8a
44
12
4a
83
0f
8b
ac
21
f1
11
2f
d1
76
ac
59
8d
ab
48
16
40
83
1e
54
37
1f
4e
b4
ff
89
98
ff
10
51
47
37
5e
6c
e4
c2
90
db
20
8b
21
72
47
8a
05
68
53
b0
f9
0a
69
77
58
74
d1
cd
10
d6
1e
f0
e7
bd
42
4f
f3
5e
df
70
72
e1
3a
81
f5
ec
12
06
42
d5
39
df
14
b9
fe
9c
6c
6b
89
a8
7b
6c
63
28
22
e3
9e
44
a2
a2
68
8d
a7
36
21
5c
27
d0
99
7e
e7
2b
f4
b0
a7
11
89
c5
b0
c9
d5
3b
bd
4a
78
21
f3
9c
d2
6b
ab
1a
50
fd
19
ef
8c
be
11
82
e1
88
91
74
3f
5a
83
65
46
42
17
24
b5
1c
a2
7f
13
ad
f5
9b
30
fd
7c
f7
dc
e4
aa
d4
7d
30
3d
6a
03
a8
e3
fd
64
0b
cf
83
d4
9b
cf
18
62
8d
1f
3c
d3
48
21
15
56
54
e9
0a
5a
04
bf
15
8a
69
e8
27
a4
d3
21
ad
fe
1f
cb
57
b8
1a
64
52
9c
16
46
9b
b9
8a
28
fa
91
62
14
c0
5e
e3
04
bf
28
a4
76
6e
e6
40
61
05
33
6e
1e
9c
78
02
01
4a
da
c1
c0
3a
6a
60
82
ab
35
92
40
e7
2c
a6
32
f2
32
fa
59
d8
5f
74
57
b7
7b
9c
c9
7d
b9
3d
6e
88
ee
55
cb
44
ed
43
ff
c3
6c
15
56
db
6f
bb
e3
33
3a
5d
9b
e7
3e
34
4c
32
98
7b
59
f9
ee
79
6a
25
2a
42
25
7b
4b
d8
02
9b
be
2a
a0
88
15
92
0f
98
3b
b2
01
fa
27
21
e6
d3
8f
03
25
cf
dc
23
f5
75
56
7f
e7
c2
6c
ba
d4
79
c6
55
ff
68
62
c4
f0
b0
ee
18
c0
a2
21
1f
f0
7e
0f
d6
a1
17
fc
4b
3b
ff
39
64
15
00
26
51
d5
84
d2
64
8e
a4
56
75
0c
eb
8e
b0
1f
45
fc
57
20
53
6f
f1
36
eb
a8
b4
0e
ef
1e
49
9f
cc
b6
15
b3
2e
d9
5c
ce
44
a8
17
b0
10
52
ee
e0
0e
91
60
d3
68
83
6f
97
df
45
6f
12
f4
cb
18
8d
19
e8
bc
50
22
b7
cc
95
37
e1
b1
26
8a
df
86
29
3b
ee
14
f4
44
96
4e
2f
1b
0b
ee
3a
41
a4
49
25
bf
f7
7c
6c
72
48
f9
48
e8
33
10
1c
38
94
e8
76
fe
bf
9c
8b
78
18
1c
1b
05
79
31
1a
00
24
48
33
a3
c3
11
07
1e
66
43
89
61
9c
26
b9
e7
d5
1b
1d
30
2f
88
77
68
6c
f0
bb
ed
0e
17
83
42
a6
1b
cc
92
b4
54
5f
a8
08
b7
9a
49
2e
7e
d0
39
8b
7d
ea
d4
eb
0d
01
9d
3e
f2
79
b8
ff
3e
49
df
32
5b
a7
33
62
14
df
ef
eb
3e
a8
06
34
99
e6
75
ca
21
de
af
7c
18
c0
24
de
10
e2
73
8e
96
20
76
cd
19
ef
32
55
5d
3e
bd
a7
a2
32
65
a0
bc
e3
19
f1
b4
20
77
e3
35
34
af
47
65
c1
c2
f7
9a
a4
36
9d
b5
2a
13
c5
22
ff
5f
37
30
75
43
ae
c4
74
f1
08
b7
f4
61
d3
0d
ec
59
d7
6b
c8
ec
ef
ab
bb
7e
d6
33
30
e8
3e
85
67
8c
5d
2c
73
bd
5a
6d
2f
cd
46
13
fe
8c
2e
da
b9
a5
52
e5
23
05
61
f5
e9
4f
7b
a9
db
2f
18
7c
a6
57
2c
c9
39
88
16
53
ba
ba
ea
ef
26
06
19
52
8d
31
9b
ac
77
a6
11
4b
91
1a
bc
bf
c3
67
69
8f
36
2a
ee
d5
8f
76
6a
d9
b1
59
ad
05
23
c5
f3
6f
d7
72
c0
46
f1
fa
5a
33
ad
ff
c7
0e
15
5f
e4
a9
d0
b6
72
87
32
9f
97
ad
20
55
ef
ce
a8
0f
27
f9
50
01
9f
b5
54
58
02
8d
78
2c
47
67
1a
f8
cd
ff
a9
1c
c1
51
cb
bc
a1
f9
52
17
54
e3
9b
29
25
8c
8f
8b
1b
30
35
a4
e8
28
48
2f
e5
b0
0b
3a
c2
d5
89
c7
0c
e6
5a
af
64
44
ce
53
77
0a
e8
08
d5
6b
f8
d7
15
2f
4a
61
24
73
ac
92
ea
78
76
49
bc
2c
eb
c3
64
98
35
9e
17
00
67
76
cc
60
77
0d
ee
11
f8
45
9e
3d
74
92
59
45
c9
49
6b
a4
54
3d
0f
f1
b6
f8
d0
1e
cd
1a
f0
7b
11
94
50
c3
62
1b
d4
71
37
10
40
87
e9
c7
44
f5
f3
a0
7c
ab
19
e8
6d
ff
95
95
ab
1d
d2
25
01
84
15
8d
68
4f
dd
04
85
a4
ee
1a
61
d6
92
fc
38
5d
ea
75
82
a6
d3
f6
c4
5d
46
b3
e6
3d
6c
f8
ae
97
9b
25
bb
22
c4
c0
2b
57
ff
33
eb
85
e3
74
b8
9e
1c
cd
2d
65
7b
d0
e0
19
59
8a
a7
2f
35
67
40
2c
67
21
69
31
e9
42
e8
88
ee
00
f8
c5
88
af
4b
69
1e
e3
4c
06
c0
7d
91
33
40
f5
5a
03
21
cd
a6
38
f5
a1
ff
dc
57
31
d8
b5
ca
46
46
49
60
30
b5
d7
69
b0
0f
cc
0d
84
44
6e
67
10
63
1b
6d
44
57
30
50
1c
b4
fb
ed
bc
b6
72
34
3f
5b
a0
24
f7
07
0f
b9
b6
e7
1c
8d
a0
16
50
60
65
43
12
14
19
b5
2a
37
ed
26
3f
25
52
59
14
29
36
c3
46
27
99
e4
46
b9
78
21
1d
60
f5
a2
ec
c0
29
1e
a2
71
6e
84
c4
41
60
75
a5
82
eb
a3
0f
df
c0
f5
96
bf
2e
e7
23
8d
ba
41
75
d7
eb
e9
61
04
4f
11
94
f6
fe
31
71
12
13
77
08
e4
2c
f5
f5
49
17
25
06
50
be
ee
98
7b
a8
52
1b
f5
c9
1e
8e
a9
1d
ce
9f
df
64
10
f8
df
4a
eb
01
62
d6
b1
f3
c0
a5
14
c6
03
72
5b
d8
2c
58
ae
73
14
55
09
53
1e
e1
ac
29
ab
1a
20
b6
2e
34
c2
ab
f6
36
fb
19
a5
9e
31
2e
12
e9
77
fa
49
c3
1b
ba
52
81
29
6d
85
44
0c
9e
5c
1a
bf
e7
8f
03
00
3f
ad
55
40
b1
a9
47
0e
25
77
f8
59
bf
f7
b0
6f
d0
bd
cd
41
9b
97
9f
3b
96
36
89
c5
b9
76
8b
ba
02
00
1d
94
33
42
36
5d
4d
7b
be
19
8e
91
3f
13
66
eb
d8
4b
3f
0b
a3
ab
ae
3e
c9
3d
c9
af
79
45
55
2a
b2
cc
e7
68
d9
0f
8f
57
c5
b8
9a
da
c7
ff
7f
cc
4e
a1
88
f1
c4
68
6f
63
4c
9c
3b
f9
25
79
fe
ac
03
27
8b
3a
4c
8b
c8
d2
ba
e4
74
9f
5c
ea
7a
5f
b1
9a
b8
32
95
0b
dd
4d
07
6a
12
14
55
2a
e3
3a
a3
1d
a7
f7
8b
6f
7e
8a
c8
4e
e8
50
39
ad
38
a2
69
41
96
cd
31
02
83
4d
85
66
06
ff
ed
92
fa
86
b7
52
e7
30
68
2e
ce
2e
72
b0
18
8d
10
9f
28
ba
ff
be
5e
40
94
0a
40
2e
cd
06
5e
30
b1
2c
76
36
a5
fc
0a
6c
63
3b
be
3a
48
55
12
3b
70
17
58
31
3e
97
b8
51
b1
89
43
8a
1a
04
a4
d6
1f
94
bd
ce
66
96
37
ec
d8
b1
00
ae
70
1c
d5
86
d1
ed
4b
a3
79
35
21
74
63
13
86
fa
1d
2c
36
69
43
a1
94
3f
d8
b2
2b
6c
9c
06
af
79
44
56
16
fc
ff
aa
3a
83
66
8b
08
2d
82
d0
b2
68
f6
78
13
72
90
6d
dd
af
39
3b
9c
18
d3
95
54
e8
e4
2b
32
c6
ea
09
5c
9d
5f
06
f4
a5
73
85
9a
2b
21
54
3a
fa
3c
2c
78
29
e6
77
84
cc
b8
22
62
2d
19
6f
45
66
17
4a
fd
4a
c1
3b
68
f4
b4
ab
98
9e
6d
e1
03
a3
14
1d
32
49
f6
23
6b
3b
b9
c6
4b
79
94
3b
89
c1
6a
f9
bd
24
71
78
2e
0b
c1
ce
bc
ce
48
a1
0a
c2
cf
61
0f
6d
a5
c9
44
fb
93
cf
e7
d8
0b
d5
e4
cd
aa
03
8c
e4
e2
9a
ac
11
4a
e8
48
5e
0a
5e
2b
77
94
d2
e7
66
08
8e
84
9e
12
cc
91
f7
65
a9
66
a2
ed
ef
fa
59
ed
75
89
58
a5
87
65
a9
69
ed
49
44
49
e9
e5
65
ba
1f
e4
b4
e3
18
f7
a7
fb
64
8d
36
c5
29
ba
d4
e8
47
b2
b2
79
3e
b8
ae
ac
75
de
cc
98
92
4f
15
a3
59
10
83
64
c7
e3
7b
a5
e5
67
cd
f2
79
78
d1
65
c6
9c
54
84
4c
b0
9a
d6
fc
45
a4
e1
24
32
ff
a5
ca
d0
4a
b8
0d
1c
f9
93
cb
fb
50
fd
b7
0f
7f
67
00
db
ef
aa
f0
8d
83
20
6c
b5
10
bf
17
61
b9
0d
47
10
9d
69
7b
48
6b
ec
e8
31
61
ab
a4
60
53
34
97
c3
90
41
c1
c1
08
9b
16
31
92
41
9f
cb
03
4f
a9
54
3f
1b
9a
af
2a
ec
10
22
da
ef
af
91
49
64
dd
38
fe
59
f6
c8
90
84
58
ad
ff
09
a8
40
55
9f
24
53
5d
48
d9
8c
ef
59
91
5e
8b
7c
3b
8c
92
1e
ff
e4
52
a2
17
df
7a
c6
17
4d
9d
90
c1
2f
97
6a
95
22
26
68
ae
56
96
1c
68
55
3c
90
fe
43
1d
ab
7c
d2
8f
54
01
35
20
32
bb
31
a6
ef
6c
58
0d
c6
27
d5
0e
52
83
83
af
90
8f
1b
3a
82
dd
5a
ac
1f
0d
9e
50
05
f1
53
54
ec
0b
b0
00
76
6e
c5
86
15
14
b4
27
11
83
df
4a
e7
5c
3c
ee
4c
01
1a
d4
7d
ee
65
5c
5a
05
dc
78
28
57
08
c5
55
6e
b2
cd
20
8b
00
49
c9
8f
37
9d
5c
96
16
5d
76
1d
ac
b4
fb
68
a7
20
0d
11
7a
3b
90
65
63
2c
a8
71
57
54
fd
c3
61
57
7d
bb
56
2b
a8
1d
5f
1f
a5
2d
de
17
e7
1f
ff
a4
a0
9f
8d
f4
ca
99
ae
38
92
6f
1c
a3
c7
ad
4d
e7
26
d2
4d
7b
26
7b
bd
44
bf
4a
7f
d7
14
33
30
ad
71
13
ec
b2
58
cc
82
11
73
ee
47
07
27
3c
4c
aa
79
7e
e7
41
d0
b3
21
9a
01
24
be
88
aa
37
9c
42
ac
05
f1
a6
8b
26
65
96
9c
83
7d
22
9f
a7
08
33
82
25
ce
e8
7c
ef
ff
4d
da
b2
a7
ab
a5
7c
a6
e1
00
fb
34
bf
02
9f
72
57
8e
61
bb
b8
dd
51
ec
16
dd
ee
7b
ee
c7
ad
72
a6
f9
e3
9b
3a
81
69
96
90
3d
73
4e
5a
62
62
7b
5e
85
22
ed
d7
48
94
53
d8
71
e7
32
be
eb
4b
cc
5a
e0
f2
83
35
7a
8c
6e
dc
7d
9c
a6
73
8a
d0
e0
f0
4f
3f
04
d0
57
93
ff
00
1c
28
50
a9
0e
4b
94
a0
e5
66
4b
dd
85
7b
f4
cb
05
d1
24
be
26
09
25
33
21
bb
17
bc
44
da
48
ea
dd
76
7a
12
68
91
73
00
b7
b0
a3
18
8f
02
e3
5c
17
82
cf
35
4c
78
da
9a
71
41
fe
ca
93
68
cb
99
a8
fc
bc
aa
82
17
fc
6a
a4
8c
04
da
89
65
0b
61
71
8a
44
97
97
81
6a
c5
40
52
27
ff
27
dc
40
98
02
bb
4d
57
d2
ae
14
de
34
9f
85
92
b5
e5
5e
09
b9
e4
e6
65
87
bc
aa
f1
ea
30
fa
08
a1
d6
c4
1c
7a
c4
a3
70
55
13
41
49
a4
e5
1e
77
2d
43
8f
b9
8d
a9
5a
4b
95
c1
27
ca
0e
b2
da
62
5c
85
e5
4e
68
19
0e
b3
dd
03
a0
5a
d9
3c
48
32
62
bf
be
8a
5b
0f
ec
54
95
64
ea
83
35
b4
96
dd
7e
98
51
2e
bf
23
26
b4
d8
2a
57
ea
36
50
ae
4f
84
76
db
c8
c3
70
b9
a0
67
00
22
93
5f
e9
b7
2d
03
e4
df
e8
d1
3a
43
19
8f
ba
6d
0c
bd
90
fc
db
f9
64
ba
92
dc
4a
ea
6e
b3
b1
32
fb
f6
c9
5c
d9
8c
c8
2b
f6
90
f1
54
60
ee
a6
f5
74
b2
30
7e
c0
f3
cd
bf
bf
42
48
78
23
ef
5e
6f
e2
a2
2f
e8
fa
03
f1
4c
18
7e
5a
c1
44
72
c5
7e
dd
10
c0
5a
ba
eb
d0
77
a1
25
42
b5
ce
82
da
9f
1b
b7
cc
df
ba
aa
5f
d4
43
09
41
1e
b0
4b
2f
aa
62
27
d5
54
97
4d
4a
19
4f
78
b0
4e
60
66
34
5e
0d
dc
f8
0e
5d
ab
fe
59
c3
db
22
e4
b2
91
9b
9a
38
ea
c7
cf
93
c1
ff
c7
8b
d7
12
08
8e
c9
7d
35
11
98
cb
ff
95
40
28
7d
33
7f
23
f7
d8
0d
5a
49
d9
ff
55
2a
20
55
f1
bf
09
74
b8
7b
a7
b5
99
98
d2
f4
0e
9a
de
38
6e
7e
e5
a3
16
a2
8a
ca
a0
0f
7b
1b
21
c0
f8
95
73
b5
b4
ee
c8
95
a2
e1
d6
7f
42
4f
8b
24
28
3e
dc
ee
30
a5
ef
00
33
38
fa
e6
eb
2a
8d
15
9b
7a
7f
33
85
ae
3a
d4
cf
78
d4
9d
95
f9
54
6b
bc
af
01
72
ee
5c
07
55
5a
37
b8
ab
8c
78
6e
2c
85
25
89
ee
99
b1
a6
8a
89
4b
7e
bf
cd
25
61
95
48
ec
9a
70
ee
43
95
2d
68
aa
a8
24
e3
f0
ac
2c
a1
b0
7a
55
9d
56
64
eb
47
99
23
66
1e
4b
6a
4f
d4
aa
b5
e3
2a
33
55
6d
ad
18
40
89
66
65
4a
a3
43
2c
17
69
77
e0
08
23
49
ea
f5
4b
4c
23
fe
1f
de
de
a6
52
2e
99
c7
16
93
e2
2d
df
46
f3
9d
30
4a
df
57
07
eb
23
65
c0
17
b7
f1
eb
73
c4
f3
01
57
d0
56
5e
23
d4
df
69
fc
05
d0
f6
72
ef
94
19
e9
a4
eb
b4
77
77
4c
8c
ca
e2
96
69
eb
f2
83
7a
6b
46
83
70
c4
10
ab
49
6f
5a
09
46
cf
5f
34
4b
f4
cf
0c
4e
b7
cf
70
01
3c
b0
5f
b7
de
75
89
41
bb
cb
f6
2b
c4
45
af
19
01
9d
7f
eb
50
ee
84
08
1c
cd
a2
6d
b6
87
19
41
03
62
70
e0
a8
f7
62
ab
0f
9c
b6
50
2a
2f
bf
ae
fa
92
9c
ff
60
e5
d1
c3
5b
b5
c9
cc
ea
3e
26
f5
07
1a
04
64
77
75
cb
4e
5f
fe
57
84
72
f4
5f
2e
eb
ff
e7
0f
db
8d
2c
48
e2
c7
a7
05
6d
cd
35
57
b3
a6
fb
01
d6
29
1a
f8
cc
e7
b8
bc
09
59
c6
f5
49
a9
0e
0d
84
29
29
5f
bf
02
22
f3
34
cd
39
cb
06
9b
c9
6e
94
81
a5
de
1a
0f
7d
10
f7
20
3d
53
d3
c0
71
95
9e
aa
6e
53
e8
98
6a
46
85
a0
c6
df
20
ae
84
47
fd
6e
40
e1
25
88
7c
7b
be
f3
dc
a6
13
6a
67
d1
1c
6a
1c
10
87
6c
6a
76
df
19
c5
68
d6
61
be
92
82
c7
87
10
e2
f8
12
9c
cb
2a
59
b0
71
e1
6d
40
73
8f
79
8e
d3
b8
7e
f2
ab
df
11
b3
30
04
cc
d6
8a
4f
d7
2a
6e
d0
08
fa
69
17
6c
d8
5f
47
1b
67
5f
7f
9a
96
a9
39
30
b6
8f
df
ba
d1
0e
c1
71
79
1d
10
8b
4e
06
be
4c
11
79
0c
3e
38
30
5e
b7
6e
a1
e6
b6
a1
95
ec
10
44
88
2d
ee
3c
f9
45
6a
a0
36
46
3f
25
49
62
4d
ba
c0
53
33
20
65
90
6c
d4
fb
98
f0
44
5a
b3
66
e4
f1
1b
a6
72
0a
49
bc
7d
8d
2d
4a
20
4f
49
43
4a
9b
48
f1
ae
08
58
11
8a
71
29
68
a5
e8
30
8e
a7
47
dc
2a
c3
1a
1b
7c
3a
6f
59
e2
be
d3
d1
37
3c
5a
88
c1
e8
29
41
06
ca
e9
e8
dc
c8
c7
eb
81
a1
8d
3b
d9
04
72
f5
2b
17
a7
7e
ff
e4
8d
79
aa
cd
b3
44
d7
2c
b6
ba
bc
59
e5
65
37
87
c4
5c
fe
46
21
bc
8a
a3
db
94
29
de
09
6f
e6
a0
b0
6f
b9
df
60
48
f7
1b
b6
f2
d3
ed
1e
ce
26
3f
3f
73
87
6b
02
f3
c7
d7
6c
6b
2c
89
15
0e
60
92
a1
94
b0
c6
c2
00
f8
dd
e6
c4
4c
36
d1
4a
08
82
f6
73
1b
56
67
84
92
14
77
b2
c5
42
04
e2
f8
72
0c
ee
9d
1e
85
78
ec
bc
8b
79
b5
d0
17
0e
38
29
21
55
fb
53
e8
61
ec
b6
f9
a7
5a
c1
3d
23
3c
ea
a9
46
59
da
95
9d
61
83
51
c3
af
4f
50
f4
30
46
ab
86
e8
2f
2f
d6
38
d3
3d
52
5e
93
f5
11
fe
5d
ba
f9
af
02
2d
4d
30
bc
b2
87
cb
64
b7
cc
b7
2e
b3
a2
c8
2b
e8
e6
44
09
c1
9c
da
66
4c
a6
4c
8e
a4
f4
9a
8f
8f
e6
4f
ae
dd
91
e8
91
58
3a
4a
67
5c
fd
1a
b3
c0
fd
85
66
fb
78
29
3a
b2
63
9a
12
2a
21
9a
73
d2
d7
ee
f4
dd
70
30
16
8a
0e
0d
33
19
ee
23
0c
1c
81
02
02
9e
ab
0d
03
35
df
0e
01
c0
5a
de
1d
57
70
08
8c
46
6a
dd
22
79
9c
cf
ae
a5
bd
4a
a7
b8
28
ed
52
ae
5e
4e
49
ef
90
b6
39
3a
91
aa
8d
d0
28
e9
b7
83
ea
54
84
5a
73
a6
f8
02
46
84
61
30
58
8f
75
7d
2c
9d
52
fa
ad
dd
f9
1e
59
2f
57
87
7d
2a
2d
16
d8
69
41
2f
99
43
a2
94
61
14
3e
52
7b
8a
be
19
f9
8f
14
44
27
17
22
3f
42
b7
e6
fc
73
c0
b0
e1
11
95
d2
db
bb
0c
c5
af
64
86
ec
b2
2b
d6
4e
f2
85
c9
13
be
09
d8
10
6e
f6
6e
2b
32
32
4c
65
8c
b0
3c
06
49
5c
15
9f
ab
40
5f
3a
2c
60
ec
37
3e
b4
e3
c0
aa
ef
14
66
9c
37
38
6a
39
e0
9b
e6
3a
82
51
ec
83
75
44
48
67
ac
b1
e8
6e
e7
c8
a1
cf
3d
e0
be
5e
c3
0e
49
bb
e9
78
f8
b2
72
7e
a9
b4
d0
32
c0
e8
52
e2
51
1a
f0
49
ff
bc
3a
2e
a3
96
6e
8f
bc
32
75
f2
a3
b2
e2
8d
a4
fe
88
d3
df
d6
60
4f
cc
17
7a
78
96
9c
10
01
e1
45
f7
c7
20
f0
aa
29
cd
11
ff
47
7b
61
24
c7
15
4a
cd
b7
3c
90
2a
c4
88
2f
62
7e
48
90
bb
d9
f5
68
98
b8
c2
49
e0
bb
a9
2e
d1
27
7e
fb
28
6d
72
df
28
29
c0
1d
53
1d
6f
42
c4
7d
00
9a
f9
7c
6b
78
07
2f
57
7a
76
5f
75
f9
74
07
b2
fd
8e
10
5c
ea
89
d1
58
dc
4b
01
5c
68
4b
2e
00
03
b7
bb
b7
91
d5
37
f3
b3
25
04
55
21
99
ca
87
ab
12
87
b3
81
a6
0f
ac
2e
02
ba
32
41
29
59
3a
f5
27
40
fa
c8
29
ce
25
71
f6
de
78
fe
f9
aa
73
af
e9
54
b9
69
53
ce
6a
b3
35
d0
71
16
97
35
00
b1
ec
81
c4
78
6d
73
9a
62
fc
b5
e4
24
72
aa
83
9f
0a
f5
e6
64
00
2c
07
17
02
90
a8
d4
16
ce
9f
3d
dc
35
91
a9
57
c2
fc
2e
26
f1
21
0e
39
83
56
3f
d3
fa
6e
2b
97
63
a3
9d
2c
73
c4
66
f0
e0
dc
48
bb
59
21
3f
bb
c0
c3
52
c4
2b
9e
d3
35
b3
00
c5
1c
f0
fc
d5
42
a2
48
12
9f
a7
38
84
c9
de
f8
0a
ad
90
06
49
d7
41
9e
97
93
0a
30
f9
76
75
a2
23
0f
a3
8d
85
7f
0a
76
1d
47
31
8b
e8
e5
a8
9e
a1
ee
15
3b
f4
c8
47
43
d2
17
1a
f7
33
72
d1
2a
b6
1f
a7
cf
b4
4a
9e
0d
f2
b0
fe
9c
20
0c
8e
e2
90
33
a6
65
0a
79
6c
02
95
92
96
f9
64
c6
c4
0b
01
8a
3f
aa
46
43
5e
d8
32
a0
bd
b0
63
74
59
f0
75
2d
fc
08
7a
28
26
fc
82
77
4d
22
7d
cd
58
e8
b7
a5
50
ec
74
fc
03
52
cb
ef
2d
57
69
d9
9f
ed
c0
ac
48
19
c0
38
9a
9d
05
21
2a
eb
c4
93
89
08
c8
e3
31
cb
b4
16
51
8d
e3
98
c8
dc
d5
40
a0
5d
2f
f1
89
f5
8e
9f
ab
a4
78
1e
f5
18
bb
ce
70
fc
b0
dc
cb
54
42
da
e5
63
ed
b7
62
db
6f
89
88
06
b9
3c
e1
c7
f8
68
d9
1a
79
89
66
66
a9
49
a3
da
1f
1a
c2
0c
04
33
72
2a
dd
91
b1
14
0e
4c
c2
f7
0d
cf
1f
e6
28
ac
f0
28
bd
bb
d6
14
5a
02
c6
43
c7
cc
2e
99
1d
13
3a
33
44
14
64
e8
6e
d6
8f
31
d6
71
8c
5e
1c
2a
fb
fb
09
3f
65
d1
a4
1f
8d
ad
40
06
e3
c7
f9
4b
bb
dc
2e
09
7e
dc
e4
01
3b
92
51
3e
79
62
b3
e7
ef
5a
70
fa
4a
ab
3b
f2
c7
50
eb
65
8d
fd
21
92
bf
ef
b9
cc
d5
ee
a1
35
8b
ac
5a
b2
4b
39
df
33
24
56
db
ba
31
01
d5
82
4a
72
3e
7d
4c
30
17
df
69
f3
10
4e
fa
94
d9
2e
0d
64
03
96
65
a0
2e
7f
6a
24
44
1a
e0
59
cf
6a
bd
ef
78
79
a5
20
47
14
3f
1b
ae
a3
eb
b0
82
09
22
e6
5a
53
84
59
8e
6e
1a
b7
50
70
8c
e6
1e
f2
e2
55
5b
e0
b3
a4
40
cc
e4
75
b6
1b
f8
94
e5
8a
e8
12
89
c1
11
19
29
01
76
0a
09
51
9a
c1
6d
60
49
d3
b3
ab
38
ff
56
b6
62
60
04
f4
4a
c2
1b
0f
2e
d8
3b
b6
2f
3c
1c
af
8a
63
57
2a
96
8e
33
b6
82
d6
f5
e1
92
d4
48
16
9b
30
e2
cb
22
45
99
ce
2a
b2
20
b3
63
53
1f
02
78
89
9f
dd
a2
13
60
6c
87
bf
67
19
0e
99
1c
d4
32
1d
d4
ce
62
8c
e7
cf
28
66
9c
a8
26
fa
d0
da
2b
a6
18
7b
28
c0
59
c4
87
14
14
6c
9b
bb
1a
cf
db
c8
b8
03
a6
b9
5f
fa
99
f0
77
26
b8
e5
c9
f4
2f
3d
82
e9
a6
65
1d
db
a9
91
90
df
60
b3
21
a0
46
08
7c
e8
51
32
a7
c3
ac
8c
f1
1e
23
0a
f5
1e
bb
28
40
71
8c
10
e8
e0
1a
8d
38
8d
5c
49
7b
f3
be
e8
7e
bb
4d
cb
11
11
b7
b1
16
b9
4e
09
7c
63
ad
ab
42
35
f9
69
b1
44
86
6f
99
5e
98
a6
05
93
d1
92
d0
79
c4
81
1d
0e
76
aa
4e
fc
13
6a
01
ab
6c
cc
0c
3e
d3
85
7b
b6
49
89
b4
16
52
4b
62
a1
19
65
a4
0a
23
78
ec
be
97
23
fc
d2
8c
df
1b
a8
1d
eb
62
d0
42
59
e4
0d
65
71
6e
00
69
b2
28
1e
6b
33
5c
91
eb
1e
ce
20
f1
3e
e0
95
c7
6c
14
c9
1c
34
aa
fc
72
67
0a
8a
e6
70
42
be
e1
75
76
f8
8b
4e
ff
c7
b2
f0
da
c3
5b
b6
56
46
bc
f9
24
14
78
7c
61
b9
91
5b
83
cf
ba
f5
4f
55
40
65
21
4c
22
f5
95
7f
77
52
12
3c
9d
15
15
2d
f7
a7
93
51
97
74
a4
d5
c2
7a
54
a0
ce
c5
b2
b3
b6
14
78
0c
81
0d
90
17
78
42
6c
ef
6b
fc
93
7e
d1
1b
f6
d8
b7
48
3d
d3
e6
9f
c1
4b
dc
ba
5a
0a
10
97
89
f2
ed
d8
a1
0d
54
1d
b6
ae
9c
9a
b4
eb
03
1b
95
3e
c2
89
8c
59
c3
63
d2
0a
e6
da
53
17
58
06
51
11
18
43
95
ce
ea
cd
f3
85
69
8e
82
1a
b8
c0
5a
50
cd
15
04
5f
76
eb
b5
20
7a
c1
f3
33
97
17
5c
36
3c
48
4e
20
f9
50
0b
56
0e
84
35
2b
bd
24
93
1c
6f
9f
9c
36
5a
56
09
3e
6d
2e
29
45
2f
49
00
23
4b
be
67
d2
0c
15
61
35
d0
4d
1a
d8
2f
9b
7e
36
0f
6d
4b
5d
a3
96
d9
09
3d
b1
ec
c3
46
ca
e1
ce
42
7d
78
aa
84
e1
ea
0e
60
83
4f
1e
24
e4
a1
cd
1f
ea
11
41
71
33
24
13
68
e7
7e
ba
bf
e8
c9
48
82
c5
2c
d3
8f
05
16
1d
41
b4
27
90
0c
6f
bb
15
10
7d
86
99
d0
d7
93
f9
93
31
66
84
70
6d
7d
bd
3b
7e
d3
b4
37
77
6d
c3
e9
d7
f2
b7
e3
f9
85
f9
01
24
a3
da
3b
5f
d5
df
a7
74
fc
39
e7
21
42
43
07
3d
fc
66
6f
ab
cc
5d
fe
23
46
b1
f6
4f
8e
ea
d1
d6
7d
00
d5
5e
e5
f5
ee
38
6f
24
3d
4a
bb
88
f4
99
2d
02
c7
e0
8e
9c
ed
03
41
da
3c
17
ab
7c
41
16
83
86
05
d1
c3
f1
b0
01
98
26
46
18
5d
c0
bc
61
f2
8b
9d
8f
23
51
69
10
1a
cc
a4
5a
33
41
51
fa
b8
1d
2e
a3
7e
5d
10
ba
c8
15
d9
c7
44
91
e8
55
41
09
ac
0f
7d
3a
8b
cd
91
25
39
a9
2b
5d
9b
04
5d
dd
dd
24
4c
7c
7d
46
98
a4
25
a8
8f
3f
17
ee
ed
9e
de
0e
83
46
0d
db
82
31
a3
b9
90
f3
c9
ef
ac
cc
63
4e
7d
b3
8e
d4
9d
e3
29
3b
b0
57
b3
37
39
e4
78
ed
c7
d6
01
88
3e
24
d4
4a
a0
c0
57
f8
df
2d
04
a8
44
72
a4
d8
75
f8
42
f5
8a
f8
b2
c1
89
23
63
09
2d
d5
84
0a
74
54
28
94
e5
d0
2c
21
f8
49
1c
6e
d7
4f
90
ae
91
e0
7b
08
82
c2
de
53
10
42
98
6e
e6
71
c3
7e
c1
99
3f
28
40
dd
ce
8d
35
ff
4f
57
11
6c
ba
eb
29
27
fa
c1
09
9f
ab
da
17
a9
47
e8
98
88
8e
9b
55
60
1e
16
3e
c0
9c
b6
e3
59
81
2f
ca
ae
bf
4c
dc
e5
bc
fe
46
01
0f
90
98
9d
15
48
e7
8e
a7
7f
78
87
0b
72
20
bd
b6
c5
85
27
dc
a6
58
00
ff
c3
54
3e
7b
df
92
f2
53
b3
1c
c3
5e
60
f0
86
5f
e7
8a
74
64
2b
b4
ef
69
a7
de
ec
3d
41
78
3e
2c
60
42
b1
40
33
56
33
64
ba
e8
84
bd
8c
c7
58
b0
a7
fd
cd
56
bb
bf
11
ed
c3
23
8c
1e
0c
a4
21
19
1b
46
f9
91
3c
e5
e2
06
75
01
38
d1
e1
18
4a
f2
37
87
2f
85
a3
21
78
02
55
ed
e2
0a
02
f2
ba
3f
75
60
20
8c
34
50
c5
f0
19
28
05
c7
51
62
11
f0
e9
00
a6
ae
4a
a1
7e
e0
4a
27
3a
41
85
48
4c
11
9f
d0
da
35
c4
48
2b
6a
d2
31
06
91
6a
eb
3f
9f
ac
b2
ca
32
58
58
d2
0b
10
f3
eb
27
23
3a
03
92
b4
52
2a
96
27
4e
b1
b6
ad
91
24
ce
91
84
27
57
00
c6
2d
14
85
a9
10
0b
0f
8f
72
6c
35
34
37
9d
c4
59
20
1e
75
f2
d7
7f
61
f1
d3
4a
b6
f9
73
62
e2
0a
f3
00
ee
ac
58
18
09
cb
70
04
4a
81
83
9c
b0
c3
c5
4c
4c
14
0f
51
8c
33
35
d7
05
74
85
32
57
e7
d1
22
24
3f
68
13
51
ad
8f
23
5b
f0
7b
9b
3d
ac
f4
12
a4
0c
4d
ac
52
e4
18
8c
25
b7
07
fb
9c
5c
43
1f
a5
e4
b2
16
98
d5
8d
74
fa
f0
fb
36
31
42
88
89
03
5a
8f
28
3a
3b
5a
1e
16
55
5f
b2
96
99
a0
ce
b0
77
f3
cb
fa
3d
2b
6f
71
b2
34
e7
5f
95
c5
5a
1a
6e
11
6d
b1
f2
49
3d
48
c8
02
89
d9
3d
69
0c
c0
19
df
65
0a
cd
06
59
c7
91
cb
3c
0f
48
02
0f
b6
ac
55
4b
0a
a5
fa
9d
d5
c5
73
82
b0
f8
2c
ce
c8
60
f0
00
68
99
03
af
b5
9c
3e
f6
38
c8
d0
4a
9a
d9
6c
9c
f0
e9
7b
8e
88
2e
28
d2
fb
5d
88
f7
66
22
81
f0
67
39
e3
6a
9e
bf
5e
de
fa
52
b1
c9
4e
30
a4
8a
52
85
18
77
59
12
f7
5c
c0
3a
c3
88
ff
65
5c
53
ea
97
83
13
8d
64
ac
17
f8
cd
78
4e
be
31
1b
11
aa
1b
f8
86
48
f5
4c
c1
21
d3
34
56
94
4b
8b
56
36
37
bd
2c
84
92
3d
56
4b
1c
df
07
7e
06
ae
95
b8
fc
b4
66
f5
b9
4d
ab
9a
06
ce
3b
44
b4
1a
87
e5
00
ea
5f
bf
d3
f9
0b
38
df
38
0a
86
db
24
7a
54
3f
3d
97
61
1a
5f
bc
01
df
3c
e7
ee
cd
2d
a3
1c
92
f4
bb
6b
e1
f9
c1
d9
72
23
de
47
70
e7
ab
9e
ef
bf
a5
63
f9
12
0f
a5
97
6a
d5
ef
c4
ee
58
d6
5d
cb
cb
03
75
66
72
e9
7f
5c
ee
cc
a0
64
67
5e
cf
13
82
c5
76
88
5e
eb
46
ec
26
24
8e
54
7c
8d
a2
e5
b2
26
2f
35
47
ee
ca
bc
8c
70
99
84
82
ea
e6
a4
00
e1
0a
0e
b3
c9
39
c9
b8
ed
35
3c
ff
ff
27
df
71
f8
6b
35
08
ff
72
30
e5
6f
a8
24
5f
34
81
bd
d8
73
8d
74
33
64
00
40
0f
5e
ed
03
4a
bf
15
f9
9b
f4
7c
27
1f
da
4f
9a
52
3b
f8
f0
65
20
b1
9d
1a
ef
ce
75
8b
cc
7d
b6
9d
c4
4a
ae
53
9e
e3
45
07
6f
8d
b9
0a
f3
b2
70
84
e3
a0
ae
d5
da
af
32
e5
94
1e
c0
89
6b
a8
e0
41
2f
ab
6a
7d
85
9e
23
ea
ea
39
ed
7e
03
52
98
0a
b3
b6
fc
41
93
75
0c
f4
5e
9d
dc
c7
fc
84
e5
ab
36
3e
30
88
26
94
ed
66
52
df
7a
24
fc
fd
3a
a8
df
52
f3
55
7b
e0
b4
a1
42
29
17
e9
3b
f1
5d
92
e2
36
ea
11
87
46
ba
e3
c2
a8
cf
9b
29
1a
52
3e
fb
db
aa
98
f5
1e
c6
c4
ef
e5
c1
9b
77
30
35
84
00
0f
a3
a2
b8
d5
e7
3d
9c
2c
70
82
f6
5f
18
df
8c
73
bd
eb
e2
6f
da
ce
a6
15
45
95
c9
49
aa
a6
fa
03
64
50
85
e7
61
f8
e5
62
48
29
36
0d
58
b2
31
95
47
68
8f
92
a3
24
29
e4
46
42
48
1b
72
81
ea
d6
cd
1c
49
1b
2f
af
78
10
16
2c
55
fe
57
8e
16
24
ab
6e
de
30
d2
fe
08
04
0e
d6
28
d2
c7
9a
49
4d
88
d0
54
79
bf
37
58
9e
7e
9b
45
c0
85
0b
e9
39
50
01
a4
55
01
26
c1
1c
56
78
e7
42
af
b6
1b
40
08
63
32
cd
d9
a0
57
f1
b5
07
5a
f2
fc
2e
ff
f8
f9
78
6b
97
c3
07
7d
b7
6c
89
c0
62
94
28
a9
64
6d
44
0a
14
e6
50
9a
fc
1a
4c
de
77
e8
47
a8
fe
9d
06
94
5e
01
51
28
34
b2
01
9f
6a
e5
9a
73
0d
98
41
56
ec
3b
e6
f1
91
8c
f2
3b
fe
7c
e8
a3
2f
14
6a
ac
ee
12
7d
b0
2a
8d
64
21
c3
87
dd
51
bc
f6
3d
9f
d6
48
78
84
ef
51
5a
05
9f
64
6a
86
08
35
57
d9
1c
1b
e3
38
77
f9
d5
4e
b0
b8
d8
99
9f
c0
c1
e6
bd
af
40
06
86
5a
fc
27
f5
60
01
ae
35
b5
99
07
30
e0
9c
7a
6a
a7
1d
55
a3
f4
55
b1
a6
93
fa
d3
4c
9e
5e
8e
d5
fc
09
94
2d
e5
5e
1b
3d
2a
34
c9
4f
79
6a
03
54
67
a0
8b
f1
03
a1
7a
c7
a2
8f
d4
ac
25
c5
86
d6
11
2f
53
47
73
70
90
46
e5
34
16
26
ca
33
a1
d0
6c
87
2a
0b
67
c4
bd
3d
99
cc
55
ad
d0
ba
e6
1c
8c
ae
a4
2a
b1
a6
57
6d
fa
2c
07
3b
82
0e
bf
df
99
6d
91
64
23
cb
42
a2
ed
42
c4
94
89
ce
60
a0
61
95
d1
88
25
5f
63
46
5d
18
d1
3e
46
95
ac
df
8c
36
27
2d
34
01
c0
47
48
44
54
ce
a3
53
ff
38
40
48
04
78
0d
46
1c
9a
85
3e
ab
8a
eb
53
f7
6b
5b
08
79
a6
cb
94
11
08
8f
7e
7c
5d
3d
8d
4d
79
96
75
2a
5b
4a
10
3b
9e
50
d9
4e
be
ce
8c
16
91
88
82
62
52
7c
81
c0
fb
51
a8
a1
75
1a
eb
2d
7a
f5
e9
fb
9e
fd
66
bf
1b
31
c7
72
69
dc
cc
a8
76
35
b1
4a
9e
76
6e
20
e4
d2
4d
c9
4e
2d
67
ff
2a
4b
b8
76
e1
1f
21
01
9f
30
a0
30
59
b3
93
8f
ce
42
46
d6
d8
9e
e7
8c
3d
15
be
2e
8f
d6
62
d1
14
a4
83
e8
86
41
91
f9
d2
c2
46
88
30
bb
c5
03
24
2d
c9
50
a3
f7
75
c6
e5
fa
36
8a
85
37
ae
7a
3d
06
6b
d1
f0
ad
c6
47
c4
84
62
74
5c
41
46
e5
44
b8
25
5f
67
44
98
36
44
b0
13
b6
c0
a1
7e
a9
a3
26
29
fb
47
e8
9c
f3
1b
1e
ae
33
49
3f
47
f4
e9
70
0a
1d
82
01
7c
4c
8b
8a
18
3f
6c
9a
d3
72
53
f8
5a
b3
8a
7d
4e
cf
7c
67
b3
f0
a5
3b
fb
3e
64
b1
23
a7
02
13
2d
ac
1c
cc
6c
6e
48
7e
38
f3
8f
22
fb
ee
92
27
c5
87
cf
a1
0e
3b
86
40
04
df
37
b9
bb
05
a6
b2
93
1e
e0
18
45
73
3b
a4
5f
8a
bf
d2
36
46
a0
d1
ab
d8
9b
44
bc
0d
9b
3d
1c
82
32
71
c2
75
2c
79
3f
e1
b2
eb
be
79
36
30
2e
7f
29
2e
9a
1d
b0
c7
e2
8c
fd
4a
8a
bc
01
dd
77
86
7b
a9
6a
4c
70
d4
71
42
59
43
67
45
7b
98
fe
a0
37
82
ad
4e
e4
ef
b4
d0
6a
d6
ea
e1
3a
0b
f6
a4
d3
81
f2
a6
21
7e
75
9d
09
c3
08
e7
61
8b
82
81
c9
2e
aa
71
60
fc
62
ea
13
62
a2
2c
50
ec
d6
df
60
77
22
4b
a4
54
e0
4d
74
fb
bb
08
8d
9e
73
18
97
69
2f
46
5b
28
7d
c8
e5
f1
01
45
6b
34
6f
35
db
a4
60
b2
74
fd
c0
30
fe
45
09
d3
8d
46
85
35
99
03
20
84
4f
99
d6
84
88
56
e5
86
fe
0f
c9
bb
98
d3
81
94
e0
41
0e
f7
45
bf
99
7d
19
a6
f9
2a
9c
72
59
47
38
4c
be
27
00
12
00
51
f5
1d
9c
bb
62
2d
24
cb
f1
c3
77
92
07
87
18
b8
e0
1b
63
4f
40
22
dc
20
1e
8c
8a
ae
34
1f
2c
96
99
37
e9
29
b5
c5
60
a6
ea
b0
3e
02
88
cc
f6
67
fe
10
2e
82
18
32
ba
f4
29
5a
42
33
7c
1a
dd
0e
9a
87
20
ce
d4
89
07
7a
ca
ec
95
0e
33
94
8e
0e
c7
f5
1d
fb
83
d3
ae
67
14
5b
88
db
e6
cf
2f
ec
38
21
6d
69
d6
6e
af
c8
54
79
fa
3d
bc
84
01
af
ac
c7
0a
91
f4
47
61
d1
2c
39
66
2c
4d
b0
4f
cd
d6
6f
ef
db
49
5e
4b
1b
5c
8f
78
c7
f6
02
c0
b5
35
3f
8c
ce
95
d2
08
6b
b1
69
cd
dc
d6
41
e1
1a
92
76
16
2e
7c
c9
87
39
32
ac
6b
83
54
d6
9c
b6
c0
02
b9
85
a8
ed
12
db
3b
27
24
7e
d1
9a
3e
90
c4
2b
2f
b8
03
e5
ce
b5
16
19
57
eb
36
7c
ec
70
89
e8
39
7b
4a
f9
89
c3
d1
3c
7c
1e
9a
4a
a4
29
d5
c5
5d
9c
f1
2b
a2
91
c0
56
e9
2c
67
d7
b1
e3
dc
c6
65
de
ed
d9
dc
7c
b7
95
66
28
77
da
ac
6f
b1
e0
16
8f
5c
4c
94
ee
9a
ce
ab
bf
a2
5f
9f
ad
be
7b
17
c4
56
0a
c8
40
f0
37
49
27
42
41
01
fd
53
30
c8
0c
1b
79
14
d5
3a
94
5f
8e
f4
48
a3
3c
ee
94
44
ee
4d
7e
7e
0b
a6
cf
1b
31
f6
ea
a8
69
da
61
c1
c2
6c
38
64
f7
5b
a7
2b
74
2f
e8
0b
95
87
58
39
09
a7
10
d6
6a
95
fa
ff
a9
1c
18
e4
f8
d1
5c
03
42
5c
ea
de
70
3e
ce
1f
20
f1
7f
94
39
6c
74
94
a4
81
8b
2c
b8
f4
48
9a
66
90
84
74
0b
e5
d8
35
18
42
c1
a9
0e
35
f3
8a
9b
a4
54
73
a9
32
b1
75
87
16
ec
51
cc
98
f5
c5
84
20
cb
e1
10
23
73
36
2a
3b
4f
ed
f3
39
84
1c
79
ee
d1
f2
cd
b1
6d
bb
7b
39
33
16
b1
28
1a
fa
c4
3f
d5
a0
c1
97
7f
fe
6c
91
15
5f
d5
21
57
fa
ae
0a
51
76
03
d7
8b
02
4e
03
13
87
b4
d1
1a
2a
78
b2
bb
16
3e
52
16
20
6e
6a
d8
6a
40
27
ff
6e
c5
12
a6
05
13
13
da
e7
0b
c6
9b
64
6f
65
f2
69
5c
93
a8
13
b3
c3
8e
5b
83
39
a5
96
9e
fc
b4
b4
00
54
d3
45
06
2e
0a
ef
17
37
17
da
d0
a1
7b
1a
33
6a
24
f6
47
01
65
c7
75
17
87
07
fb
65
31
1a
cb
ce
86
c7
7c
21
8d
f5
e2
91
a9
56
98
fe
78
9b
71
72
40
bf
f7
ea
fb
4f
cd
1a
eb
40
d9
a7
fa
36
cb
cc
a1
38
2c
a6
52
f7
af
9d
66
43
3e
dd
cd
55
c6
a2
69
a9
f9
6d
d0
65
55
84
99
9c
84
22
ee
c4
b7
38
8a
82
0f
7b
d4
46
52
c5
7b
33
4d
5f
07
e9
ad
04
45
68
ba
b5
47
74
97
4a
e1
ea
2e
01
c4
56
c9
16
c4
48
44
2b
39
d0
7c
81
ce
27
67
86
be
d4
04
4a
db
ce
21
6c
96
05
40
20
9f
f8
36
32
77
5c
15
97
de
88
93
c7
95
ef
65
3d
13
76
d9
3c
df
4b
88
5b
cf
2c
f8
9a
41
1e
3f
90
b0
d1
43
17
88
74
bc
d0
61
4f
63
6f
c2
e9
12
91
c2
5b
0a
cc
2a
43
63
c1
36
e8
b7
5d
24
60
a2
91
52
88
a7
fe
62
7c
90
9f
0b
47
17
65
c1
56
4b
5f
20
a1
72
e4
22
24
7c
d2
ee
8e
bc
26
05
d7
59
c6
0b
b6
76
3d
50
8b
24
f4
4e
87
4f
d0
c4
7c
fc
32
aa
59
2a
fe
98
fa
e8
4d
db
c7
97
39
41
e5
26
cc
54
f1
d8
e7
68
96
ee
09
49
47
f1
a5
ba
f2
7c
3e
b8
2c
81
63
5d
43
4e
89
ff
46
94
51
d5
37
a0
5a
0b
1a
26
c8
cb
4e
d7
cc
4c
59
91
3b
f1
65
f0
cf
02
22
61
d5
f7
41
30
a7
99
bb
b6
55
3a
ff
72
8e
4e
5c
57
82
0e
75
c1
ea
93
a5
4e
9f
64
cd
37
69
a3
99
6b
ae
72
c2
e8
ab
03
5f
cb
2d
2c
c3
9f
9a
2d
0a
0f
94
44
3f
ed
48
85
69
36
04
e1
c3
0f
f2
d1
e1
37
88
0f
63
66
71
fa
50
83
51
8a
f4
a5
6a
e8
ee
90
a1
66
e6
cf
5b
02
d1
f5
8d
25
d3
78
c2
c0
64
9e
03
34
55
69
af
9e
b4
a1
6f
33
3b
c5
fa
b8
c1
ad
cb
eb
86
27
b5
93
28
38
d6
e1
f4
d3
1b
4a
38
6f
3b
dd
11
df
d4
df
96
8d
c3
87
e1
a6
95
a6
a5
65
46
b5
0a
1c
2f
0c
d5
29
6c
55
c0
37
e0
79
9c
2a
be
38
5b
2d
60
51
07
9a
46
fb
4c
4e
68
cd
85
8e
07
e7
71
9f
c0
41
8b
b6
88
25
4b
1c
4f
b6
b4
6c
6d
cb
d3
ae
2d
1e
48
ff
2c
fe
26
64
41
32
5f
8b
45
04
99
30
b3
69
e5
92
91
ab
24
92
74
bd
2e
4a
91
be
c1
1d
8e
bc
a9
d3
9e
60
9a
18
77
6a
94
fb
89
3e
f4
54
83
d2
96
6a
99
60
20
1e
22
aa
86
bc
f6
6f
a1
29
90
fe
31
15
c6
59
ef
2d
eb
93
a0
1e
71
54
b7
fe
07
1e
f7
68
b7
bd
10
3d
10
f2
16
46
0f
bf
dc
5c
5b
fe
8f
9d
0c
a4
42
89
0d
f9
9f
43
a8
1c
49
2e
4e
ac
2b
52
4e
ac
bf
e9
b2
02
03
4a
fb
08
0d
6b
59
46
c0
bd
45
e3
8d
9f
3b
e4
f4
b8
42
93
b2
14
69
e1
4b
05
e6
aa
98
68
53
94
58
6a
9b
1d
b1
2c
26
99
07
8a
10
f1
a2
9f
5c
9c
86
02
44
bf
0a
1d
09
04
73
1f
54
96
05
67
78
79
5f
b5
0a
a9
ba
88
d8
8b
fe
34
83
69
40
67
a4
24
0c
fb
67
27
b0
aa
7b
1e
cb
82
18
65
5d
73
eb
73
e9
8e
8a
36
9a
21
b8
85
a1
a1
da
a6
e7
a3
f2
02
9d
b8
97
87
07
31
bc
e3
c3
13
1a
fd
9e
df
a3
11
26
df
f8
d7
36
9a
f4
75
e1
f6
d2
15
d5
91
5d
72
89
60
2a
79
a7
dd
3b
56
dd
35
2e
6c
b7
c5
64
fd
0d
6b
54
d0
07
a3
87
73
12
6b
05
f2
7b
10
15
93
79
9c
6f
86
70
42
58
4f
2d
be
a3
91
fc
38
af
e5
cb
13
e7
4e
40
45
81
d1
31
c1
7a
5a
95
07
01
2b
cf
12
f1
14
2a
95
17
6a
5d
f6
5e
f9
36
12
8d
08
9c
68
5a
2d
ca
17
f4
1e
bc
2f
3d
b6
e9
d0
d6
16
5a
55
b2
1c
fb
33
09
f9
00
ba
9e
96
e7
11
ca
44
58
c5
fb
5a
96
16
2a
02
dc
2f
8b
2a
8d
7b
f6
49
85
2d
73
07
9c
7f
07
c6
45
26
50
e0
51
f6
39
e9
41
58
18
95
aa
87
f7
fb
62
ae
3c
84
d2
0f
20
6e
aa
b2
b9
84
0f
86
e1
d4
d8
90
10
ea
9b
a8
f0
60
d2
58
f4
12
77
ca
29
39
c3
0d
d8
a0
77
95
2c
93
68
85
54
ce
b0
e5
e3
81
6c
02
6e
a2
67
36
1d
ac
3a
4a
e0
92
fb
87
0a
b6
2a
32
ea
fb
a6
7b
ba
c6
a2
7c
a3
bb
09
de
fa
b9
2b
ec
03
d6
41
7f
77
68
6f
ef
fe
7a
ae
fc
af
89
c6
4f
36
fb
f2
68
9b
72
ec
52
3b
da
12
46
47
25
2f
f7
bc
d2
0b
53
c8
54
b3
c5
63
71
b1
