c8
d8
fb
88
36
3f
f2
6b
6a
44
58
64
38
a1
64
1e
09
79
16
07
81
85
85
f3
95
e2
0c
37
8b
26
c1
e2
b0
d9
fa
d7
df
95
33
11
5c
af
b5
ce
fb
b9
f6
af
14
5e
cd
9f
a8
30
02
40
c2
3c
6b
03
a7
5f
d7
19
b1
2a
ba
5f
33
97
04
90
60
7b
1e
07
02
b6
f0
15
1b
5e
0c
af
5c
04
2d
07
95
da
06
01
a3
a3
06
96
be
e7
8d
5f
d8
9a
21
62
3f
15
6c
26
1b
a9
7a
cd
40
da
21
04
67
9d
0f
a4
d4
a6
7a
07
15
24
c9
9e
0e
82
35
1d
6e
a3
26
6e
bd
1e
2f
32
e6
90
09
7f
f2
8d
af
eb
2b
60
52
ce
5d
26
c3
29
7d
18
92
74
b9
24
77
43
7a
ad
36
21
37
c2
e5
ed
33
fd
2f
de
a9
9b
41
f2
e2
a6
67
d0
5d
f1
bd
71
65
e4
e7
ae
66
5e
3b
94
a3
ad
d3
4b
1f
74
5c
ca
22
69
18
f9
d8
35
44
03
32
62
fd
c4
42
70
7a
41
07
9e
40
e5
82
7f
93
1a
e9
7a
49
0a
b3
0a
77
f3
74
71
30
06
49
be
e3
5b
0a
e5
4c
d7
a4
85
05
7d
d7
ff
01
54
42
36
91
0e
b2
62
2c
82
9d
44
86
c8
14
4a
38
1d
45
4c
27
02
b9
58
2d
60
d1
ae
de
f4
7f
b9
28
29
50
bb
a5
b9
51
33
c1
c4
bf
ff
5c
13
83
65
03
c5
31
c2
c6
bb
59
4e
c8
23
7e
bd
95
e9
88
67
7a
11
b5
d6
0d
29
df
37
ae
c4
af
52
c8
54
bd
b5
2b
89
88
37
ca
83
78
29
59
f5
30
b3
fe
e9
2f
9c
92
eb
50
90
7d
40
95
bf
d4
5f
a3
90
c1
5a
fc
2f
40
0e
ae
bf
9a
ed
04
8c
ea
12
a4
03
e0
7f
11
be
c3
08
cc
2c
f0
ad
dc
70
e4
3a
05
81
af
fe
5f
19
82
ac
ae
99
1e
72
7d
a7
cb
00
5d
b2
a7
d9
96
b9
04
ef
06
b6
66
e5
6a
03
f2
4c
51
1a
4c
32
d1
1d
8c
7e
8f
47
ec
55
48
18
97
d6
cb
e7
1b
99
bd
5d
8b
86
f6
70
d4
10
8b
a1
6e
c1
82
c7
03
f7
36
7f
77
62
cb
fb
e8
b4
5f
07
c9
9e
c0
ca
7f
12
61
1f
ec
11
ae
1a
c8
93
fd
34
04
a9
7e
b8
4a
9e
d7
0f
c8
c0
98
1a
db
e7
c8
9b
28
90
5a
3d
64
66
4f
65
0e
55
d2
21
fe
06
7b
df
ce
4b
20
61
fb
a3
38
62
e7
76
bd
54
e3
77
36
2f
6b
3f
66
17
1d
7c
dd
df
e7
40
77
d7
93
dd
4c
4e
d8
d7
a4
4e
a7
69
4b
b5
f0
23
13
cb
0c
68
e9
47
e6
b8
36
12
a0
7c
aa
02
69
a4
73
b1
85
25
74
7f
7e
bf
8f
f4
92
a6
00
c8
f9
e0
24
8d
fd
c9
a5
00
04
40
45
e3
4e
4f
39
53
d5
42
36
7c
6e
a3
ee
2e
27
a6
f4
97
ec
98
e8
82
11
6c
7d
0c
08
be
24
cc
8f
84
85
d3
6d
79
68
69
b1
5d
8d
78
2c
04
61
1c
1c
47
ab
5b
4f
82
d5
b5
f3
50
fa
d3
02
27
76
8e
29
9e
7d
5d
78
73
ca
56
bd
97
a4
40
6b
04
eb
93
f3
3f
31
34
fc
8a
82
1d
40
50
bd
a5
af
84
6e
36
13
72
1f
ca
1e
a9
90
2f
f7
cd
e1
55
fb
f3
14
aa
c1
e7
e8
28
56
79
39
3d
a6
ef
64
23
c4
73
de
6c
a1
bf
e8
39
35
6c
99
93
0a
14
3c
48
6b
03
dc
94
c2
4d
84
f4
cf
8e
e4
2d
87
4e
c6
89
54
22
3e
b8
c0
9e
85
4d
67
b2
76
0a
0d
3e
47
43
a4
6b
2d
9e
94
22
8b
95
a6
2e
49
76
8c
bb
e4
5e
5b
6d
8e
fb
67
54
3c
c6
15
d8
a9
77
a1
34
79
8e
6a
c0
df
53
cd
5c
76
fa
9e
33
b8
f2
a3
2f
fb
76
f7
15
05
f2
4a
8d
0f
ca
ff
1f
0f
79
de
15
c9
2b
08
75
8c
81
b9
4e
e5
09
6e
19
6d
1f
e4
49
71
5e
a2
4a
a7
71
4e
af
40
67
85
28
2e
21
ec
ae
62
61
ff
64
0e
1b
60
d7
62
51
b2
eb
a2
9f
a5
92
3f
77
d4
ca
4c
c3
c9
14
4e
70
09
56
f1
e1
39
e6
7e
e0
34
95
8c
b0
a1
ce
be
18
1f
42
e4
74
8e
c4
cf
01
d3
50
4d
5a
c7
e1
af
db
85
ff
b0
10
c2
12
0a
cc
c1
0d
36
f3
5f
30
76
98
19
68
d0
b6
73
bf
04
3a
ee
92
a1
02
ac
eb
4b
12
f1
a4
6b
f8
e4
ff
2e
64
0f
0c
09
ae
d3
67
41
ab
63
df
9f
0e
c6
30
8a
38
15
20
43
c0
d5
bd
c6
bb
a9
28
f0
f3
7c
2c
cb
8d
89
fb
df
b9
93
e2
14
83
62
83
a1
6b
e0
c1
87
f3
90
42
a0
1f
11
65
da
42
d8
ce
a1
26
b1
57
46
8e
79
b0
b6
92
1e
f4
51
28
ae
a9
d5
37
4d
36
03
39
17
56
de
f9
20
b4
8d
99
5e
71
9e
89
5a
9d
1b
7c
60
fc
54
30
85
fa
8e
01
1b
83
e9
85
ae
d6
87
0a
d2
10
a5
27
1a
6c
a0
69
94
91
58
96
a4
0c
df
18
14
49
87
2e
1d
7d
d0
a1
fe
5a
8c
9f
3b
b7
eb
bb
db
0d
c0
67
6f
15
22
af
3f
d2
7c
4b
8c
08
8c
eb
a0
6c
12
02
57
5b
c2
38
75
e7
38
19
e5
cc
01
e2
f0
db
6d
4e
79
15
06
e5
1e
22
1e
b4
9c
e2
01
ba
cd
37
93
c1
f3
da
f4
76
0a
6b
65
8a
5f
72
0f
d1
5d
f7
c8
67
f1
fa
a9
78
ca
0e
4a
a1
4b
b7
65
14
5a
c3
6e
b3
2c
bd
5d
76
2d
6e
64
50
0b
83
33
b2
cc
df
36
54
7f
a2
1a
d3
f8
37
14
6a
f2
ad
54
e2
ff
71
1f
8f
7c
2b
4d
34
46
16
e3
8c
ee
57
17
e7
d8
25
87
8b
41
a6
76
4e
db
d1
2b
70
2b
d3
24
01
b7
c9
23
b9
60
5a
47
8d
fe
ab
4b
dc
98
cf
a7
6d
8d
49
b0
d5
fc
81
3b
83
53
03
e7
ba
15
fe
7b
9b
5b
09
25
8d
96
4b
d0
fa
41
43
28
0a
4c
d8
d5
79
ea
e9
3c
57
c3
5a
c0
f6
c2
45
22
2f
12
30
21
29
1b
29
c8
72
38
8b
bf
e1
7e
92
43
5e
a1
82
b8
c8
bf
52
e3
21
8a
7a
98
fc
7c
4d
fc
60
ac
2a
60
36
6d
b3
ff
7d
28
50
7e
b6
6a
7e
38
00
30
05
a5
1b
29
7a
a3
e5
d6
ed
e6
96
5e
3d
1f
25
08
ce
f1
b7
e6
7b
ee
e7
03
bb
d4
62
7a
58
be
3f
98
af
ec
54
ef
95
d2
ea
9b
28
1c
35
d7
66
d9
59
5c
90
aa
ff
6d
e9
f7
51
c7
0d
0e
17
0a
1b
e6
55
d7
df
1c
9b
9f
d9
01
f5
5c
74
16
fc
2a
5b
5e
9b
c0
64
43
67
c7
f3
e3
77
83
68
08
6d
dc
9d
f4
fd
2b
52
1e
1a
35
a1
57
3d
e3
38
77
e7
3a
b5
38
d2
18
eb
9c
71
a5
a6
bf
a5
39
21
b9
5d
4e
1a
c6
dc
99
b8
0c
2e
96
35
85
8e
57
7c
4a
c1
f8
28
8e
d7
69
83
d3
87
6b
02
c7
94
99
35
aa
f0
13
ea
69
54
21
5e
8e
37
c2
08
0e
48
5b
99
08
e6
46
38
8e
6f
2e
96
3a
30
93
69
86
9e
c2
68
d6
e5
4c
f0
4a
25
b4
78
c0
59
98
fc
84
02
e6
02
03
27
85
d1
2b
b6
28
38
66
d1
0b
84
e2
be
dc
a4
44
82
49
28
7d
56
86
4d
c2
75
84
f1
69
bb
45
dd
86
b3
1e
7b
3c
bd
64
2c
2e
6f
5b
f6
0b
3d
38
2b
85
43
c9
8e
92
15
b7
34
ed
0b
51
a1
0b
d9
a0
29
00
93
a0
b6
6d
9a
75
d3
d3
df
b7
9e
28
ad
3b
6a
70
47
98
63
3a
83
06
10
d4
4d
d3
91
b9
55
26
ed
1e
d5
26
9c
fc
e1
08
90
b0
16
28
ba
34
e2
d8
95
2a
1d
4e
94
13
ca
82
63
7c
c3
53
aa
8a
e2
75
f2
85
1d
ee
32
bf
55
47
0b
3f
15
f5
fc
49
77
88
bc
78
ee
6f
c1
00
32
9f
3f
88
61
6b
29
8a
d2
92
76
35
5f
37
85
ad
3b
17
2f
2b
9c
9a
34
1c
a0
03
8f
ff
f4
01
b1
4d
01
19
99
34
3e
0c
e9
46
f4
bb
b5
7a
ea
1f
67
0c
0b
42
11
3c
6f
66
14
b8
0b
68
13
0d
2c
05
7d
72
94
55
2c
9a
68
65
42
7b
00
45
23
61
9d
aa
9c
fb
d6
62
7a
4b
42
7b
bf
7d
0a
42
cc
27
2b
2b
d2
69
18
15
02
11
66
0f
2e
e0
35
e5
e4
93
25
21
2f
f0
e3
6f
aa
d7
d1
f8
e8
6e
ba
c1
f9
11
8b
9c
d0
22
5c
9d
5f
cb
a9
a9
1d
cc
47
73
0d
2e
38
1e
86
49
6b
b9
22
eb
a6
29
6d
c2
9b
5c
99
55
4f
13
23
05
06
8d
42
96
fc
50
ab
d4
41
54
97
94
9a
ae
3a
c3
4b
95
78
42
d5
5c
cd
e6
37
1c
38
78
f4
cc
6f
c1
2f
95
cc
f5
b2
c4
93
f5
c3
1b
1d
59
6e
5e
4c
c0
5d
20
19
2d
1b
73
a6
54
af
20
93
69
22
89
44
df
67
55
2f
d2
89
f5
6a
61
9c
06
4d
30
47
fe
a6
d8
83
fd
7a
62
e3
2b
fe
fb
13
36
69
6c
4d
c4
45
7d
4a
e3
c4
98
ff
33
3f
15
67
60
85
bd
27
f6
3d
00
54
8b
7d
a9
11
19
04
de
d8
fb
7b
4c
e6
7c
21
11
25
3b
e3
e4
fd
5e
10
71
9c
e9
cc
39
5e
9c
51
f9
42
c6
75
b6
fd
40
49
3b
27
bb
f2
55
aa
43
b6
9a
88
bd
a8
2f
2a
9c
10
0f
1d
75
c9
2e
cc
95
b1
5e
d7
9a
ee
eb
6d
00
aa
11
fe
12
0d
55
f8
df
06
dd
5c
d7
c3
81
b5
a7
be
c3
42
e9
a0
73
c0
1a
85
1d
87
2b
a4
e3
00
9b
9e
17
f8
6d
aa
bc
ec
7d
c7
67
05
6f
c3
8e
f0
00
a3
02
ad
dd
c9
90
c0
f2
c4
22
fa
d0
53
30
b6
50
4b
f9
7e
b4
9c
e9
45
bc
49
ca
b8
55
ad
44
a8
ab
7f
78
d8
09
17
d1
b3
68
00
ad
ab
d3
86
09
7c
e4
c4
a0
f7
87
be
10
8b
0a
77
b1
bf
3a
f5
0e
90
8f
b4
5c
82
ba
f4
64
2c
e1
32
af
7a
e8
e8
32
5d
c1
a1
1c
81
31
92
3c
95
e2
97
d2
03
f9
a6
c0
1d
c3
f4
c9
d7
7c
f0
5f
55
d0
fe
90
1c
2c
5d
0e
9e
d3
84
3c
89
e5
5d
6a
64
db
82
74
f6
a9
ff
75
c1
4b
4a
24
a3
4f
f4
aa
b5
fc
39
e8
53
aa
3e
54
16
8d
da
7d
9b
60
c2
91
eb
3a
18
fb
84
33
9f
f2
bf
a6
9d
25
2e
3f
83
bf
93
1c
3a
e6
85
29
a9
b7
87
6f
ae
37
c3
cb
59
7e
bd
2c
1f
bd
73
97
7a
fe
b1
bf
0d
92
1a
2f
b7
59
d0
e5
92
18
7e
0b
0d
9d
3c
ff
5e
ec
b0
ca
eb
07
59
a2
b5
8d
3e
52
aa
32
fa
d0
ba
1f
49
4d
1b
c5
49
fe
20
44
6b
28
4f
57
64
4c
0a
b8
e5
56
36
f5
2b
6c
38
66
b8
83
3a
f7
82
ca
eb
02
43
aa
d0
65
df
69
59
10
7b
28
dc
97
db
98
69
7b
d2
55
e8
e8
b0
63
16
88
6b
9a
c8
2e
f5
5c
b9
2b
94
e0
f4
d5
ad
8e
f9
2e
f4
57
13
6c
d2
d0
fa
03
ab
eb
36
92
c3
61
e7
21
66
e8
6e
f8
6b
52
f5
e6
09
28
d4
7d
4c
37
76
63
a2
51
8c
4f
44
c2
de
57
1c
8e
4a
0f
ee
0e
88
c4
5f
14
00
5e
00
37
eb
3b
a7
64
b4
93
45
ab
70
90
34
00
b3
cc
b2
8b
c9
02
02
dc
77
d9
c2
f5
93
fc
2c
7b
b2
d3
83
ce
fa
d2
0d
37
5d
7f
c2
c5
ed
ab
27
d3
03
14
29
0c
50
90
d8
8c
9f
a5
41
1a
d1
dd
ad
2b
cc
57
5e
ce
5c
76
8f
4f
f0
b9
76
5e
22
9c
44
76
31
ae
c8
01
77
14
57
8e
e0
0a
a5
30
8d
73
2e
42
95
79
5a
56
e0
4b
71
1a
0f
2a
a1
f9
65
bf
ca
92
cb
39
f9
dc
21
f8
6a
7b
58
a1
85
b5
3c
09
65
1d
62
c6
7e
85
8e
53
fe
43
de
d6
1d
f6
6e
01
5f
b0
ab
ed
68
8f
84
77
85
88
88
a4
1b
9a
8e
48
0e
2a
ed
95
3d
4f
14
67
da
cf
54
98
00
53
69
12
5e
ae
35
58
ad
aa
50
9c
e3
26
fd
6b
23
46
81
2f
61
3f
14
7e
61
2c
b6
33
13
4c
d2
e2
06
85
60
be
96
a4
8d
63
7e
7b
f3
b6
3e
84
00
98
ef
49
95
7b
7c
37
c4
1e
f5
dc
a4
5b
ea
24
7a
b7
48
16
90
3f
eb
a4
10
c0
a2
2a
0b
50
cb
43
c5
8e
66
ab
b9
35
fb
c8
2a
7b
22
f7
02
fa
6b
51
f6
ad
62
ec
70
08
90
d8
3f
cf
0c
de
6a
05
b6
7e
52
9b
0a
6e
14
b9
82
02
81
15
db
22
ae
0a
1b
68
ad
c6
e8
1c
2c
09
87
ef
45
ac
8d
6b
2c
2b
83
2e
e5
ff
09
81
c0
22
42
55
b0
f0
88
de
d1
c2
3d
95
63
ae
83
8b
88
25
42
21
c3
f8
95
b9
65
c5
ba
ec
be
7b
b8
83
e7
3c
62
7b
96
c1
27
af
1a
2a
7e
c7
52
89
e8
e6
b4
70
65
1b
87
88
0e
43
2a
c1
20
95
9e
f7
5f
bd
e9
85
fb
a9
00
0d
68
3c
be
39
ee
9a
51
28
29
60
34
ea
8d
51
66
6d
f3
bf
d8
e2
d8
94
63
79
5a
96
5f
95
4f
ef
88
82
38
52
77
51
1f
32
eb
97
56
16
7a
29
8a
e5
ef
99
2e
a8
86
ef
39
b2
9d
c1
43
7a
7c
d8
4a
72
17
b3
15
6c
af
88
c4
f2
e3
7d
0f
fa
4d
fc
be
50
af
f5
bc
9b
47
f3
f2
7e
ef
c5
95
f5
4c
c1
5c
ea
bf
d0
3f
b6
a7
18
77
04
f1
c8
f9
e5
8b
75
ac
c0
79
7f
3b
98
e0
36
72
be
5c
53
0b
4f
79
03
48
f6
c4
a6
b0
6e
7d
01
19
b6
3d
b4
2a
13
b1
33
38
52
16
de
a9
4a
ff
a3
57
fb
e9
dd
30
02
94
33
b7
44
d0
7d
1b
f9
c3
b2
18
fd
dc
be
f4
45
cc
6f
72
d7
10
c4
52
22
3a
15
18
7b
fb
00
2f
fc
35
d7
8c
d3
13
48
32
ee
0d
df
14
8e
b7
4c
a5
ea
18
e0
7a
e2
e2
33
4c
65
53
6f
75
88
69
02
43
9e
70
9b
b8
5b
75
82
f0
81
98
07
f8
a2
cb
01
23
e0
96
55
aa
c8
7d
3d
46
86
cc
ad
cf
b5
56
3e
f8
73
78
8e
ed
da
f3
b9
bb
00
58
dd
7e
22
8b
ea
1a
df
70
94
11
e7
f7
b3
36
e6
67
41
c0
fe
71
4d
09
64
e6
77
32
ca
b7
7e
fc
39
74
f6
96
5f
99
44
d9
56
96
57
e8
17
49
de
e8
1e
69
79
04
1b
8a
30
5f
98
29
d7
e8
6b
6f
fd
4c
46
6a
be
4f
54
21
5f
a1
cb
de
72
e7
77
1d
6b
16
24
c7
a7
9a
33
06
28
fb
fe
96
ea
de
b1
a1
f8
19
82
04
31
d5
56
57
72
e9
69
fc
59
f8
36
cd
cc
34
8a
9d
09
5d
fd
02
81
45
6f
eb
90
54
0c
e6
25
d1
ba
56
4a
86
45
9f
ae
c5
26
26
77
26
05
2a
8e
d7
4f
da
30
eb
bf
3f
db
36
d1
d2
50
46
9f
4c
2d
39
c2
3b
56
d0
55
07
ad
24
54
1a
c5
9f
aa
0a
51
4b
91
6e
9e
9c
77
28
b8
dc
31
dc
ec
53
5f
75
e9
8f
b9
fd
e7
73
24
da
38
56
01
66
98
7d
70
c1
76
4b
41
03
47
96
bc
ad
75
a9
30
63
16
1f
c4
ba
50
93
d8
c1
ed
bd
33
9b
f2
06
e6
de
7e
30
9e
2e
e3
97
74
0c
73
56
95
28
f2
ed
0b
f7
bc
6c
da
1a
aa
31
eb
4e
b3
75
1a
76
98
85
95
c2
7c
cf
18
1a
9b
b2
5a
8a
aa
63
ef
0a
ad
f0
a4
48
9f
c1
68
50
19
a9
7f
e6
cd
9e
84
41
04
f9
87
58
ac
8e
06
ca
18
a4
fe
b9
81
e7
07
61
bd
0c
ee
9d
c1
60
7d
73
04
97
2e
54
a5
56
e8
6e
90
19
62
0b
ab
76
b8
54
69
84
9b
7d
8e
51
29
1e
19
33
ba
dc
55
99
49
96
06
a7
b4
62
5f
8b
4e
9b
02
cf
2a
fc
f9
c5
51
16
42
f9
b9
bc
1f
f2
dd
0c
4a
fa
60
dc
c2
9e
72
41
61
9e
3c
eb
16
f0
f8
26
43
4f
aa
01
9d
be
90
1c
9e
8c
65
e0
bf
22
fb
1d
39
9d
ad
4c
c6
f5
6e
73
a7
a2
76
3c
04
32
a8
ee
98
d6
1c
a4
1a
25
b0
79
ef
69
3f
c6
83
6f
54
01
9b
43
67
d9
53
dd
e3
d1
9f
d8
e9
4f
77
87
8c
a3
eb
8f
45
86
b0
2c
87
aa
94
68
43
c3
30
af
7a
63
94
2d
49
4d
fd
97
1b
1d
dc
54
ad
ec
17
c5
2d
d5
ec
a6
71
45
1e
22
1b
68
cc
8c
7c
39
77
f2
38
e9
a7
fc
48
29
5b
5a
63
89
61
57
ef
3b
37
c1
01
d5
21
09
63
91
f0
d4
0a
28
d7
fe
f1
66
d7
a8
5e
20
ea
b3
6b
e7
d0
55
b4
23
c4
35
7b
4d
c4
bb
8c
c5
3f
2d
c0
66
20
e7
05
a7
21
da
b4
69
88
9b
4f
aa
1d
97
ed
8b
f2
91
0f
62
89
b2
d2
ef
5a
6d
0c
5e
60
af
07
cb
db
af
e4
c5
52
a2
ed
d0
76
44
f5
a9
72
40
b6
ee
e0
d6
7b
c6
25
3d
ec
e2
30
00
24
4d
76
9a
8e
7b
f0
eb
53
01
e0
e3
12
cf
c0
16
a0
05
08
9b
74
6e
c3
18
96
0c
e1
df
c1
dc
9a
d6
66
a3
fa
c1
8b
d3
69
9d
38
37
1c
0d
79
63
29
fd
07
14
8b
09
98
0a
17
05
70
d7
e8
8e
1a
d6
57
0f
52
48
dd
2a
3e
68
9f
fb
19
3a
40
93
b0
df
1e
c2
28
86
da
cc
66
ce
42
69
91
64
5e
49
7b
98
db
02
e4
1e
03
48
71
b7
f4
1f
60
7f
48
1e
91
4b
34
56
1f
0c
a0
52
a2
56
8a
77
92
1e
40
10
55
b4
f8
20
4a
9c
05
49
41
ba
71
63
14
ad
f3
e2
c0
96
53
df
8b
bd
a2
16
46
4d
4b
cf
98
ad
0e
49
46
5e
b9
85
41
ad
ba
33
8f
b0
ce
f5
de
35
3e
90
1d
de
02
0a
1e
4c
6d
d5
c0
b4
c3
d4
cb
40
54
06
cd
0c
69
33
ec
a7
30
27
ea
38
5d
4d
cf
32
f2
31
c1
ab
fc
86
2f
74
33
a2
53
37
8b
39
e6
2a
d8
91
82
96
28
87
ae
08
2b
ba
41
16
05
6b
4f
4b
07
b8
11
0b
0c
58
9c
c4
1c
e9
2a
58
72
3c
22
d2
d2
64
2f
cc
af
ba
f9
29
12
d3
e2
1a
ad
25
42
8a
24
1f
c5
71
6d
62
71
f7
e1
f3
0d
0b
6a
8f
ae
07
b6
0a
c5
a4
df
74
42
15
d3
6e
1a
71
87
a2
b0
8a
e0
12
6b
56
25
c2
d6
95
7a
cf
52
c3
50
dd
92
60
af
57
90
35
ed
3a
fb
44
a0
e6
7d
a2
7a
97
5c
6f
90
fb
f9
63
b4
58
38
39
be
b1
77
21
33
48
91
1c
38
9a
f9
a7
6d
67
25
b1
58
e8
3f
b7
7e
50
da
14
35
4d
58
84
64
5a
32
d2
5a
be
35
52
75
ce
e8
a4
3b
a9
22
e8
62
4e
f5
be
9f
f8
44
b6
41
6f
1e
22
c9
0a
eb
48
15
34
f6
76
b7
89
11
e4
5e
71
44
e4
e8
a7
83
90
8d
32
fe
4f
9e
c4
d1
e9
f5
0c
24
c3
0c
7a
83
b8
f3
e8
db
31
5f
89
5e
ea
39
2a
8d
9f
43
1a
20
7e
ec
7e
14
6a
9b
47
93
e9
04
b2
47
60
39
61
1b
1b
26
3a
cb
1a
55
15
40
7a
bd
a0
ad
b2
3e
14
3f
7a
d2
a2
70
b6
7c
5d
18
d4
fc
a7
66
2c
39
90
8a
98
df
58
c0
49
fd
11
85
1d
de
0e
cf
59
00
06
0c
08
b3
24
7a
87
91
9c
13
25
db
81
ca
63
05
d2
9a
fa
de
15
51
1d
ac
ca
5a
70
05
bb
3f
50
3c
ef
e7
c0
3c
1c
da
6f
6c
be
17
b9
61
2c
ee
d4
29
20
6e
dd
9b
04
1c
79
bd
83
3b
3d
f9
11
0b
ac
6b
99
01
f4
68
74
55
c7
8e
15
f3
e0
cb
45
e8
25
fc
8f
6c
a6
92
d7
b1
d9
99
77
af
42
89
fd
3a
ac
67
1e
ea
3c
88
f6
85
87
6e
d6
f0
74
6a
9d
2f
13
d5
5b
b8
7f
1b
6d
6b
8b
b3
db
a8
01
64
a1
77
be
02
03
6e
65
b3
70
c3
9e
fd
25
20
2c
25
99
a9
10
e8
a3
4c
6d
9a
9b
49
9c
59
d1
0a
3b
19
29
de
a8
1b
12
f9
95
da
3e
ae
c6
90
2a
a5
cd
91
b2
1a
c2
ad
ae
18
ef
7e
9f
fb
10
c3
d2
6d
2f
73
09
e1
b3
60
2d
0a
13
d4
1e
fe
6d
c1
ee
4b
c0
c0
ea
18
33
a6
ad
90
8a
3e
09
8d
c2
64
d9
72
3b
ff
9c
d7
f3
3b
20
22
ab
d5
0c
cf
68
c7
ea
5c
a5
dc
c9
b3
78
29
1e
1e
a0
cc
e8
09
e6
d0
9b
41
9e
f1
0d
a8
1e
ad
6e
93
9c
68
1d
ea
3f
1f
2a
7e
13
1d
3e
b1
2a
a4
28
0b
4e
e8
29
38
21
72
27
4a
2f
f3
9d
01
c6
5d
65
71
bc
db
92
b3
c5
11
6d
78
7e
0f
16
c0
ee
55
af
59
cd
14
60
91
67
58
79
77
9a
f5
dd
68
85
0e
44
bd
a5
00
4b
39
0e
a8
11
17
a7
de
a6
fe
c7
ff
09
1b
25
b2
c2
24
84
a2
a4
1b
33
e1
9e
0d
37
15
ee
37
53
39
8f
2d
54
68
93
49
0b
6b
15
50
fb
5f
e3
33
da
a7
af
ae
ea
a2
a8
32
55
12
7e
b9
92
7e
29
40
f4
39
7b
ff
03
1d
7c
38
f1
4b
75
1f
ac
8d
c3
27
3e
52
a5
b8
c5
4a
6d
98
65
e6
f9
05
45
b3
11
08
c0
e2
22
e0
56
1c
8c
5c
35
62
7a
c4
f0
e6
8b
88
48
11
8c
5c
f4
2e
d1
8b
63
f0
71
2f
7b
96
18
9d
3a
62
7f
75
5d
1b
20
28
c3
fa
99
43
bd
be
c3
cf
00
9e
29
32
17
05
ae
e6
85
55
a2
e8
7b
42
ae
9c
b7
1f
dc
82
f4
a6
0b
1d
8c
88
77
69
c5
f7
db
ee
79
04
0d
54
56
03
83
4a
4b
d7
66
95
e6
e1
d4
00
52
f9
c4
31
85
3b
1b
cc
66
ac
c4
04
72
66
cb
3f
58
2d
8f
cf
7f
c9
6a
57
d0
89
2a
60
ab
31
ff
18
c8
4f
93
25
42
ea
15
4a
d8
a6
be
25
15
b4
9e
33
20
c3
23
c4
a1
39
5b
bb
96
21
10
49
95
ac
98
55
59
3c
1c
7b
1a
c7
05
c7
36
b4
df
e8
99
54
0a
bb
e2
21
2e
a1
b8
1b
da
42
02
f3
9c
46
e3
d9
1a
34
ee
cc
ef
24
a2
c6
e1
5b
b0
8a
54
2b
8c
0b
9c
ca
bf
69
8c
1d
98
ac
9c
69
0d
24
fa
a9
90
05
ac
e6
3a
5c
f0
aa
6d
ab
3c
d9
93
b8
a1
31
16
b7
10
96
2d
9f
85
e7
39
41
15
c1
53
0a
4e
f4
38
86
bb
66
fc
df
92
57
9c
52
73
f8
5d
83
88
54
e2
e4
a1
01
7a
d3
28
a2
46
0d
7e
78
45
8f
e5
20
46
ba
9c
07
d6
4d
9e
3b
ee
a5
7e
28
40
b4
4f
28
ba
9e
f1
ee
c2
a9
f5
ac
3a
19
55
f2
e4
6d
b1
56
7d
50
b4
d1
cf
ad
ff
28
68
2c
8c
4b
12
8a
aa
d6
e8
10
7a
75
78
02
f0
be
47
e7
ae
cc
16
08
ff
66
74
9d
49
39
dd
be
be
d2
c3
1e
1b
da
62
bf
22
19
7e
a0
ce
bf
aa
d6
cb
5c
18
e3
d4
8b
ac
fa
20
78
38
b5
06
20
04
67
4d
bc
8b
93
8c
98
88
eb
5b
e1
a8
81
76
3d
f2
42
53
5b
11
91
26
50
be
cb
01
98
71
34
68
e3
bf
9d
a2
66
29
26
5c
cd
a1
e3
c6
54
48
09
75
a3
a5
5b
cb
1f
ae
e5
50
ca
73
9f
2f
01
c6
ae
8a
01
ad
5a
41
9b
b9
34
ea
9b
6b
5c
cf
4d
6c
7e
17
35
b0
6d
14
2e
ac
4b
4c
36
cb
d1
e7
ec
30
09
0c
03
97
26
fc
38
15
41
5f
43
58
04
77
8c
1c
26
b2
db
a3
63
73
92
fe
37
c0
98
2e
3c
cf
bc
b7
7a
21
46
29
6c
d0
79
dd
1f
3c
30
5f
ae
96
d0
dd
01
e2
db
9d
99
d0
54
d0
7d
46
dd
62
c0
33
68
d3
35
b1
0e
23
1e
64
3c
49
fa
1d
74
78
ee
98
0e
b3
c6
c3
a0
02
6e
ca
30
a4
f5
53
d0
c9
5a
6b
b0
58
48
5b
e4
ab
4e
5a
97
3f
40
1e
14
f6
16
47
93
81
bd
4e
f0
82
fe
33
af
37
56
1c
53
ad
cb
03
9c
7d
24
e2
ed
63
44
6f
e3
08
91
95
3b
da
77
cb
eb
23
2b
94
c0
ab
95
5e
20
5a
ae
e0
66
54
af
27
5b
68
90
d3
d9
e1
36
46
df
1b
84
fe
7d
72
6b
01
4c
5a
75
b8
1f
96
91
2d
6d
bf
50
d1
e4
b7
35
dc
d1
44
3d
e9
e0
e6
76
d5
57
50
1f
f2
66
7a
a7
75
b1
cc
ab
fa
3c
cf
70
16
ca
94
74
4c
65
ec
95
8f
e0
13
85
fb
ec
2a
04
5c
59
e3
ba
12
e7
b5
31
4b
82
21
8e
df
a8
ba
ab
05
46
dc
27
68
0e
16
57
82
8d
ef
7a
bc
b8
a8
ac
f2
ef
cd
be
55
e3
55
9a
66
c3
56
b8
1b
fd
ed
4b
57
b2
8a
9d
9b
8d
ed
4d
de
b2
4b
90
9c
73
f6
87
23
a4
a1
24
98
7c
38
43
e5
73
75
93
39
a2
83
a4
28
96
14
1d
90
b3
0b
b0
03
3f
bd
8b
77
6f
dd
48
34
24
f2
0c
a5
16
6a
58
86
a6
c3
09
20
dd
1d
dd
ec
82
fa
bb
22
1f
e1
8e
aa
8f
6a
60
b4
a7
51
a0
1d
7d
25
d5
f9
d6
58
3d
b3
0c
19
db
91
4f
21
58
8e
ec
34
45
fb
ca
d5
c6
99
ba
d4
f7
f6
5a
99
83
91
85
f9
75
d9
60
34
04
4d
04
d0
66
1f
c9
19
2b
29
f9
7f
86
05
77
f3
1d
85
77
68
e3
8f
63
b6
77
54
a4
13
a9
90
fb
f6
f0
9c
fb
e0
31
f1
6f
4c
94
67
cc
82
24
ba
ce
2c
95
4c
ce
b7
ab
9a
92
62
eb
41
09
09
9d
90
a9
a1
be
27
c0
13
de
42
58
b2
d3
66
77
be
19
b9
d9
ac
fb
dd
f6
08
96
83
41
82
03
11
21
12
be
e3
1b
5b
f5
c1
25
4c
f7
08
13
6d
c2
0a
b6
27
bc
c0
d7
31
8f
48
9c
26
c7
fd
07
09
f9
a8
7c
d3
af
c9
f6
53
f4
f5
1f
af
49
24
c7
d8
bb
fd
fa
da
ce
c6
5a
14
44
96
e0
8f
b1
5e
b1
cd
d0
27
b0
9f
97
85
b4
c6
49
25
30
07
21
cb
d8
e9
9e
e6
dd
ac
5e
22
85
de
be
0b
c6
ac
71
f1
de
4f
b6
34
d3
23
b6
ff
c7
db
dc
56
91
0f
a9
0c
60
63
55
49
1c
2e
34
fa
2e
fb
0f
50
2a
84
81
04
e5
87
b7
0f
33
57
82
67
05
1c
00
c1
46
d9
0a
43
aa
4a
d5
82
43
52
2c
83
c2
19
3d
9c
fa
3e
67
e5
6b
e1
7a
16
f9
60
a6
f0
9e
09
25
75
87
e0
eb
cf
35
6b
e6
2b
b7
11
64
dc
9d
21
d8
b5
8c
8b
0c
f8
43
4f
5a
60
9d
e9
79
6a
ad
76
8c
82
06
7a
73
2e
b1
22
76
20
e8
06
2f
f3
d8
b5
55
aa
53
f2
7b
49
e8
57
1c
d1
70
37
1e
89
07
29
e3
d0
6d
e6
13
37
91
53
20
20
0a
7a
66
0f
ea
bc
e0
fc
75
77
db
72
03
6a
ef
a9
48
74
5a
92
8a
0e
66
f8
f9
32
e9
cd
54
55
76
dc
58
2f
0f
4a
6f
64
83
9e
70
14
b0
fb
88
da
c1
1f
b1
d1
68
ff
1e
00
6b
39
76
2c
ed
8c
fd
a4
8b
d0
de
d1
89
6e
76
ad
58
f8
a1
1a
dc
c8
79
d2
f4
f8
da
a1
26
ef
3e
b7
33
cc
23
65
9c
ba
ec
3f
4c
19
7e
df
c0
9e
ec
a7
5e
7a
01
c7
36
4e
59
2d
02
4e
eb
d4
6f
e0
52
e5
4e
1e
9b
a2
eb
23
51
0d
fb
05
f8
d8
18
86
df
db
ad
1a
0b
ba
ae
ab
f9
c5
76
2c
d5
7a
3c
12
df
a9
50
bb
25
2e
ab
77
d9
12
56
b2
5f
e1
48
84
fa
35
55
5a
49
1b
b3
e8
79
5c
b1
bc
84
db
d4
ea
73
98
a3
bd
d8
83
82
48
ff
a6
fe
cf
1e
cb
67
ac
56
34
a2
c1
d3
3b
be
40
d4
86
d9
21
5f
e4
7c
17
48
b3
a0
02
dd
66
e3
60
f6
0a
17
88
64
02
bf
17
27
5e
6e
68
86
2f
8b
ba
20
1b
0f
19
a5
9d
7d
d1
a6
96
f6
68
3c
c8
14
66
3e
56
95
8e
16
f8
81
84
5c
55
b5
88
d7
b1
e8
c7
9a
73
00
0d
1e
c2
02
16
a5
46
97
99
d0
ec
ce
76
76
31
52
26
64
f8
05
f3
2d
cd
c8
fa
00
4d
58
84
98
cd
d7
8c
5f
5c
20
37
3b
60
50
8f
7d
a7
13
b5
9a
24
57
27
46
ee
39
ee
a6
98
36
20
e7
23
88
9b
42
cc
ba
4e
dd
60
47
f3
ac
11
ee
18
d5
1a
26
87
55
0a
82
4f
28
f7
3a
5f
11
7e
db
c6
5f
e3
93
a6
f1
8d
1f
f0
10
60
e0
27
69
b4
a1
91
bd
59
5f
76
8b
06
ba
75
97
fa
a2
04
0d
2c
23
96
0f
4f
27
54
f8
f5
62
6a
77
95
c0
b8
a8
b9
71
d4
36
13
e9
c3
14
a6
e7
4e
ef
4a
d2
16
49
7e
06
e8
15
f4
c1
47
73
7c
e7
17
eb
de
24
98
06
7c
42
a8
39
dc
97
d6
5f
0b
b7
40
52
ca
eb
fa
52
50
27
2a
5a
f8
7d
f2
97
eb
7f
aa
62
e2
41
fb
4c
7c
65
69
50
77
3a
f3
03
ad
76
53
6d
88
2c
0a
d5
99
65
3e
d0
06
b7
f4
79
96
f5
58
94
42
5b
63
33
99
d6
b1
76
e2
3c
44
76
01
f2
0d
cb
53
4f
8f
c9
b0
e9
3e
a3
fe
7e
85
ab
78
a2
59
35
b0
2d
ab
b4
c1
46
f6
ff
c4
91
96
1a
ff
06
8a
5d
4e
0d
1d
07
a3
d2
22
e8
45
c1
6c
1a
2f
30
6e
8a
a7
79
5c
d9
e9
66
8a
ac
f9
99
30
f2
66
d7
10
89
5f
49
f2
69
55
e8
bd
e4
d0
fb
aa
9a
a9
da
c3
1d
17
8c
49
32
de
27
64
ba
7b
aa
20
1d
2c
00
66
1e
5c
2e
dd
1e
97
47
84
35
d6
51
4c
d3
9b
d7
39
8d
72
98
e2
74
f4
ac
9c
4d
f2
1c
df
32
a9
a2
59
65
33
9b
c9
c0
a3
f0
5b
ca
73
28
58
f5
17
52
59
06
d3
65
ea
ed
84
0f
77
c4
9c
a0
a3
5d
46
14
d4
84
69
ef
00
a4
ef
a0
06
9a
55
87
46
26
f9
5c
78
01
a8
a2
52
92
10
61
10
37
29
16
c8
cd
65
8c
ca
36
09
3b
99
66
dc
a5
33
59
04
f5
7c
a3
de
e7
c5
a7
6d
23
dd
da
61
47
bc
ff
ec
49
8a
05
e5
62
8b
74
ca
d8
26
4b
8f
a4
e3
e3
99
76
2d
8c
21
a6
35
86
4a
8f
8e
af
1c
5a
33
cd
d3
33
00
10
18
43
2b
f6
cf
fd
3a
77
cd
37
22
74
13
7f
52
37
ce
1f
6b
0c
c6
6f
ec
ab
61
08
aa
de
3a
94
50
b9
d9
50
b3
f9
1e
fe
a0
3f
7e
1b
63
4e
72
da
50
fc
9e
cf
f7
cc
c9
e3
b7
3c
e1
2a
01
68
a1
55
15
17
f4
d7
66
d3
5d
e7
e0
9f
18
68
87
34
56
5c
41
f4
aa
79
17
a3
e8
42
1d
c4
6e
1a
b2
c8
8e
15
3d
19
c1
98
36
fe
5c
66
e8
2f
48
27
28
d0
03
54
24
cb
0e
3b
bd
58
07
96
0f
f9
f0
b1
11
c7
b4
97
90
85
f9
eb
d1
d0
ce
cc
0b
1e
2d
a8
12
f1
3d
9b
f0
c1
bf
47
f3
42
83
61
0c
51
f1
4b
92
f6
1d
d1
de
5f
5c
d0
db
1e
11
9b
85
0c
1a
99
b9
d5
ba
15
a9
ac
f1
10
a0
48
fa
f8
fd
9a
4e
24
57
35
f9
28
88
6c
6c
37
32
e9
4e
3b
d1
1e
52
5e
be
f6
33
c9
95
fb
9a
81
b7
3c
63
d1
5f
b1
2b
79
39
1f
52
ec
86
f1
0f
83
4c
fc
b6
ff
cc
96
7d
e7
52
7e
fd
6b
9f
e4
2d
3c
60
1c
c3
83
cb
5a
23
74
b6
bc
d8
ba
ee
e9
d7
cc
3e
cc
7c
70
86
90
4c
ee
f0
c1
dd
58
b1
3e
10
cc
73
9d
c7
3e
a1
ce
2b
52
a5
2d
15
14
a7
4b
2d
01
94
4b
61
7c
08
17
8c
2a
04
0d
ad
e9
47
28
fb
93
f1
1f
5e
20
2a
07
43
f0
df
6f
c3
32
ef
04
33
d7
68
5a
98
67
b7
eb
f1
78
b2
0e
cc
0e
33
3c
5c
fc
2c
96
58
ec
f3
06
85
55
38
87
f6
84
43
a3
dc
27
48
a0
2d
14
00
23
a1
20
17
92
cd
df
96
4a
ee
a4
e5
9c
f1
b0
6c
ae
e9
30
81
c6
f7
21
4c
97
36
cd
e5
de
fe
7c
51
f7
6f
92
1a
b3
18
f4
8f
22
ea
a2
52
59
ee
82
5c
a6
16
cb
a5
9e
9e
c6
97
d3
bc
13
dd
88
ab
59
39
c3
6f
d4
e3
21
f8
fa
ca
11
99
62
9e
bd
43
74
c5
bb
d1
0a
d6
e1
10
55
e2
42
e2
f5
ac
bc
eb
fe
e6
7d
c7
9d
1e
6a
e5
cd
75
4b
fb
b9
06
25
cc
cb
6f
39
6c
17
c4
50
f4
f7
e4
8a
cc
d8
28
72
d2
a3
4d
4e
73
61
9f
d7
32
b8
d3
ab
52
65
bc
64
c0
39
29
8f
75
c8
85
69
6e
e9
53
59
4c
d1
59
33
8f
c8
1b
c5
f1
3d
55
a8
6e
21
1b
32
58
d1
66
eb
36
75
e5
4c
1f
a2
51
89
79
9b
0e
4f
4e
96
c4
df
44
d4
af
b0
09
74
00
23
54
8b
c3
4b
0d
67
03
38
90
fb
91
3e
61
bc
2f
d2
57
f0
a7
d6
f9
66
9e
a9
57
40
b6
be
e0
b0
4f
21
c3
9a
ae
65
d2
ba
bc
a8
9b
cf
a8
01
57
4e
40
5b
f7
8e
06
67
c9
e1
66
c5
9b
27
97
a0
c8
58
f4
28
e3
6a
6b
0e
f3
37
33
90
e3
41
26
09
31
f5
08
22
6f
02
fd
7e
4c
ad
d6
ef
2b
65
de
11
30
93
3b
44
34
90
91
8b
0f
7d
4c
32
8c
b4
3f
35
83
bf
35
29
8e
f6
a9
da
6b
45
89
2a
aa
2b
c2
90
b5
7f
f0
62
93
95
19
78
ad
00
75
cf
13
a1
b8
b8
50
a6
fd
5f
af
e1
f8
2d
a2
b2
90
c7
87
1a
bf
e1
1f
dd
de
6d
2f
9f
ce
6c
a9
cb
78
88
f6
b6
9f
e0
e0
b1
f3
bd
b1
30
ea
92
68
d9
df
12
1d
3b
fd
52
0b
c8
61
a6
b0
df
6b
35
59
02
83
b3
0a
ee
0b
5b
d7
36
48
b8
b5
16
6e
67
02
f8
8b
fe
b9
3a
0d
0e
38
97
00
0e
ed
c1
60
c5
f8
7f
f4
6e
a2
75
87
e2
42
01
1f
14
55
b7
79
93
fc
25
1c
bf
55
c8
54
e8
bb
a2
0f
13
d0
da
96
c4
0d
e5
08
15
29
13
53
de
42
bd
1d
36
fe
21
cb
2c
b9
30
8f
d8
2b
97
c2
ba
87
f2
5f
29
8e
69
7a
ba
25
e8
42
4f
54
e8
24
16
dd
6a
ae
03
a2
5f
7d
dc
23
99
f5
f9
73
b8
ee
f0
9c
f5
20
a5
85
6a
d0
3e
d4
24
5d
35
4c
34
62
37
72
84
34
ad
6e
1a
3c
8f
34
21
66
30
ae
dd
46
e4
7a
bc
7e
19
87
63
1c
7d
a0
74
50
d9
88
ba
c8
ca
78
ec
67
32
fe
48
e1
96
30
de
5a
b1
f7
b2
c7
b0
00
67
be
5c
e0
9e
9f
7e
e0
70
99
14
19
72
7b
69
70
fa
0a
7a
8b
32
3e
bb
32
cf
a6
f6
e1
b2
01
4b
b3
f7
40
a3
e1
4f
c2
4b
0f
06
a2
e8
43
07
39
aa
96
83
c1
fe
ca
b2
b2
26
65
f5
5b
87
36
50
a5
1e
63
d5
27
5c
e4
1d
ef
51
e7
91
47
52
f2
f7
ad
f6
16
ff
b4
39
ac
52
dc
c1
d6
a9
ef
50
91
c2
de
54
11
8d
67
16
5f
26
cc
0b
57
6c
51
1e
ed
16
66
d9
35
16
a7
01
1e
d0
8b
7c
8b
28
1a
16
4e
40
10
4e
49
00
e8
f9
ea
26
74
2a
08
c1
75
86
09
f9
e3
00
37
2c
02
0e
bf
93
3d
af
9d
27
15
bf
02
11
46
f4
ee
41
4c
a3
a7
ad
19
85
c9
ee
34
df
f7
9e
7b
3f
5a
50
54
c3
f2
bc
e1
ae
21
88
78
82
5d
6d
e6
e8
22
ef
c1
73
9b
62
9f
30
66
a5
f4
5d
7a
1c
d5
36
d9
b5
63
78
1d
9c
d6
e4
4a
91
31
b6
e1
70
03
bc
6b
00
a1
af
84
2e
2e
fc
d0
54
25
2a
91
8c
c7
43
a0
40
3b
75
87
ae
be
62
d1
0d
99
d0
4d
66
b3
90
0b
e5
e8
98
00
25
69
3b
6a
44
3d
4f
37
0e
35
ca
04
50
00
93
4e
99
46
2b
9f
e8
0e
41
1b
13
2d
99
ec
c7
c7
48
b9
58
78
00
ed
93
97
4c
74
f1
96
71
4b
61
3e
fa
e7
d5
10
50
92
e8
69
02
a1
f2
4b
70
cc
2f
fd
bb
10
cd
da
21
49
6e
a5
41
a8
ea
f8
4b
a0
1e
e9
e1
e3
65
19
9a
0a
89
63
28
24
14
29
ad
32
c7
bf
db
9d
01
54
6d
2e
c8
30
56
49
95
ba
24
5e
ac
0e
cb
06
f2
82
f6
ff
93
55
f2
b6
13
ac
e8
88
51
a9
ba
87
1b
d8
a9
0c
e7
bf
b0
ae
70
29
c0
52
72
1d
be
00
40
bc
4a
a7
7c
db
d4
c6
25
2f
12
93
5d
27
83
ee
4e
cb
c1
ce
22
25
4d
6f
11
ae
2c
95
38
00
77
e7
b1
4d
9c
93
ca
1d
5d
47
79
d6
e1
a0
1e
6e
8b
68
c2
a1
08
b0
74
91
0e
b0
46
2b
7f
d6
23
1f
2f
07
db
35
45
c2
c9
97
f6
6e
36
b5
7c
90
0c
00
37
6a
4c
c6
9c
d4
fa
0c
ca
cb
2b
29
04
f4
c7
e3
92
e3
99
9e
84
62
d4
03
cb
9f
1f
33
89
cd
71
e1
de
32
db
23
03
06
c5
69
47
f5
9b
a4
78
47
ca
52
8d
3a
a7
46
9f
0e
82
c0
c5
8b
e1
8a
74
8c
f7
ce
73
08
de
79
72
dc
ef
2f
4b
7f
2a
71
59
e0
e3
85
ce
19
85
89
dd
31
5f
a1
c4
27
1a
9e
d9
b9
f6
c9
32
69
4e
2e
f7
8e
f9
21
a9
db
69
07
36
c9
1b
71
82
7b
e9
1a
c7
f2
5e
23
5c
d6
22
21
58
85
d7
2e
cb
a4
7c
c4
f5
e1
ed
a8
5d
17
b4
a8
36
ff
c6
5a
9b
7c
c5
ca
70
ca
8a
ed
04
0c
3d
26
e3
bc
a3
e6
bb
b0
cd
2c
5f
20
2a
dd
ff
60
18
34
a6
4a
1a
26
54
4b
76
cc
fc
a6
be
7a
a2
b0
bc
71
eb
ca
0e
95
3b
c4
40
98
cd
b5
dc
19
b1
8d
84
0a
9a
22
20
45
e1
0a
95
7c
c4
66
96
b7
33
38
95
1d
bc
a2
2b
f6
8d
88
77
35
d1
65
a3
5d
64
86
f9
31
8b
ae
78
26
e5
4e
bd
9b
17
67
b7
e2
29
8e
8b
67
3f
74
98
ae
75
dc
85
7b
b4
09
5b
7a
f8
ee
b7
02
f8
8c
15
1d
a1
6b
10
61
54
d3
46
a0
8a
39
68
b4
92
f0
82
99
7e
61
3e
22
4f
d7
62
7f
1a
91
67
37
00
a2
dd
06
11
63
6d
bd
3e
82
e0
49
30
5b
46
75
c9
6a
32
dd
f6
3f
16
ab
e6
ad
20
72
0c
5d
24
49
77
57
eb
65
c2
1d
f7
e8
51
1d
b9
61
4f
33
9a
99
51
6f
12
45
7c
c2
03
71
e7
c4
36
95
c5
ed
a9
8f
aa
89
35
4e
0e
77
d8
3c
e1
91
e2
64
d5
22
6c
d7
d8
f9
76
86
51
57
5d
a9
ac
cd
8a
1d
71
e7
0e
2b
c4
56
ea
5e
0a
f4
b0
aa
03
27
12
fe
2b
09
f8
11
fb
84
22
ec
26
b7
e0
6d
35
60
ca
bf
50
4b
b0
92
bf
c2
2c
d2
4b
4c
90
36
f7
ab
b8
d2
c4
19
4f
7d
06
5b
04
ee
8e
b1
bf
0b
8e
ba
42
f6
c0
e7
f5
9e
31
11
54
30
fc
a6
6a
11
0f
3d
69
56
ad
3d
10
8e
6f
11
86
9a
46
c9
e0
43
e4
92
82
32
00
3e
3f
8a
ae
34
9e
46
25
bd
9c
0c
b8
10
96
9d
0e
ff
d8
ec
65
4c
57
11
5b
e6
79
c0
2d
1c
b3
dd
fa
62
d9
49
e3
8a
d8
ac
92
d1
21
36
94
d4
5f
5a
d3
ff
11
9d
c3
09
fa
50
2b
06
eb
ec
7e
3e
0b
32
e1
bb
46
bf
d3
79
b3
f0
9a
fd
77
0f
98
d5
fb
72
37
21
a9
15
10
91
de
fe
2a
36
fd
99
d4
78
61
87
63
33
2a
b7
b3
11
35
3b
01
14
2a
b7
6b
d0
56
0f
62
5d
4c
84
88
23
ef
94
52
0f
77
62
f4
e0
b2
22
d8
38
f8
86
b8
74
75
e1
aa
bd
33
f9
d3
cb
8f
64
48
fc
36
65
4d
e2
cd
11
42
c7
a5
34
92
52
c6
4b
a0
cb
1e
e5
29
af
54
7e
64
55
2b
af
f0
b2
ec
3b
3b
7d
12
2b
fb
da
ce
6b
bd
00
6e
bf
c8
37
f1
d5
d6
bc
34
ea
4c
58
73
7c
6a
91
9f
a8
6c
af
06
53
ca
0e
5a
9b
40
0a
64
c8
9f
00
14
56
7a
1b
dd
06
51
7e
e9
d8
2e
d3
5f
94
d3
c4
62
fe
94
ac
58
74
84
35
d8
ee
90
90
6b
1e
a1
15
72
f0
1b
70
18
a3
d3
84
cf
d7
08
36
0e
54
fb
45
a8
e9
bc
b6
ef
3c
6c
2a
e5
38
2a
bf
13
23
1e
9f
9c
cd
e0
44
47
e3
e1
88
da
f5
87
ea
d4
04
28
48
ed
5e
22
90
eb
78
59
d2
db
75
4b
f8
a3
f1
4e
61
3c
2a
18
0d
06
c0
cf
1d
ea
f2
03
79
f3
52
7e
48
e0
5a
08
f7
8b
00
d3
68
94
17
9d
31
a0
13
d8
93
e7
ea
84
fb
bf
9e
6a
38
0e
b5
75
55
9a
0c
51
25
35
4d
d0
0a
09
ef
af
e4
f9
d3
41
e2
5e
09
40
2c
e1
d3
3b
40
b4
1a
6f
03
50
73
9a
52
a1
83
df
f9
dc
52
45
af
03
f9
9a
b2
aa
03
f0
f0
f5
1c
ca
41
b9
d0
4e
e2
fc
03
fd
db
e1
46
bb
18
6b
c9
83
f9
79
3e
d8
66
48
7c
bc
7e
21
72
a0
29
c8
56
05
a1
2e
d0
37
bb
8f
be
71
4a
18
14
2b
23
ed
75
52
c0
3b
e8
ad
91
df
c2
15
11
11
59
d8
ee
5d
04
53
23
17
83
9b
58
e3
35
da
12
18
7a
90
a4
17
05
d1
da
5f
53
7e
56
42
a2
41
91
e2
27
d2
5b
27
b5
2e
7a
7a
0b
1c
97
73
af
e1
7b
4d
db
26
4e
3d
e3
cd
d1
58
02
9b
ef
59
85
46
00
7b
e3
e7
99
ca
ed
dd
d9
44
0f
5d
38
ac
53
54
2a
62
56
96
dd
e2
3d
c8
47
f8
f8
9d
29
b9
e8
e2
a4
85
72
68
65
50
47
37
52
7a
9e
95
71
37
ce
ff
7a
6a
fe
35
58
fa
3f
18
5c
18
60
6e
f6
26
e4
0e
43
24
b1
4c
c5
fc
07
9a
72
d3
7b
4b
d7
3a
26
54
6d
e2
ea
25
92
d6
cc
7a
54
78
49
9d
38
e4
da
63
7f
0f
b1
8a
b1
46
15
87
6f
16
28
dd
e5
89
ab
cb
4c
b2
b7
35
bd
ef
be
33
2a
7f
68
ea
ba
93
8c
3f
91
25
06
ef
2f
26
c3
b2
da
31
16
77
19
28
0d
fd
a8
6a
7b
45
cb
d4
c0
9b
16
e6
86
ae
a9
0d
a5
1d
a4
0f
d7
9a
79
9a
c1
a5
c7
65
66
31
12
ee
23
3d
37
fe
25
60
5e
f4
d6
fc
0b
