c0
50
90
6f
0e
6d
7a
d3
34
d8
fa
55
3d
08
20
93
b8
89
df
df
19
98
d3
b9
db
93
ac
63
52
56
d7
a7
20
38
14
37
98
7a
c8
77
67
6b
10
cb
c2
f3
f9
a8
f1
57
1a
62
f8
bf
32
0c
8a
58
d4
69
a2
c2
30
58
0f
0b
32
26
90
a2
a7
ca
d8
45
fb
8b
df
58
d4
58
d7
f0
2b
af
d2
a1
de
7d
72
b7
f8
16
f9
d7
f5
30
0c
c3
6f
b4
9c
c6
bd
de
b1
1d
e9
3b
2e
5b
02
47
5a
47
d4
81
bb
bd
ee
0d
9c
e4
25
c2
b9
5b
5f
cc
73
5c
a5
2c
de
99
b7
bd
cd
89
29
63
16
0e
b1
3d
4b
f0
f4
40
7f
31
99
bf
8f
f0
a7
6a
96
45
b2
b7
87
38
2a
30
fb
77
2d
f4
9d
ce
cb
1c
a4
13
46
72
7d
0e
a5
33
5b
cc
64
9a
18
3f
eb
81
a2
1b
8a
6e
ac
36
e1
04
c4
39
a2
5f
ea
b6
0c
ed
f6
32
51
8c
40
07
a1
7b
4c
99
12
89
b9
d8
22
0f
df
67
93
bb
5d
79
4e
a3
46
b6
6e
67
a9
ce
7f
7f
87
7a
33
39
29
d5
0a
a5
e7
48
5d
f4
83
e2
82
7c
f8
07
e0
fe
