78
dd
b0
51
dd
22
49
9a
f7
c5
5b
a4
8f
7c
13
a2
4b
7b
39
e4
26
a3
4a
e9
60
ea
de
d6
fe
89
3c
53
3a
c5
47
12
97
bb
42
c2
9c
40
72
42
18
6a
ef
25
9c
9d
82
16
a0
a9
30
0c
38
ca
c4
34
da
56
9a
f2
2d
43
81
8d
8c
e3
cb
2b
01
51
77
19
b4
70
32
e9
01
b6
a4
f3
99
d8
75
09
90
b3
bd
94
97
66
aa
06
2e
3a
79
60
7e
2b
22
f3
61
98
6d
f3
51
15
ca
12
ae
25
2b
69
9f
cb
be
a2
99
59
dd
31
91
d3
86
4c
0f
e5
71
af
e2
84
26
33
76
57
30
22
62
31
a0
c1
67
f3
5c
70
85
d4
c9
bb
20
d4
dd
f4
cf
d0
47
0f
d8
cb
30
24
1c
74
de
d3
31
9c
27
41
02
9f
36
78
3d
b5
d5
39
c5
da
f5
fa
2c
ba
fd
c9
69
d2
2c
73
5d
ed
6d
cc
0d
39
04
24
2b
12
d4
86
8a
1e
e7
24
5f
25
b6
a3
97
48
78
3d
47
bc
6a
aa
db
f8
51
f3
0f
81
61
3c
1b
8f
2f
29
25
10
71
c4
94
f4
1e
d3
52
ae
1e
1f
db
75
4d
cf
de
7c
c3
38
71
e1
cb
06
