69
fe
4c
5f
21
54
7c
97
72
bf
4c
3b
a1
af
09
d2
7a
54
45
5f
63
9b
59
0c
4c
ab
44
76
c3
5c
55
0f
21
98
24
c7
93
63
92
1e
fd
ee
03
06
20
56
0c
82
69
0c
a2
e4
54
ea
dd
8e
32
8b
32
ec
bc
3d
b1
b5
6a
1d
1e
88
66
62
97
3e
bd
d1
84
55
9f
29
d9
21
05
08
a1
45
da
02
ea
5e
07
ab
01
2d
c3
b0
1a
eb
cd
47
3e
f9
e0
15
6e
b5
cb
99
24
77
ff
15
4b
4e
14
36
43
ed
c5
a6
8e
f3
ad
58
06
0e
05
94
a0
52
72
9b
27
60
ab
46
8f
01
01
61
71
b4
00
32
6e
62
9d
98
23
44
42
2f
5b
e9
c8
35
33
83
cf
59
79
2b
6d
1e
8f
bb
4e
3b
4a
ea
95
f3
87
7b
66
7e
54
17
d9
dc
da
d8
5c
55
30
fb
14
24
94
32
c8
52
c3
6f
75
7d
27
f1
7a
3d
f8
30
ea
ab
f4
49
2a
3a
be
14
b0
11
fa
2d
96
6a
bb
41
67
bb
8d
1f
c4
ac
6c
e1
0c
b9
ad
2b
44
fd
2b
ce
28
64
b2
f0
c4
4d
3f
fa
ce
ce
fc
05
b5
87
8b
9f
58
14
3d
94
2f
4b
b5
d3
41
ee
03
1d
7f
ea
b1
b0
9b
20
3a
7a
b0
1c
bc
16
ff
f0
55
f2
91
fa
0e
74
50
4b
3a
f3
44
ae
ed
ae
98
e1
e9
c7
e9
84
f3
01
b0
04
74
f4
8c
ee
70
9c
33
10
6e
b0
1f
c7
c8
ff
60
2e
98
19
ec
dd
0d
a7
5b
6f
51
23
a9
c1
aa
cb
1a
ae
aa
8c
4c
2a
99
ab
aa
53
e8
20
1f
90
29
46
68
b1
4f
e9
20
de
51
e0
b0
93
4b
e4
03
d7
0a
39
ea
83
4c
6a
bc
ae
c8
0d
78
f1
8f
8e
75
3b
54
ee
9f
ab
3c
e3
07
1a
11
b3
31
f5
34
22
1e
6d
4a
d2
ee
05
a8
9b
26
4d
40
b0
3f
fb
bb
79
c1
31
15
3e
f3
6a
ae
31
18
54
ea
75
e8
15
78
45
04
59
7d
b2
c9
b2
16
a0
51
66
fb
3a
a3
b5
a1
ae
9e
f1
7c
53
f8
58
7c
d4
a7
d9
bd
c3
71
64
1a
1b
2d
3d
71
30
b3
5a
e2
da
7b
09
02
d3
e9
b9
f1
5c
cd
8f
85
50
47
5e
32
6e
c7
14
53
42
af
7f
dd
f4
99
5b
2d
40
e3
5b
a2
c5
6c
3c
01
e0
4c
37
a8
ba
e3
e9
33
1a
00
b2
2e
a0
bc
ca
5e
40
