a9
73
7a
c5
97
d3
81
d7
b2
5d
14
50
64
2f
18
85
38
7c
06
74
48
38
e1
62
15
75
7a
8c
23
3d
5f
20
99
df
84
66
02
e8
68
47
45
50
fe
36
0a
97
fe
71
47
0c
81
27
d2
91
21
29
02
95
3e
45
88
4f
79
38
23
d3
50
32
b2
79
54
ec
34
a9
cc
6c
b5
f3
ac
23
1d
99
19
51
03
6c
d4
a6
49
63
f6
83
2a
1e
73
cb
1f
eb
4c
0f
dd
9e
ec
6d
4a
e7
fd
3a
84
4b
f7
17
8a
ef
b6
4b
23
01
3a
fd
dd
41
b9
c2
2a
a0
16
78
b3
cf
60
98
dd
92
85
91
33
3c
4e
d9
c1
75
3f
9c
7a
ce
4f
65
11
4a
70
f0
b4
44
d1
5c
bc
5c
98
47
89
79
9e
62
fc
ce
74
93
11
a8
c0
fe
b8
b7
0f
9e
d5
a1
40
45
4c
8c
f8
bb
e3
69
12
f7
cb
68
d7
6f
39
6a
ac
bd
3c
7b
0b
85
bc
d7
c8
38
85
e1
c7
66
7e
44
c3
d8
13
7c
58
23
46
d8
13
a2
c8
57
fe
0c
44
7b
33
58
79
da
88
32
8f
50
e6
2a
cd
4e
74
df
e4
d4
5f
82
a7
d7
39
4b
6c
aa
43
34
d8
29
f2
23
f8
b7
71
50
49
cb
00
c0
83
c9
64
f4
34
f7
2e
7d
2f
b8
16
13
c0
d7
72
37
86
46
41
5e
76
ee
e8
a1
83
f0
f2
b1
e0
79
0d
65
4f
04
44
68
7c
71
59
54
56
40
89
17
67
df
d8
11
b1
48
a3
fa
72
ef
71
db
65
06
9f
f3
47
21
0a
5f
4a
a1
bd
93
b1
86
2f
32
e7
97
2c
22
57
82
69
4b
49
e8
11
66
59
89
e2
9b
e7
49
ab
6f
03
58
f7
82
1d
34
eb
5a
29
8a
f9
b9
61
b6
cb
0d
0b
b8
96
6f
61
f3
fd
6f
e7
d0
ad
88
38
4f
34
60
a3
67
3b
4c
0d
ca
d9
b8
83
dd
6c
75
7c
bc
e4
bf
38
14
55
e3
c8
3f
43
d3
ec
fa
d8
d8
28
90
78
30
14
fd
17
8e
c9
94
b4
e0
a2
9d
56
1c
6a
f6
d0
11
36
9e
78
43
1b
db
b6
16
9f
9b
e5
a0
84
6c
0a
3c
31
ea
c0
8e
0f
20
fc
84
37
a5
57
84
f6
ad
33
3e
63
7d
a5
3d
6b
f2
77
71
e1
6b
bc
27
08
0a
7b
d4
9f
b1
1c
8b
22
25
c2
67
af
54
87
ae
8f
4b
7a
1a
86
06
77
e2
a0
f9
e3
74
ef
06
d2
60
