d7
cb
38
45
fc
42
63
6b
61
49
75
01
b3
61
82
b3
4b
59
07
e8
92
3c
e9
03
90
87
aa
ef
d7
8f
b3
f2
30
4e
af
d8
87
d9
c0
d0
c9
ab
dc
91
3d
46
89
8c
58
f7
8d
94
16
2a
11
85
03
8b
a3
12
90
d8
11
b4
8b
bd
73
49
82
11
2f
58
0c
63
85
bc
39
f6
ee
cc
21
06
35
7d
dd
8c
2b
5f
0f
c7
4d
fe
23
34
a7
d1
e1
d4
88
8b
8c
7d
61
dc
2c
fb
96
4b
62
ff
fd
e0
09
b4
d0
e4
ab
72
ae
ce
f4
55
78
65
5e
90
f0
3e
bb
c9
0d
0e
53
94
3d
6b
a0
5b
59
c0
60
ff
c1
63
83
7a
dd
9a
cc
a3
47
7c
8a
07
33
25
5b
fb
9a
2d
40
a8
90
84
99
99
d0
4a
f3
bf
ef
85
ff
03
e6
a2
3f
0b
0b
88
4b
a6
c2
43
9e
9d
05
4b
40
5c
49
14
b0
eb
25
1e
ff
83
3e
8b
d2
66
bb
92
42
2e
7e
a2
c7
0d
ba
d5
67
18
ff
02
5b
83
a5
65
b8
cd
36
3f
88
cc
7a
8a
ad
2f
4e
c9
07
70
5e
fb
7d
57
84
77
05
35
fe
76
18
f3
e5
45
8c
a4
42
ea
dd
a9
65
5d
c9
ba
a4
e5
e5
ac
61
cb
83
6c
b1
65
49
36
4a
f0
df
26
9f
6e
b6
b5
7b
df
c7
4c
fd
ce
fb
22
5d
6d
98
a5
90
6d
36
79
cc
be
98
77
b2
b2
dc
14
ca
84
bb
d7
1a
b1
77
65
11
63
49
44
13
2e
ee
b3
c0
50
9c
36
ad
7f
75
a0
f2
85
8e
c6
5c
3e
96
b4
b1
e0
9b
0e
75
a7
62
d0
24
e5
ed
f7
e7
09
09
10
4c
95
f5
7f
57
b3
df
d1
7b
30
fd
8b
b6
04
6d
b2
ec
bc
b1
98
4f
3d
94
f1
42
3e
8a
21
6c
34
da
40
ca
eb
89
1d
62
7e
d1
c9
4c
00
b7
bd
42
d2
14
20
df
1b
bf
f6
07
d0
67
16
28
30
ca
99
1b
ab
ce
e9
8b
7b
42
33
97
56
52
df
de
6b
e0
59
65
dc
29
fd
56
68
c2
85
d9
82
88
16
fa
a6
b0
1e
51
59
05
81
78
c8
76
2e
78
5c
9b
e2
4b
69
53
00
bc
36
f7
8d
ff
38
7e
5d
62
72
c9
19
c2
98
a0
44
eb
b0
59
1c
28
54
a6
86
3b
99
29
17
de
cf
f3
73
08
0a
79
f4
f1
1b
c6
43
8b
ac
5e
44
23
06
fd
89
de
8b
6e
b1
3b
91
