a1
e3
9b
c0
5b
d4
7f
26
23
64
3b
08
98
e5
62
03
2e
b2
35
34
73
19
1f
74
5b
40
2a
22
77
10
af
d4
7b
4f
94
f9
eb
f0
14
13
92
8f
e2
b5
bc
d8
be
f8
10
fa
aa
92
a6
74
73
d9
ce
21
58
7a
35
6e
bb
e6
c2
96
5e
a6
04
06
00
e4
23
77
09
82
7b
1f
98
e1
1e
a9
39
71
9a
b4
46
06
dc
75
94
2f
e0
4f
ed
16
a0
44
8c
21
85
61
fd
7a
4e
37
75
86
89
97
c7
6a
02
6c
0d
62
41
39
8a
61
d6
88
83
fe
9d
68
53
c3
85
db
46
fe
02
67
c7
66
fd
24
6b
8d
28
4e
ef
66
c5
ad
6b
f6
73
a5
90
34
5b
b4
6e
48
5a
7f
cf
ee
c5
62
67
94
9b
7d
90
51
a9
93
6d
db
52
63
a4
73
16
85
af
68
9e
a8
55
b7
f6
65
b0
d8
ce
d4
71
fe
75
e8
30
cd
5c
d9
52
f2
79
94
f4
f5
86
43
30
f8
42
69
be
ea
53
32
cb
0b
cb
22
c1
c6
36
f2
75
31
5c
1a
3a
8a
a1
04
e4
de
99
0c
1e
f7
30
ea
12
76
60
9a
d7
c8
23
07
6c
ee
0b
f4
93
d1
69
39
95
2a
b2
ea
59
24
cf
9e
d4
74
4b
92
3a
4c
62
dc
35
07
4c
5d
4d
89
7a
45
79
f6
00
02
c0
31
59
68
2d
6d
b7
15
cb
11
b7
9a
8d
c7
8f
3d
f8
88
89
3c
ae
ce
12
61
a4
6c
b4
7d
58
c2
15
12
33
67
39
34
98
73
2c
6b
4d
c9
1e
98
5d
9d
85
16
4b
0c
e5
b0
81
9c
00
a3
ed
41
fc
cd
31
ba
e8
a7
15
ea
4c
2a
34
a4
ee
fb
29
0e
27
2f
83
61
06
01
5a
2b
18
7d
36
e1
24
3f
a6
8c
ff
f6
93
d1
76
9b
0e
6b
4c
84
94
61
84
3b
03
ca
e3
1a
18
ac
11
79
8e
99
64
9d
e7
2f
83
92
f1
39
ba
9d
19
d0
8b
19
ac
db
78
df
45
97
51
57
81
9b
9f
d4
6c
26
7b
b8
ca
b5
5b
08
09
38
84
f7
1e
9e
fa
cf
ad
d0
ab
71
d8
6a
1f
0d
56
b3
94
25
f2
a5
15
1e
23
47
27
9a
95
cb
95
90
ef
5e
10
63
43
4f
9b
a5
00
5f
00
2a
8b
72
c4
18
97
57
46
68
aa
fe
3c
93
7d
1a
44
92
dd
d7
5d
a3
01
12
6d
65
d5
2a
b0
4c
0e
04
d1
ae
69
bb
d7
87
72
40
