59
fb
5e
2a
37
13
1f
2d
f4
0d
f3
e8
5e
4b
08
41
ee
6f
51
4a
93
47
79
ec
39
6f
c8
4e
66
16
1a
46
47
41
9c
3c
42
9f
7e
19
aa
3c
1d
ef
1f
1b
a3
96
22
0f
43
f7
5b
f3
d2
f2
9a
a5
f0
20
26
6d
bf
3d
9e
02
f7
3d
e5
34
4d
86
85
ba
02
45
59
65
55
68
cc
22
4d
dd
45
9c
49
98
e9
54
d8
90
09
15
df
c7
70
b3
b4
b2
18
f6
04
b8
69
1e
82
da
58
11
0c
44
a1
58
c7
9b
1c
0d
40
e1
fd
c9
ee
68
25
2e
7a
27
ae
a0
ef
07
97
dc
fa
4c
ca
f3
99
f1
7a
e0
09
9b
8a
22
1b
d5
21
23
84
11
60
c1
0d
45
06
b5
1f
b0
ca
ef
1b
6d
63
23
98
6f
11
a2
4c
10
9d
f6
1b
a4
fc
c0
04
0d
ca
83
0a
43
da
84
f8
1b
55
1e
9a
16
36
30
b1
39
c8
0e
92
86
d3
2b
47
2e
10
71
72
49
4f
c9
df
03
53
8c
4b
be
46
81
77
db
f4
35
a2
ca
32
3c
74
a4
59
9a
f3
a7
49
95
cd
6e
04
16
a3
f8
53
a8
68
ac
14
41
ad
5e
35
30
b3
c5
0f
42
16
2c
e5
77
ff
84
8f
7b
4f
ce
c3
dc
4e
94
92
b9
07
19
e1
c7
76
99
b9
fb
b0
8e
b3
75
13
d2
27
3f
22
d5
76
2c
79
05
1b
4d
c7
9f
16
be
d5
b4
02
ec
88
f6
ba
91
6c
96
97
0d
39
2e
9c
54
44
95
98
3b
d8
1a
88
1c
8c
cd
68
c2
a1
4e
98
c9
bb
ab
73
74
02
ff
20
10
47
84
d6
e4
0f
59
8c
be
da
b6
45
d1
cc
c2
30
f9
5d
9c
46
73
97
18
89
dc
12
c8
44
dc
86
fd
c2
84
5a
ed
38
54
40
00
f4
58
af
e0
b4
9f
29
f4
7c
e3
86
01
38
d8
50
e2
61
1f
1a
0a
3f
a4
94
e1
84
0f
d3
99
e1
b9
69
7d
74
d7
d1
5e
04
2e
b0
76
99
b3
24
12
b8
5e
6f
c5
a8
d0
02
34
f1
4c
db
e7
6b
13
f0
b5
7a
8d
2f
d9
6c
4c
0f
e9
e4
53
7d
71
93
70
75
87
31
c5
db
89
76
a9
85
2c
08
d3
c5
05
9c
f7
db
db
86
53
4b
ae
30
6b
7e
bc
ad
18
01
eb
f9
6d
fa
37
b4
f5
a1
84
13
ce
46
d9
2c
af
f8
96
07
af
fe
a5
39
b3
0a
c3
82
bf
9f
56
c3
45
93
a1
