2e
fc
4c
82
43
b2
af
f7
ce
9e
30
bc
69
95
0f
79
d2
0a
10
63
36
98
ba
1f
f5
c2
36
3d
3a
52
46
e6
89
ba
b4
14
dc
9f
51
2a
ad
19
93
40
f2
5b
5d
dd
59
56
79
8c
b7
f5
52
22
c4
0c
b8
5c
8b
11
d3
2b
05
97
5f
e2
ed
f3
6b
9b
43
08
ec
3a
60
c2
cd
b5
45
37
4e
d4
fa
38
c7
9d
5d
dc
f5
76
9e
bc
c7
2d
41
63
a9
b4
77
c2
79
38
d7
1c
5b
db
13
f3
fb
3d
fc
a0
ef
5c
74
4f
6d
87
cc
12
e9
a5
b7
fa
04
f1
4e
9a
11
9e
d4
da
0a
40
f1
43
ab
bf
bf
16
6a
eb
a0
ec
fb
e9
f4
c6
c1
18
e7
fe
1d
92
d2
3c
38
b9
4a
f0
76
d6
c5
a0
9e
f4
ab
a0
ae
f1
53
cf
3f
4a
5c
ae
47
cc
07
bb
e4
7e
16
b2
dd
4d
3f
26
8e
0f
73
11
61
48
49
05
9e
3f
fd
fd
fd
24
24
7c
5b
79
b0
3c
49
4e
3d
e0
8a
e7
c3
b2
ae
bf
6b
ae
9c
58
ff
4c
bf
7e
2d
d1
92
3a
d1
bd
71
84
a4
23
33
94
5f
4f
de
aa
6f
8b
6f
e1
21
77
37
0a
71
22
29
73
0a
97
08
6c
3f
fa
3f
7c
dd
94
45
47
d9
3b
77
1d
28
ed
94
d5
26
34
6a
8a
e5
1c
d8
5c
b5
3d
53
1c
b1
d4
52
89
b2
66
76
4c
eb
eb
f6
20
2e
da
ed
7c
05
2f
cd
38
40
f0
69
79
89
f5
c4
78
52
15
49
0e
f1
74
c4
62
fd
09
a0
07
e5
d2
c2
25
0f
73
7d
f2
96
a0
a9
fa
0e
ec
0c
d5
52
9b
04
00
4a
ab
83
ed
b0
ac
ac
86
28
c8
ee
e1
7a
d1
53
af
e5
50
92
a7
e9
b7
c4
6e
d4
28
5e
da
97
29
b8
44
d0
40
f9
0c
ae
dc
41
3c
d3
47
bb
72
c8
4f
0e
48
12
12
46
93
94
58
cf
6c
bf
22
d7
74
c0
2e
fd
a0
ba
c8
90
47
27
5e
67
ff
84
86
8f
b2
3c
b0
c3
4b
ed
0e
b0
8d
b4
92
de
0d
1b
81
dc
52
19
9a
a6
e6
8d
4d
18
58
91
8e
aa
dd
a8
3e
99
bc
70
5d
35
60
9c
0f
72
ca
13
24
63
ef
49
e0
8f
91
61
6b
6b
c7
06
c0
df
6c
f4
a7
61
00
72
08
d6
b4
5f
a7
07
ce
03
1d
99
29
be
d4
b6
60
dc
5c
3d
53
b7
90
98
26
58
a6
16
a6
6d
f9
c2
86
5e
fb
f2
d9
f3
79
68
34
15
f4
3d
82
9d
09
a6
b5
5a
a2
39
58
b7
47
c3
95
8b
43
8d
cc
85
86
12
62
3d
69
c0
8a
bf
6d
6a
22
dd
fe
d6
e0
30
0e
ea
2b
b1
75
71
37
de
cc
4e
e8
df
9a
b4
d1
17
52
78
17
35
7e
0a
7c
f1
e2
df
88
77
4b
05
b5
95
cd
61
59
76
63
6d
b3
43
72
ee
b8
b4
83
4b
33
fe
8a
20
af
86
3e
0b
0c
a6
3c
1c
60
df
fe
32
27
54
9b
0a
4a
e2
01
ef
5d
f1
b8
be
78
96
34
1c
50
a0
73
14
67
d1
13
76
be
d2
49
9b
5f
bc
48
3f
3f
86
06
ec
58
7b
c9
01
1d
f6
cb
99
8b
f1
ff
c5
cf
f2
3c
f0
b0
f0
73
a3
3b
1b
32
76
02
e2
5f
12
e9
e8
b8
83
28
31
35
6e
45
b2
e8
93
fc
29
92
c3
c6
69
8a
66
ea
68
6c
f1
51
f0
86
f4
c2
54
37
14
bc
89
ad
ba
16
ea
a4
b1
12
85
1c
8b
fe
9d
41
28
1e
ac
58
0b
3c
7d
6b
5e
5d
dd
fd
b3
01
7d
10
9f
fa
b0
a5
b6
20
03
66
a5
6c
cf
4b
55
09
e4
9e
2c
49
54
e6
9d
c7
6c
35
dc
bc
d3
31
ad
8b
57
b5
ab
8d
09
1e
df
bd
f1
7a
f7
6d
67
c1
8f
ee
02
57
22
7b
e9
56
5e
73
a4
50
07
a4
70
09
47
c0
4a
37
f2
d7
16
d2
55
2b
e3
94
87
89
5a
e9
f7
4a
bc
d3
25
9d
cc
60
65
a0
93
6b
d6
5c
d2
ec
25
45
3a
04
24
52
97
b2
29
ea
ff
5c
3c
f1
8b
c5
5b
a0
7c
92
d5
aa
8b
00
8c
c3
11
9a
a7
d3
f1
6f
40
05
76
38
71
fd
31
bb
91
65
01
ff
05
09
2a
e6
d8
d4
d5
51
1d
49
d5
21
1b
fc
07
10
14
d1
7c
91
45
00
4b
09
03
30
d2
4e
bd
e8
14
17
ec
d8
3f
71
31
c4
1c
b4
45
08
bb
15
c2
95
a0
2e
31
11
6b
2c
f7
d4
92
cd
3b
a0
3c
7c
84
23
eb
77
58
f4
e9
6a
bc
0d
21
d2
7b
ec
c7
e5
5d
ea
c4
27
ea
ac
60
2a
9c
0f
4b
b0
06
f4
55
f0
94
75
a1
30
cb
2e
64
22
5d
cf
cd
6d
64
81
63
99
13
14
19
b7
cc
0f
17
8d
86
99
43
d0
4d
e9
9e
15
61
8c
ee
03
32
0f
76
b1
26
53
21
25
ae
a6
90
6b
73
4c
4b
97
4a
57
f9
53
67
9f
6a
fc
6b
e2
e5
44
f6
cc
3a
fe
34
ac
a1
c5
49
c0
b7
62
98
a3
2e
5d
f7
df
19
40
88
cc
22
88
0a
11
c8
b8
86
ae
e5
eb
13
f7
39
25
a6
08
73
a8
47
d5
32
c3
a2
e6
1f
03
c6
eb
b4
db
84
fe
7b
23
c6
45
31
06
20
67
f8
7a
a8
2c
fa
85
a0
1c
45
a0
40
31
70
4e
7e
8f
09
d5
fd
6c
c8
a2
c4
ee
07
bb
41
ff
0b
7f
b0
94
41
3c
04
b4
d2
63
33
da
65
20
70
b2
62
d6
d3
53
92
ed
f1
b8
6d
4b
fd
d9
f3
72
a9
e5
97
b2
b4
26
82
ff
1c
bd
e3
92
bb
17
da
1f
16
17
bb
71
f3
b7
b5
6e
c2
e2
4a
66
1d
6c
4a
40
f7
71
c9
f4
68
4c
15
13
9d
ff
f7
85
4b
4f
73
ba
d5
33
7e
ac
e9
eb
67
b1
d3
5f
39
60
ea
45
75
0a
c3
34
dd
b7
5f
24
2d
d0
8f
1c
22
0b
a6
d8
2d
94
e2
42
f7
a0
75
f5
22
41
9c
85
f5
e5
78
c4
ed
40
91
d6
39
30
21
b2
d1
2c
04
82
5d
b2
5d
c3
10
95
e4
12
8c
95
b9
89
cf
4a
09
9f
4c
72
cd
3f
c5
76
d1
00
92
ff
19
9e
65
bc
74
a3
93
d6
77
7f
32
9a
f2
94
d6
36
4c
f8
22
4e
6e
a5
f0
a5
25
35
0a
a9
53
5c
3a
92
2b
49
17
b6
16
8e
1b
e1
56
e0
66
c6
cf
af
13
f8
26
73
48
38
f4
22
15
10
70
11
ae
6b
82
0b
79
4f
65
0e
88
55
20
5f
09
b8
8d
75
8c
72
1f
ea
95
66
1f
15
56
0b
59
79
b4
0e
a5
d9
5c
1e
89
65
49
d7
5a
29
f7
a6
8f
f6
df
06
c3
32
99
8b
bc
dc
dc
90
6a
c7
26
8a
b2
e6
91
8c
f9
f2
84
48
e6
09
ec
5a
a7
6b
ec
a9
64
7c
1f
64
b7
2b
01
b2
6b
5c
2c
c2
35
f5
95
29
56
28
29
11
9d
69
8a
74
e6
9a
61
9a
a6
95
26
30
ff
06
6c
f7
e0
38
cc
a0
dd
bd
e7
6a
6a
94
a6
4c
9a
d7
8a
f3
5a
e8
56
ad
c2
a3
95
d1
ed
ea
7d
68
9d
42
6e
f5
20
17
0b
82
46
3f
f5
60
3d
c7
af
8f
34
77
6d
07
e2
0f
de
7e
8e
35
df
19
39
0e
51
e0
25
d6
6d
db
e3
27
3b
3c
6c
d2
87
4e
70
b0
b7
52
09
14
8e
32
5c
53
fd
76
22
f6
13
4e
e1
3f
1d
e6
87
1d
e1
2a
c4
60
b0
3c
e3
91
44
0f
b1
49
bf
fb
53
38
95
fb
d1
8b
0c
07
87
8a
bd
ed
5f
65
58
e2
0a
43
8c
9b
78
91
e2
8c
bb
26
af
29
84
45
60
4c
4c
f0
57
3b
8e
3a
27
a7
c7
1f
70
28
63
a6
5a
44
59
8b
d7
46
d5
2f
36
99
88
f7
4e
93
87
5f
f2
d6
37
29
55
37
51
62
3d
67
c1
05
cf
bb
9b
dc
3d
57
6d
c6
6b
cf
08
ce
e0
9d
04
11
b9
b3
ce
20
98
b2
6a
82
1e
c2
62
aa
6d
96
67
7d
de
2d
48
6e
4f
b0
04
0f
00
f4
11
f3
50
c3
07
54
3e
a6
2a
84
32
c2
ac
37
7f
7f
d1
5b
d2
66
fb
7f
53
29
7c
36
73
a5
0e
d3
01
c5
05
ad
9b
1c
e9
d1
fb
18
ce
43
41
ba
b5
66
72
85
37
c6
b2
c3
4d
91
04
6f
bf
a8
28
6e
26
2c
a7
2d
9a
b4
0c
84
f9
20
4f
a4
77
e6
9c
30
e4
5e
22
d9
4d
e7
2b
12
28
a0
0b
fd
ba
50
05
d1
ba
e5
fb
0b
e5
1f
f8
05
de
a6
5f
0b
81
1c
6c
fa
28
cc
bd
9e
fc
a0
42
91
fc
2d
08
cc
40
04
05
a6
82
ef
2b
d1
d7
09
b4
3f
92
70
e4
49
71
c3
5a
62
36
b4
96
8f
3a
ba
c3
d0
c2
e7
43
ad
5f
2d
da
41
9c
5d
73
d7
55
45
34
ba
11
93
1f
90
6a
73
64
c1
33
0c
cc
5b
3d
e4
ca
ae
a5
d5
81
b1
a4
4e
d5
8a
47
64
b5
a9
35
c4
09
59
ea
91
13
a9
48
1e
fa
06
06
c2
f4
fc
8a
02
f1
0a
99
a3
5a
fc
c9
3f
cc
29
13
34
fd
43
92
11
89
7c
70
4c
c4
d3
69
74
3e
61
83
91
a3
3f
32
eb
15
7a
f5
df
47
1b
8c
68
46
28
16
81
46
4e
5b
5e
00
10
e1
94
30
de
c6
de
fb
f3
1c
74
2d
4f
9e
70
e4
af
46
20
59
db
00
b2
b9
e5
bd
d1
3c
11
0c
7b
ab
f5
23
2f
22
5e
ff
45
2f
d3
56
e3
0d
2e
d9
b0
cb
b8
2a
05
40
df
ab
18
36
07
2b
63
64
14
df
a3
28
a2
2c
aa
2d
11
5f
e1
e5
87
7d
6c
3c
27
18
72
8c
bc
a3
c0
26
2e
9a
74
6b
3a
1f
2d
0d
7d
cf
a6
ae
bf
33
6c
56
61
47
6c
c4
1c
96
74
da
1c
37
98
b2
be
59
01
e0
69
21
50
6f
0a
e9
9a
34
f4
da
d1
01
35
8e
3e
50
37
63
e8
fc
f6
78
b5
24
87
15
c1
fa
21
03
13
6b
d2
f1
d9
6f
03
18
43
13
fe
de
c4
75
7d
6e
f8
21
73
8d
30
68
08
29
8e
2f
44
fb
1c
03
74
f3
9a
d3
6c
86
7c
9d
d5
52
2c
38
ef
f9
a3
1f
cb
b5
07
aa
51
68
3f
91
3a
eb
7f
af
10
6c
0c
d9
6d
df
08
99
30
27
5a
e9
ed
43
c5
40
09
ec
ed
cf
b5
1a
b1
2a
cf
02
8d
1d
62
20
0a
69
02
ea
bf
45
65
1a
02
df
df
bd
fb
8d
f4
6c
08
62
cb
2e
83
11
9b
79
88
0e
26
db
46
44
4d
55
7a
d6
c0
12
3f
f7
63
9b
ae
be
88
99
78
ac
f7
0f
b4
2a
84
14
b1
69
09
8b
40
47
a6
c7
22
0e
47
f9
26
7a
cd
fc
23
85
44
6c
35
f8
93
b1
32
1d
46
9b
88
dd
6d
a7
11
c3
10
28
cb
11
60
33
34
af
6b
b2
37
24
9e
cc
48
a9
16
c3
e6
39
ce
e1
e2
00
1c
78
01
42
89
74
f0
b1
f6
36
3b
92
43
33
97
53
05
07
32
1e
2d
e8
ee
96
9e
a1
16
79
19
d5
40
5f
47
50
5a
2d
a1
47
61
f3
b8
2f
3c
47
71
76
49
11
01
8f
3d
db
1f
53
3e
ce
fb
dc
a7
d1
59
41
f3
3f
5b
5a
f2
a0
73
38
2a
f7
9f
b8
e1
a3
60
b4
03
2d
46
1d
b1
f7
e1
4a
20
dd
a7
78
0c
ea
3d
af
fa
43
8d
c4
56
62
e8
07
b8
ab
3e
34
3e
06
5e
09
55
97
b7
2f
95
5b
1f
2b
17
44
0c
c7
83
32
69
64
36
d2
33
1e
70
ce
0c
a7
dd
01
1a
19
2d
d3
09
6b
9d
f6
c2
8e
90
df
97
12
c0
28
c3
77
c3
e0
67
81
5e
06
d1
47
41
02
36
96
8c
ce
27
b1
d8
00
d8
ad
45
f2
a0
06
65
74
d3
74
e9
62
53
83
12
99
0a
a9
9c
24
b6
2b
0b
a0
07
56
e5
ac
7c
23
26
37
f3
4c
a4
37
35
20
3e
21
06
a1
1b
18
36
b6
ab
62
e9
15
7b
ac
25
bb
d0
e4
fe
e5
c0
be
1e
e4
51
22
a2
6d
41
e3
ef
39
56
b1
39
f8
e3
ed
5b
6f
64
69
5c
3d
ca
5c
0f
22
a6
1a
c7
22
31
aa
fd
21
cc
dc
f5
88
ee
3d
cb
fe
ff
fc
78
76
e9
4f
ba
aa
18
82
15
39
88
fc
76
f1
b3
77
c6
64
3f
28
8b
96
63
98
50
07
32
a5
a3
39
6a
05
07
d2
a5
f3
05
5c
e8
9f
ce
89
ec
dc
a5
71
20
71
92
31
a6
93
01
53
d5
ee
d4
a7
38
76
66
f5
b7
8a
06
ec
b2
f1
c8
da
e0
7a
f7
09
82
dc
5e
b9
f4
ca
ff
51
51
79
9f
d3
63
d2
9d
06
af
9f
e1
43
a6
f2
99
8f
a0
27
70
30
72
9c
f6
41
d2
01
72
48
ed
94
0d
45
49
21
a3
12
20
31
7b
7d
da
74
b5
f7
9b
ae
4a
89
1a
cc
36
63
14
8b
47
16
0c
af
8e
9a
67
00
4c
74
7e
7a
fb
53
17
44
08
ad
be
3e
ea
6a
b4
e7
10
cc
fc
06
64
06
0a
27
31
18
a0
93
c3
57
00
d9
d5
77
ea
59
0b
5b
3c
64
e1
8d
10
c2
0e
2b
17
d8
11
57
57
fd
e0
51
1a
4d
d0
09
6c
d5
42
11
bb
77
af
3e
a9
52
42
8f
54
4f
2c
2a
d6
d0
d1
45
c4
dd
d5
c7
27
d5
e1
0d
05
72
9b
4c
4a
2c
19
9e
7f
01
b0
df
10
7a
72
66
6a
6d
9b
fc
83
f5
09
66
ee
e9
9a
a8
f8
36
0e
23
48
7b
7e
8e
94
96
f2
ef
48
13
0f
89
ad
ba
a6
b4
ee
c5
69
77
12
83
19
40
44
07
20
cb
84
86
04
93
8a
0f
36
2e
51
03
d9
75
04
a5
bc
7a
3f
fe
67
51
47
78
c3
6f
66
77
f6
52
0a
90
a1
f5
42
86
45
b2
fd
01
8a
88
26
48
19
6b
15
63
39
70
ca
21
82
68
b1
04
57
e9
b7
59
7d
13
60
68
f4
7b
d7
93
d3
9c
ec
c6
62
f8
8b
d6
04
fd
55
d4
59
f4
c8
6b
20
a3
2c
55
d0
50
ef
88
33
e0
53
51
39
af
4f
6f
49
0e
8e
33
ed
db
69
e5
07
a7
5f
21
92
09
94
bb
be
3b
72
a4
f1
4b
b9
45
89
73
ad
eb
5d
1f
e7
7c
bf
77
f3
f1
b3
ab
93
c7
1d
2e
65
7b
fe
9e
7c
a7
5b
62
ed
2d
92
83
cf
93
bf
f1
06
7b
db
e6
eb
cc
f4
c2
32
5f
22
38
ef
53
34
ea
fd
4d
57
ee
9d
19
04
86
74
c2
03
8a
79
72
cc
0e
0c
75
38
da
52
ce
78
6d
25
53
08
1e
f2
7d
d3
4b
c5
95
18
fc
71
14
47
50
a8
19
5d
c9
61
e3
44
7e
08
03
e1
d2
97
71
20
64
62
5a
d3
a2
5b
37
e3
ea
96
d5
9f
bb
31
31
84
1c
b3
56
49
f5
f8
0c
8a
a9
bd
74
9a
9e
13
fe
c4
6f
0f
b0
af
11
6d
89
f6
4a
3d
c7
45
49
65
32
61
f8
d8
6b
14
da
c4
e4
39
a0
30
31
48
94
d0
9c
3d
f9
a4
6b
cb
90
58
d5
29
1a
62
9e
0e
d0
a5
88
9d
7e
2f
74
f2
55
b8
77
83
ab
a2
0f
36
91
f7
b2
5e
77
af
c3
7e
1d
2a
20
2f
aa
66
8c
ea
5c
c1
54
05
77
3a
88
5b
07
dc
6f
8d
24
dd
72
70
7d
dc
84
c6
11
61
60
6f
e9
b1
89
5a
09
96
a7
ae
4e
e0
6a
45
98
65
54
8e
25
62
fd
af
c7
35
59
71
69
40
b1
f3
d3
05
1c
b2
41
2f
73
21
2d
a1
26
24
5e
60
0a
2d
2f
c0
22
cf
6b
84
7c
c0
93
84
6e
2e
50
b6
09
73
57
c0
bf
64
3b
ce
b3
b3
46
0c
04
d9
aa
87
ea
e0
86
96
65
ca
53
c6
01
29
86
5c
41
be
b3
58
67
8a
f0
88
18
37
87
5f
91
4e
db
8e
0c
13
98
d5
5a
67
2a
ea
35
d2
ac
e8
92
4e
96
7c
9a
7a
01
ff
19
43
a5
cc
3a
d3
54
8e
38
de
13
25
dd
fe
a7
f6
f6
4f
0c
49
43
87
75
8c
c7
a0
b8
4c
40
53
69
d0
7d
de
6a
b7
79
5b
12
41
9a
26
84
d1
54
8c
56
1e
57
93
8a
36
64
d3
b2
8e
57
3e
d5
ae
d7
2a
6d
2c
e3
c0
35
f6
2a
b9
a6
92
c1
c9
d2
d9
87
8a
36
44
15
db
4c
89
b7
96
a2
f0
dc
8d
a9
ac
ff
be
1e
94
c7
cf
b9
e9
33
ab
c1
09
94
f8
32
84
c4
51
9d
77
ea
fe
40
e1
fb
a1
4e
8f
bc
db
7e
c3
5e
30
61
32
58
36
b4
c6
64
66
d9
22
71
00
96
39
3f
02
03
37
65
8e
13
40
e4
fb
77
50
60
01
fe
18
c9
17
fd
99
10
6a
d3
b5
69
90
8b
9d
4d
26
c8
5a
3a
15
fc
8b
db
65
1f
54
a6
21
d3
5f
ac
28
9f
3c
3b
56
35
1a
b8
db
70
cb
88
fd
68
2d
d4
de
a2
c2
d3
59
20
93
1c
10
af
d2
95
dd
e2
f8
fe
d5
64
9c
67
ef
21
3b
a3
29
dc
8c
27
48
6e
78
12
b2
9e
8c
68
f7
2a
34
21
e9
fd
d8
4d
62
89
4c
e3
e1
a5
61
63
af
29
52
57
61
a0
f0
cd
5c
73
3f
1b
fa
27
74
a7
d8
0c
e6
bf
fe
e6
17
e7
0b
8f
41
46
e4
6e
4c
2e
c6
ab
91
65
ac
87
67
04
16
5e
ba
08
02
63
bd
3e
ea
bf
4d
56
fa
45
11
0d
b0
ca
1f
7d
a6
e7
42
e8
55
9e
26
6f
30
65
10
a9
86
e9
e0
49
a5
65
a9
8b
6f
82
61
0f
a7
6b
99
f0
20
66
5b
67
6a
13
c3
f2
f2
61
6f
66
64
61
20
99
f5
7e
88
6b
b0
ac
f3
67
4b
51
c2
c6
51
74
68
0c
a4
87
d8
06
92
22
0d
c3
15
c9
83
16
68
59
53
f4
d8
96
06
9e
35
5c
64
f9
7c
66
10
d9
70
5a
12
17
8d
ae
20
b4
ae
7a
30
64
7e
a8
21
dc
14
68
f3
d0
d5
93
a7
13
31
a2
4c
c6
a6
cd
dc
04
c7
90
ff
f4
f7
e1
00
6e
21
4d
f5
e9
57
b2
c5
a0
78
e4
62
20
92
e6
84
b5
9a
f6
2a
f4
0b
30
2f
7f
d6
8a
12
0f
ff
2b
00
e0
55
e8
c1
59
56
c1
a8
fb
6d
13
e2
19
12
13
fe
50
6e
03
7b
a5
92
63
cd
a5
61
1d
5c
92
c5
f2
8a
7c
bf
d4
df
48
4d
83
e7
84
ea
3e
01
3b
53
a1
87
69
97
d5
26
9d
53
67
cc
ab
fc
19
55
25
82
5b
65
b5
21
da
dd
66
83
81
f3
97
98
1a
66
03
25
47
09
a3
ab
87
ec
da
00
d1
f3
b2
82
9c
cb
ab
da
4c
34
0a
68
09
3b
39
e2
58
47
57
d7
42
3a
c7
04
97
84
b8
4a
1c
aa
e0
d1
3b
8c
0e
fc
08
02
d5
55
09
47
41
2b
fc
83
9c
aa
66
8b
f6
ad
16
bc
54
e1
48
8f
52
40
33
4c
1d
08
fc
f9
56
3c
3a
41
5c
4e
54
c7
b7
8d
b8
9c
d8
64
ed
49
34
42
4c
c8
22
12
4c
10
5b
19
e5
7d
8c
4f
d2
54
57
c2
bb
5b
67
fb
88
c6
2b
3e
64
98
49
6e
8f
13
b8
78
38
65
1c
dc
64
59
b6
49
14
6f
5a
6c
10
0d
34
28
64
1b
f1
e2
3e
a8
38
05
66
95
eb
08
66
5a
0c
8b
17
20
b2
5b
b5
15
cc
6f
44
00
5c
58
0b
fa
42
e8
55
77
7d
68
6a
00
cc
79
67
84
f5
ba
95
82
fa
73
53
22
cc
06
0d
50
83
11
6c
b7
19
df
6a
5a
18
25
29
d9
50
5d
8e
ee
7b
7b
8b
ee
f0
05
09
82
1c
ea
42
36
43
d9
1c
0e
54
7a
47
5b
a9
7d
0b
d7
3c
98
a3
93
e9
4f
01
cc
63
49
37
36
39
fb
9d
d1
b8
e2
53
0f
8c
d5
f1
02
6a
cc
8d
e3
15
2d
63
53
db
e7
6e
c2
32
ac
4c
2b
41
72
b2
83
14
2b
f8
e0
7d
e4
59
bd
e5
f6
29
ca
9c
77
89
84
0d
a5
f6
98
41
97
43
63
ed
47
ab
7a
ab
2d
dc
28
36
0d
bd
6d
ff
c3
65
9a
0c
02
62
ad
a3
0e
84
3c
64
35
5b
b2
0f
85
8e
a4
56
f6
29
55
b5
f4
c1
75
91
f9
3e
76
5d
28
65
71
20
61
58
24
bf
8e
4f
05
fc
f3
8b
18
84
7a
cd
22
63
ce
c9
8a
39
fe
f3
72
c1
b4
7c
17
92
03
75
42
1d
f9
48
6b
b6
a0
ff
9d
66
c8
49
39
0e
fd
77
9e
fd
f4
8f
72
cf
6c
86
65
a9
33
9a
8e
a2
4f
be
50
0c
a0
54
4b
e5
70
34
8a
b0
65
85
e3
a4
7a
19
23
82
31
7e
37
47
2d
3f
89
62
7a
f0
9e
3d
55
83
74
49
0d
9f
37
46
9f
21
f7
b4
1e
64
3f
fc
aa
da
09
18
3d
93
79
88
3c
c0
a1
b9
33
93
ec
da
f5
cc
00
40
ef
58
d9
32
1b
0b
1c
e7
68
d7
bb
20
b2
fc
92
9a
fe
7b
5b
8e
54
55
9e
24
71
10
7d
a9
93
c2
bb
3e
9e
9a
2e
c4
6a
c7
ad
cd
fe
be
d1
58
0b
bd
4e
6d
9e
d5
4c
01
d3
64
6d
73
b4
7e
de
86
7a
ea
9d
28
b7
32
29
21
04
9c
60
50
2e
2a
a0
ed
24
2e
1c
41
99
2f
a6
d2
dc
f4
03
d8
68
5d
8e
9e
48
b4
96
6d
9f
11
bc
11
45
7e
4a
8b
10
d7
15
6f
d3
bf
28
b0
c4
8c
78
82
9c
3b
d3
3d
58
ec
fc
d4
70
9d
fa
bc
08
67
99
66
f2
45
71
3b
12
64
36
f4
2a
db
48
c2
02
ed
71
bb
a0
73
14
5f
37
7d
3b
f2
42
fe
fb
f5
a6
1b
09
26
e8
a3
97
1d
32
88
37
72
f8
37
bf
6b
5a
cd
27
c4
07
9c
70
f5
d7
44
6c
c2
c7
51
0b
8a
cb
f6
fa
b0
2c
2d
c1
40
77
0d
52
d5
6b
b4
84
e3
55
59
5e
83
f3
cc
0b
55
8a
18
44
8c
e1
95
43
f7
88
32
86
64
48
84
30
19
d9
c4
ae
ce
7a
b1
65
5a
d2
d7
00
df
36
ce
f7
33
27
f0
0e
08
1b
7a
61
b8
28
db
aa
ee
8e
9f
f1
62
e7
3b
cc
1f
9e
22
8c
93
85
7c
24
49
10
5b
48
7b
36
0f
d8
3c
c9
9c
60
5f
f9
d5
6c
8c
18
fb
74
76
bd
01
3f
eb
9c
de
a4
c4
18
0a
d5
2c
37
5b
04
e3
a1
c2
32
3c
7a
32
29
12
ec
f8
7d
50
da
6d
71
28
45
0d
3e
bd
22
7b
af
71
55
e6
00
f4
56
a0
79
5c
34
bb
6a
b3
b3
92
31
02
e1
5f
88
ae
6c
06
b9
a1
3b
a8
9b
c7
df
54
01
92
cd
44
f1
d1
ed
c9
b8
61
56
6b
3d
72
82
72
e6
ff
c1
b0
6a
57
c9
40
8d
82
9a
91
fd
db
49
4d
1b
02
f6
05
c1
43
6c
3f
b0
10
4b
3d
b6
69
2b
89
e9
8c
7a
4f
62
94
76
54
9d
5b
69
00
d7
ec
b7
ca
58
d6
f2
e6
8c
b6
b2
75
4b
cb
c3
d3
43
19
da
d5
3e
13
50
91
f5
4f
7d
d2
00
fd
9e
ec
16
90
ce
14
82
42
36
95
2c
63
5b
3f
21
29
35
cd
41
99
59
2c
4d
68
8d
c0
59
a2
08
00
08
46
1b
18
72
67
4c
23
32
37
ce
15
ab
12
bd
92
68
29
94
8b
11
f8
a4
36
09
48
12
18
4a
58
c0
10
b0
96
f9
36
7d
c4
c6
91
fc
86
3a
7e
15
bc
1d
43
b4
c8
c4
21
b6
5b
57
d7
c3
89
ef
a6
53
d7
a3
90
29
9f
cf
31
66
15
b8
a2
0a
a1
d5
6c
be
92
dc
36
ab
14
9a
45
c1
77
e5
66
a3
05
49
32
e7
98
2f
6e
47
20
c2
62
3d
3d
1c
f2
97
af
8e
95
76
72
81
7a
25
c1
ef
2c
06
49
43
f4
35
4b
dc
09
76
7c
16
36
e7
ad
f3
cb
9b
4a
a8
ad
18
5f
65
a5
71
a8
c4
d3
8a
e6
91
fa
39
8d
99
d0
d0
f3
2d
9a
c0
32
f3
c8
61
f7
24
09
97
20
41
d7
b8
44
1f
8b
ac
9d
66
3e
43
b8
5d
6b
e2
ff
f8
49
36
75
6b
4e
45
e0
9c
6c
7f
d2
23
22
43
a6
b4
c3
53
7a
f6
ee
9d
62
25
f0
fe
2f
99
f4
48
a9
b4
df
c8
2d
a5
3c
12
5c
07
ff
70
07
34
16
c8
df
4c
48
fa
87
bc
75
94
5d
a2
13
8d
2d
a4
0d
e8
ee
94
e9
52
49
07
81
cb
49
3a
e3
4c
2b
27
09
ee
bf
07
3b
55
af
52
71
05
0e
64
31
43
21
77
48
8f
70
f8
58
3b
40
1c
45
b9
39
f4
c9
22
38
54
ae
b3
3b
6f
4c
c1
43
bc
64
46
d2
e1
6f
19
b6
1e
e9
30
f9
f9
c3
fb
be
6e
d9
c2
9c
1b
f5
de
27
59
48
93
dc
f1
56
79
be
03
5a
5e
97
95
59
28
46
fc
5f
de
68
4d
2c
7c
52
f5
eb
10
cd
28
df
ec
e0
1d
a3
df
cd
dc
a5
cd
dc
64
8f
23
d4
a3
74
ca
8f
07
eb
83
59
3d
4f
73
7a
9f
0e
60
50
46
d5
54
5e
e1
2c
be
d1
f6
f2
b7
3e
20
f4
28
c4
38
5b
1a
f9
dc
5e
f2
35
49
b6
5f
7e
cb
c0
55
cc
da
76
f5
d0
58
81
da
e0
9b
c8
e7
ff
35
d2
2d
24
2f
e5
d3
13
bf
5c
5f
b3
03
c2
69
43
16
8b
2a
a4
28
fe
43
57
2f
b8
b3
d3
33
7d
53
54
6f
f3
12
01
79
89
71
f8
24
0e
89
b6
f0
da
58
51
99
bd
36
f7
1a
2d
58
53
31
5c
a6
0c
58
84
a0
f7
fb
44
96
ac
8e
3d
89
2c
1f
d4
e8
66
06
2b
90
ec
4c
a8
60
49
0e
8b
09
a5
b8
09
33
61
be
6b
23
56
f1
93
79
00
47
d7
cd
17
b8
2e
9e
0d
f3
54
74
c6
9b
95
cd
88
d5
58
ee
15
55
32
d8
85
8e
41
f5
28
0e
09
2a
91
f6
09
e7
92
44
cc
63
55
69
73
61
0d
aa
19
ee
90
2d
56
d5
51
ed
cb
20
d0
8a
3a
0f
a1
9d
a6
d7
6f
c7
ed
ee
87
51
d8
ed
a6
79
39
4c
3c
c0
0d
77
fa
46
b3
58
4b
43
c0
ff
7a
60
9e
d9
96
47
cf
2d
47
f2
91
0e
a6
0b
84
45
7a
9a
87
13
e5
73
a3
6d
5e
44
21
08
cd
07
47
f0
54
fa
9b
a9
ce
61
99
21
05
3a
be
8c
b7
82
5e
fe
7d
cc
d6
03
f1
93
18
ae
48
5a
05
3e
e9
d0
e8
9b
01
84
5f
bd
7a
90
37
b4
ad
03
34
44
d5
ad
4d
c9
9e
6b
e5
e5
05
43
ba
04
09
02
8c
8b
0c
b4
9c
1f
58
89
0f
52
c3
db
b0
6f
69
29
11
ad
b5
f9
f8
01
da
f5
6f
86
19
9e
fe
aa
e3
b0
69
36
e6
07
1d
95
7e
f9
f4
a2
cc
bf
9d
a5
db
9b
9b
fe
87
14
37
c5
31
05
b2
d5
a8
08
bf
b5
07
f8
a0
f2
12
bb
7f
04
5f
70
56
1b
42
82
70
0b
50
4b
2b
be
f2
a8
90
c4
b8
46
26
9b
f3
95
91
a4
46
b0
e2
b8
e5
b0
ad
d2
a9
ff
04
96
04
fd
fe
8b
ac
d5
6d
39
b5
f9
5b
a0
1e
bb
72
a3
ea
0b
9a
6c
83
3f
a1
bb
d6
b2
65
98
f4
f7
0f
93
99
e0
f4
d1
26
0a
2e
ff
dc
bc
c0
54
de
f8
ff
5a
44
f4
61
7f
5e
f7
66
b4
73
73
c9
c1
67
3e
12
6b
73
f0
fe
cc
96
04
29
e5
21
1a
49
3d
34
65
94
55
12
ee
65
74
a5
f0
3e
4e
7d
2f
f6
fb
93
a5
c1
ab
68
6a
6b
ba
7c
7a
fa
a5
5d
55
4c
76
bf
b8
2c
e4
dd
fa
d1
b0
6d
dc
ef
c5
05
31
a3
29
a7
8e
59
99
f8
0e
9c
49
e9
3f
9c
fd
82
85
13
2f
c7
5f
40
f0
39
fd
40
46
02
99
0c
fc
62
ab
f1
db
56
c2
d1
c6
a3
c4
1c
99
d3
0f
b4
71
33
d4
cc
54
89
22
6d
3d
ec
a3
b8
04
f3
90
7a
db
87
de
bb
7e
af
60
3d
bf
fd
0c
29
e6
27
00
42
50
17
92
3f
c0
18
10
3f
3a
c1
b8
de
54
43
29
ff
26
03
29
57
fa
14
a2
17
44
2b
08
1a
0d
fd
48
f9
03
95
95
97
4b
8d
76
b1
e0
d1
87
24
4e
ca
05
5e
08
00
40
6b
45
62
10
be
47
72
75
f4
31
17
01
9f
04
39
86
e9
aa
10
a2
4d
ef
1a
de
44
58
c4
af
ee
ed
20
e7
59
79
d2
f9
85
f7
38
d7
c1
61
34
d8
e5
8f
e1
9e
a2
d0
c8
22
78
c8
37
55
5a
45
13
c4
8e
e1
05
0e
9b
b8
67
bd
c9
cc
2a
3e
1c
88
1c
61
b8
c2
95
22
aa
9c
48
ac
13
59
df
25
c0
a5
d9
a9
81
75
3d
18
a0
bc
d7
6a
07
99
32
f0
42
72
27
67
0b
4c
d9
3a
ad
d9
f8
d1
50
86
17
4e
92
67
e1
9b
6f
6c
9e
1d
01
90
bc
07
d3
ac
f1
c5
99
88
44
b2
00
8f
ea
f3
29
f0
cb
20
db
25
27
d0
9a
9c
d4
03
06
bd
73
a4
bc
a5
5c
19
2a
e5
13
dc
90
cd
a4
48
e1
49
33
05
65
63
3d
5e
27
db
39
85
cf
cc
1d
7e
d7
67
7a
69
ec
09
38
ee
82
8f
d0
cc
0a
88
40
57
62
c3
2e
f1
07
91
20
11
38
46
0d
91
00
9f
f1
22
7a
cb
7c
0b
3c
bc
fb
58
b6
2c
0b
50
2f
b0
f7
a4
44
f5
97
34
1b
cb
4a
d2
a7
4a
fa
04
dd
54
d0
a2
bb
9f
93
0a
71
da
6d
c8
b2
2f
55
72
37
b8
43
0e
21
98
db
a2
ed
86
bb
48
0a
49
36
c6
62
2a
05
71
30
62
92
82
34
f1
c3
f6
23
89
03
0a
7d
e7
6b
8f
bd
d0
5f
c5
17
a2
af
ee
1b
79
28
66
5f
30
58
c4
4d
3b
ed
8f
bf
d1
66
6b
57
6d
72
d7
0f
83
08
20
7f
a0
ae
dd
8d
08
90
54
8f
76
61
22
e7
34
c6
4b
d2
53
14
ac
f7
c4
62
c6
47
5a
66
72
1f
ba
5c
da
98
c9
90
a9
6c
d0
ee
10
76
6a
10
26
64
d1
30
20
ed
7c
63
c8
75
32
36
95
37
51
2a
50
5b
a3
9d
b6
c1
14
23
71
22
c9
4c
65
48
ef
9b
1c
1b
4e
dc
d1
4c
94
fd
85
66
69
46
7a
f3
e8
be
fd
7f
df
34
3e
b7
40
99
ca
91
95
a7
23
ed
53
ac
fb
a9
43
8f
fb
da
7a
49
e0
b7
91
f9
18
af
92
87
9a
e9
89
88
35
0d
c5
43
ca
70
3b
e5
3f
b3
59
e7
81
e5
d3
27
05
a6
76
0d
c2
31
e9
43
74
d6
50
b0
2f
ea
fc
5f
d4
05
79
92
79
f9
6f
b0
1d
92
5a
0c
89
b5
26
f3
a9
04
fb
81
14
ef
59
14
f0
52
38
e7
fa
fc
2f
2f
38
b2
46
79
af
d1
a1
21
b5
5e
f1
99
ba
ba
c4
9f
59
cd
7c
66
02
5a
1d
5f
8f
24
7d
fc
c3
66
3f
7e
51
08
cc
f3
98
0d
28
45
da
52
05
a0
81
44
e7
07
8d
cf
60
cc
17
d3
d5
87
74
72
16
95
02
ca
33
e5
77
27
91
2f
db
f5
75
2f
14
2b
36
16
97
31
e2
52
69
f8
9d
57
6c
ba
19
66
4d
04
21
db
01
0a
71
6e
0c
a2
d2
21
0d
04
88
27
31
af
5c
05
08
53
02
ce
95
95
05
a8
1c
4a
d6
33
b5
57
54
76
fa
ca
f9
b7
37
87
a7
f9
97
02
0c
65
fa
cf
4c
29
52
e3
23
58
6d
b8
0d
7d
06
2b
15
f4
a8
db
0b
09
5a
b2
a5
7a
79
e9
05
e5
36
b8
32
53
e0
c5
db
92
a7
cd
60
72
9e
a9
1d
60
79
b5
cf
82
a0
ee
50
31
fe
7e
13
b4
b8
c9
05
1b
55
69
37
58
cf
02
fb
d4
01
4f
0d
89
a1
88
15
e1
63
14
da
72
6f
c9
f7
85
3a
01
ea
f8
0d
2b
a9
a7
68
db
6a
c5
30
b4
b5
8d
5c
8c
a7
98
97
0f
6a
7d
82
55
34
39
70
ef
5e
30
0f
cc
e5
58
0e
8c
39
6d
82
10
b5
05
58
b2
c6
c8
a3
b5
17
9e
83
21
0d
0f
66
15
08
ab
98
e4
bf
21
ec
24
41
a3
6f
08
85
29
f3
44
f7
5b
a6
18
f6
34
69
9c
8e
4c
61
5e
3d
93
4c
f6
31
d2
5d
2f
0d
fd
99
d7
a2
e7
c4
e8
92
40
8a
85
7e
94
05
28
62
4e
6e
8c
7d
26
c3
02
14
ce
70
b5
69
3f
b3
f2
6c
61
70
dd
f2
26
de
81
0e
fc
09
19
de
2a
a7
a1
5f
d1
cb
36
36
f7
16
84
9f
61
92
f1
10
6d
25
69
05
b7
92
8b
29
91
14
93
15
dc
ae
8e
70
13
7f
50
75
0d
4c
91
bf
40
cb
58
33
76
0f
f4
ca
db
c3
16
23
a1
05
0e
6a
56
3e
b8
68
00
97
7b
31
88
99
10
72
cb
e9
8d
2d
8f
68
00
6a
74
09
e1
46
0e
e5
fe
16
45
e4
3a
22
6b
25
02
8e
af
ad
dc
fe
ce
c2
a5
2d
af
d8
5b
3c
c3
29
9c
cd
eb
eb
e4
e0
ae
0e
37
46
95
29
2e
08
59
8b
36
54
87
19
02
0f
4f
5f
43
60
ee
d2
3d
74
1e
84
75
2a
24
7d
c6
29
df
8d
9d
e4
5e
7b
1c
65
49
cf
54
14
3c
eb
fc
97
c8
3d
aa
64
07
9d
20
fe
b8
b5
a9
26
7c
66
93
a3
e9
6a
bc
4b
ce
8f
75
9d
e0
a5
4a
6c
62
17
f2
8c
cb
16
c7
9b
6a
a0
15
7a
9c
cc
95
34
82
8a
60
bd
92
0e
d6
a6
c8
75
12
ee
61
5d
44
71
eb
fb
ba
08
cf
fa
36
5f
e7
8a
df
3c
71
0a
fb
11
26
9e
32
85
39
89
50
01
1c
3b
1a
67
e5
0e
49
4e
dd
fa
17
c8
5f
bf
6b
d1
33
75
a4
05
12
81
16
22
6b
d1
5f
17
3b
8d
d3
6e
c9
7a
56
2f
8f
1a
2e
d7
31
8c
0b
09
3a
9e
7f
b3
29
d4
05
99
e6
92
b5
fb
37
61
fd
eb
58
17
e4
bb
65
3f
94
4e
67
a7
a4
26
b7
b8
23
4c
92
96
00
65
c1
d8
11
17
3e
5a
b7
ff
2d
c1
a3
fc
88
cb
4f
8a
94
34
c6
11
65
62
1d
c7
ee
89
47
2f
38
be
b4
50
38
20
6a
ad
9e
fe
e7
2e
f5
4a
af
df
63
8e
0b
25
ec
fe
8e
0c
ba
8e
43
7b
5f
f4
5c
a5
68
3a
19
2f
87
05
d6
4c
48
20
9f
53
88
4c
7d
36
ec
0c
12
a4
b8
05
a2
93
82
b8
f4
d5
22
b6
25
15
31
71
f5
14
cd
86
13
d1
2a
8a
4a
49
b9
d7
81
57
6d
7f
95
52
a2
eb
d6
fe
4e
47
c1
14
ba
59
db
01
a5
84
05
7b
42
d5
07
94
1a
9a
b4
3c
34
20
8c
73
1e
14
08
13
fb
a5
97
4d
96
b5
d5
3b
1d
a2
c0
dc
ca
9f
d8
72
0d
28
7b
19
09
22
b7
af
c9
33
0a
0d
4a
1f
f4
a0
c6
d5
dd
34
5a
dd
61
56
6d
b5
d9
00
72
3e
78
fc
a9
53
5e
9e
7b
08
a6
00
da
5e
3e
8a
a4
bb
19
67
02
0f
4a
ed
68
d6
ee
8f
40
79
ff
dc
cb
d6
3b
aa
ee
71
84
37
a3
27
ea
d9
e0
2a
e9
d5
3f
2b
d5
8a
9b
29
08
69
f2
bb
f1
54
e5
13
41
62
c3
22
7a
22
ba
08
eb
08
41
a6
8f
d6
7a
43
2a
c2
6a
18
69
d3
a1
c3
ca
0b
06
cb
81
25
1b
8a
7c
28
bb
b4
6d
28
12
33
6d
27
e7
72
fa
07
d5
e2
ee
4f
e2
0b
b8
ab
83
04
15
c1
f3
e5
7e
cb
e2
ae
36
aa
5a
e5
95
4f
4c
cf
34
cd
29
7e
6e
49
df
88
ac
08
8b
ef
5e
3e
4f
9f
7b
fe
ed
63
e7
9f
26
cc
f1
3b
40
42
03
f1
8a
a1
b1
e1
9b
c1
df
3c
cb
a5
66
78
98
f0
35
14
8e
95
e7
16
e4
f7
cc
fc
44
99
88
d2
3d
24
5c
73
99
8e
7e
ea
15
17
e8
e6
98
79
25
cc
4f
69
cb
d7
03
54
36
6f
9e
1e
25
31
76
99
b8
1e
be
ef
40
62
c5
93
31
31
70
b2
41
3e
08
43
66
9e
89
82
f5
a1
f3
6c
1d
55
e5
75
c1
99
a8
d9
04
c0
68
03
bc
fd
4e
f9
e6
06
d7
fb
29
0c
d1
54
e7
26
50
8c
fd
6c
55
77
35
23
08
d1
03
17
f2
8d
2c
6b
29
20
5c
59
d1
64
43
c5
9e
4c
f6
25
b6
23
29
1e
cc
12
5c
d0
13
1a
fa
57
d9
e7
6d
85
2d
e5
df
47
35
46
a9
e4
b9
3d
8b
2a
fd
57
2e
f8
37
75
93
7d
34
ed
fe
4b
3c
87
74
c3
91
01
84
c9
b8
c6
5e
03
1c
cf
59
9f
15
be
39
69
f4
46
6b
ff
69
03
7c
67
45
46
6e
4f
64
aa
d0
57
58
f3
25
78
01
04
44
c4
68
e6
d0
e8
36
cb
7b
60
88
ce
a9
77
b6
6f
06
ef
2a
6f
e6
5e
ee
17
3f
5e
64
37
eb
3d
e1
50
31
d3
43
e6
d1
b2
36
28
8b
33
ab
a6
e6
74
8b
fd
ba
3e
6c
63
ac
06
28
cc
98
5e
67
79
13
5d
b1
24
53
c5
86
ce
9b
de
6d
82
38
2e
25
86
3a
50
1d
53
7f
ed
db
0f
2f
74
d7
f7
d2
a5
b0
65
70
b8
6b
82
aa
2c
f1
f5
e7
6c
31
ad
e5
ab
65
cd
31
45
57
00
23
fb
79
d2
e0
54
91
6e
07
15
fd
52
4c
49
2a
fe
de
51
ff
a5
de
e5
4f
10
f9
a1
ca
8d
62
5d
02
a5
b4
bd
45
82
1a
ec
10
b6
1c
0b
02
2d
5d
7c
f1
21
52
dc
6c
d3
ed
25
a3
6b
22
27
f6
af
8a
56
f7
3b
6f
16
20
c7
3d
04
6c
f0
52
22
51
c0
89
d7
10
09
72
28
d1
d9
92
e9
c1
5c
f2
6a
10
3e
91
4c
bd
1a
a8
4a
e8
a8
ae
95
49
cc
19
ea
93
e7
95
1a
5f
90
2a
75
c1
17
0c
26
ac
54
6c
15
03
6f
6f
e4
a5
be
ad
56
d9
38
c0
41
2a
81
e2
a2
49
f0
65
61
b1
c6
f6
6f
af
4b
7a
17
0b
e5
6f
6e
7e
c4
63
ed
f0
9e
bc
67
6f
28
22
1c
ee
2c
f5
98
87
39
f6
3d
51
25
5d
b4
11
20
c2
fc
79
4f
b2
9d
3c
e2
6f
d8
4e
bb
06
90
e7
1b
9c
c6
c8
25
0f
a7
cd
b6
43
1b
0a
83
d1
11
9b
86
e0
57
99
e0
2d
1e
6a
05
03
93
e7
ac
db
61
27
da
d4
a9
eb
e2
2b
88
2f
fc
c4
55
6c
83
cd
74
79
3e
49
af
7b
a5
ca
8c
76
33
ad
51
a5
e6
15
22
63
a2
af
71
e3
ad
14
bb
d6
5c
a0
03
89
64
16
3f
24
7b
3a
3a
76
08
eb
05
c4
89
88
79
d0
70
c8
c3
9d
cd
41
c2
f6
2e
59
0d
c4
0c
b1
5c
52
a5
6c
5a
e0
41
fd
d9
a9
e6
55
be
14
1b
29
32
9b
4d
76
e5
d4
9f
e2
35
2d
99
f7
62
70
e3
1e
44
62
df
64
cd
86
ed
e1
aa
9f
fa
35
a7
66
d9
d3
c3
7d
31
bc
ff
13
79
8b
0e
bc
e0
49
28
92
cc
b6
25
12
4f
ea
2a
9c
c6
e0
a7
4f
aa
1d
88
4c
77
0b
1b
61
96
3e
b9
24
e9
d1
b3
5e
94
d6
55
ab
e8
da
be
88
0a
09
a1
b2
d6
1f
6c
5e
f3
d8
33
06
d0
6f
02
0a
9f
e4
fe
33
74
39
24
79
e2
81
b9
b7
79
c1
b0
2f
e4
11
11
90
cb
f0
42
c6
e1
ca
58
73
a3
f2
2a
99
eb
39
b0
00
ee
e5
a9
a2
d0
f9
e2
f7
2a
e4
dc
1e
22
a1
33
67
ab
d8
49
e3
ef
07
c2
d5
06
0b
1d
26
ce
89
3c
c4
c8
00
77
38
0b
98
2e
e0
65
0d
8e
2b
a0
f0
11
d1
86
8d
6d
e4
67
8e
d4
ab
ad
36
3d
a0
13
e1
b2
59
8e
4c
b9
d6
68
67
ed
52
27
c4
7c
d2
1b
40
9b
59
cd
52
be
32
ef
17
9c
0e
25
6b
ba
24
ec
c7
29
f3
86
96
1e
de
1b
de
f5
ee
77
88
e4
49
02
12
13
6d
b3
d0
7d
36
bf
e1
02
51
fd
70
9a
3b
5e
e9
9f
be
d6
31
7e
02
2e
12
f5
b2
fc
d3
7e
90
8a
f5
68
6b
bc
bc
83
e0
55
8e
e4
07
db
f4
8c
a2
72
61
58
bf
72
97
6e
3f
e6
fb
e7
86
94
db
a3
b1
cb
27
31
b2
7e
46
4b
e4
bc
9b
23
86
d3
69
4b
48
c8
57
96
78
3f
87
56
bb
28
7b
4c
ca
97
3c
91
cb
83
5d
23
13
bc
c8
72
18
30
56
2b
0c
2c
71
ed
ea
77
dc
ca
9e
76
07
8d
bd
a5
b7
25
dc
73
3d
25
46
6f
40
b6
21
65
de
6a
4c
b8
43
b2
b7
81
c2
e9
0a
76
7d
67
d8
05
17
5c
2f
e8
13
e5
8f
b7
e9
d6
4b
98
bd
ee
bd
d8
f7
a6
a9
5e
0d
be
8a
24
79
15
be
76
48
da
1b
41
d1
6c
e5
79
0f
8b
31
9a
75
c3
a9
d2
86
01
d3
84
85
c8
6a
8b
81
66
a9
61
57
43
d6
e9
24
03
a9
0c
d9
2d
a4
5e
61
bb
19
aa
ee
bd
2f
93
5b
f8
92
08
d7
46
18
e5
ba
c7
ca
0f
3d
dc
dc
2e
b2
64
6f
3c
cd
01
47
48
e9
5e
61
a5
ed
e5
b4
81
58
99
86
15
0b
e2
fc
0b
da
94
48
24
b2
25
0d
17
b5
ac
4e
0b
18
45
fa
fc
20
96
03
eb
d6
6d
d0
45
1f
39
26
62
3c
ce
1c
28
b9
bf
5a
eb
32
06
3f
ed
bb
40
12
2f
c1
c8
12
b0
8e
6e
85
4c
8e
28
e4
85
c4
5a
e7
d7
a4
07
cd
d9
ee
a5
62
53
6a
5f
4a
1f
07
3f
8b
6b
14
d4
0d
e8
e8
04
5f
4f
21
ff
d7
83
63
5f
be
09
cf
88
f3
95
1d
9d
30
e3
5e
50
6e
e7
fd
48
ee
92
6d
fc
1f
77
26
05
62
e9
3a
50
04
24
4c
3c
17
3b
f0
bb
53
0a
e6
39
c4
f1
22
c5
f1
fc
50
d0
09
d1
4c
3a
ec
db
92
3a
28
bf
7c
53
1b
9f
06
3d
2e
b1
88
cc
6d
a7
72
e5
10
ae
6c
c5
32
19
25
cd
2c
fb
d4
04
eb
34
b3
27
89
a5
7d
9d
c8
d3
84
9e
0b
14
d2
39
00
b0
6d
86
f7
90
20
27
61
99
fb
28
17
a2
f6
d4
4b
5d
34
f2
94
06
17
76
73
94
81
06
dd
7c
9f
1e
c2
91
bd
a0
b9
70
e9
37
c6
f3
6d
2b
12
26
83
3c
e1
c7
3a
3d
8b
a4
97
c9
f5
e7
89
41
01
db
c5
f3
ed
ae
56
a0
50
f4
d0
73
76
cf
df
23
4a
34
ae
14
25
b0
89
32
87
8f
26
32
d0
7d
1d
20
d4
0a
a6
46
5e
74
27
6f
60
71
dc
90
00
1a
f0
d3
14
22
90
38
6e
ad
13
26
24
4f
77
98
25
3f
37
47
e1
15
a8
33
8a
f1
51
45
42
44
8a
eb
6c
ed
48
4c
31
8c
44
f5
60
30
0d
91
26
fa
23
07
54
c7
1c
b8
d3
e2
de
e1
23
70
b7
44
a2
88
70
20
79
09
cc
ae
9e
5b
1e
37
68
b3
49
0c
24
20
72
29
67
56
2b
bc
89
91
70
e1
ea
f7
bc
50
74
fc
f2
7b
5b
e0
dd
a1
bb
2e
bb
ef
4a
ca
cb
b9
c3
94
6b
9f
05
6f
31
6a
32
b4
71
b0
f3
6b
8b
b2
75
d1
0a
35
db
00
6d
54
1c
c5
66
7a
aa
62
96
f0
4c
4b
24
4b
a3
f6
1f
25
eb
d5
45
e9
e3
26
b7
7c
fd
22
d8
70
41
c1
aa
86
38
9b
88
50
6f
61
eb
84
4c
98
fc
6f
38
46
60
9e
b7
b6
c1
ab
2f
08
c8
30
de
52
01
5e
d5
b6
d8
71
9c
d8
56
19
e6
aa
2e
14
ec
1e
27
f2
08
10
ae
10
70
4b
2d
5b
b8
6e
ea
3d
fa
a4
48
af
b4
d6
70
3d
3b
29
e2
27
43
17
9a
cb
3e
9a
b6
9e
51
a2
f9
84
02
77
ae
1f
36
1a
46
78
df
bb
ef
86
23
fd
c0
99
d0
3d
66
2c
03
c6
e8
d7
f3
bd
47
62
c6
55
76
fb
b3
c4
68
30
65
4c
cc
29
a6
82
cf
b3
e7
5f
e8
e8
b7
0f
7c
71
01
4e
1e
11
