59
0a
0d
3f
f1
2f
05
2a
32
5e
c5
ef
8f
8d
59
a2
7a
47
dc
78
88
06
2f
eb
fc
a2
b5
b1
77
12
13
e6
36
5a
a4
2e
34
14
3a
fa
03
d3
8d
92
a0
c0
c7
a5
84
8d
3f
02
0c
0a
ae
70
26
00
4a
05
61
af
b4
a0
f9
cc
94
c6
5c
d0
9c
b5
f8
3b
cd
e4
0c
47
27
c7
88
e1
c8
96
14
36
db
a3
5a
1f
ca
ca
f6
7a
a9
35
f7
46
75
84
cb
29
0a
1a
25
30
10
09
c6
34
7f
a8
6b
63
29
9e
f4
7c
08
d1
78
2a
d7
72
74
43
99
1b
14
df
95
30
ce
73
06
a5
62
62
78
bf
df
4a
d9
15
40
ed
e8
38
8a
56
20
5d
03
3a
2b
89
99
b7
3f
ca
f1
4b
4f
96
6f
1c
fc
c5
20
a8
83
f2
b3
fe
a5
20
21
0b
b4
ed
d1
24
0d
28
27
6a
0d
33
27
d1
b0
b1
39
f3
e1
b9
0e
e5
de
9d
3e
70
20
b5
b2
d0
dc
ed
4e
3a
9c
fe
a9
cc
06
5d
d8
7c
2c
c9
e1
8a
db
82
57
5d
78
87
46
0a
f9
97
26
1a
24
83
c2
ba
d0
f6
4c
77
d1
c6
cd
f7
7c
5d
e0
fa
8e
cf
c7
33
5b
ae
43
52
31
94
06
1f
e7
00
12
54
fb
08
26
5b
c9
0b
11
1e
86
e2
13
6d
7d
53
09
7c
b6
e1
e9
4b
a5
ab
26
2a
74
27
a5
6f
a9
93
a2
75
26
8d
e0
5f
64
ba
af
e8
8c
9e
7d
7e
e4
85
30
3b
57
d1
04
a1
b1
0e
c2
92
00
2c
9d
22
61
38
c1
0e
52
aa
8b
32
dd
ca
86
76
10
29
38
bd
51
25
dc
b6
b6
96
2c
e1
5f
54
ee
06
c9
7b
92
f4
e7
dd
91
e1
c9
9f
f5
5c
cf
b1
10
de
cf
37
15
db
3a
92
ca
58
b6
70
8f
a0
12
e7
30
51
e5
63
ae
c5
e1
90
a1
05
d9
fd
03
a1
c2
4b
c9
7d
a8
83
ce
f7
5d
aa
90
79
f6
5c
0e
08
f5
03
a5
d5
a4
ac
15
54
73
13
c5
51
05
42
a5
61
47
1d
73
cc
a6
14
55
97
95
4b
3a
ca
79
f5
b6
65
02
ec
d0
d9
c1
74
35
1d
e3
e9
87
94
6c
85
35
2c
20
84
6d
03
94
5e
08
10
f8
46
29
5a
d8
4f
87
38
9d
3a
bd
c0
89
84
ea
6d
36
22
c3
7d
92
d0
32
e8
3b
85
a0
b2
1f
9e
a3
4d
09
a4
ed
ef
77
cb
0b
02
f2
ff
