7a
38
06
f6
0d
9f
cb
84
29
cf
48
be
c1
be
23
7e
33
3c
ed
bb
f7
a8
06
10
c6
3a
75
61
d1
60
0f
e3
ae
04
d8
fe
fa
c2
5c
32
fa
fe
01
d3
17
57
6e
ce
ac
bb
5f
9b
ab
a0
b3
8c
a9
82
15
1c
e8
be
ce
8b
ea
69
47
dd
61
a1
98
e2
fc
dd
ff
61
e7
09
1f
ed
cf
ab
7d
06
92
2e
46
23
76
4d
29
30
2d
4c
f0
6b
f6
fa
8c
49
47
82
a9
2e
b7
25
6b
0c
70
e4
59
07
6e
26
45
fd
61
3c
cd
10
ca
b5
68
98
9c
0f
96
3a
6c
71
8a
c8
1e
76
bb
14
b8
67
4c
5a
68
90
ce
d4
2c
b5
1e
39
6d
61
54
dd
b5
46
ec
43
2c
0f
5d
e0
4e
ea
ab
ac
de
f4
52
c2
f4
f7
09
36
15
d9
2f
b6
d7
2d
c9
c0
e6
7b
f8
bd
ae
1e
6e
11
55
15
2d
c3
00
22
1f
60
d2
44
fd
bb
7b
0a
11
49
2d
4e
e1
71
ee
30
9c
f7
49
71
1b
f7
bc
07
ec
0b
54
ae
f3
fc
ce
bb
48
d7
9f
35
f9
0b
18
94
08
3e
86
1c
be
a8
4a
bd
18
8e
72
59
b7
f1
22
b2
3e
3c
9a
f8
d4
33
bb
27
60
8c
90
c0
cb
42
54
0a
6b
50
33
c0
7c
43
f8
36
9a
67
61
f2
74
06
f2
b2
be
9c
b6
f7
7f
dd
dc
52
0d
b9
2a
0f
96
11
bf
77
39
91
13
ad
c9
0a
1e
cc
c7
da
51
18
f8
07
ec
35
38
a3
3c
dd
db
33
23
f5
8b
c0
c9
ee
b4
4b
66
67
66
64
05
3f
6c
ca
fc
f1
af
00
83
06
36
2a
51
67
90
bc
d0
c4
35
8e
2e
92
25
67
d7
57
61
47
93
57
2b
53
2a
7f
f4
a8
01
85
11
fa
21
57
1d
d6
f2
a1
d5
8d
26
d1
c0
c4
15
96
13
34
a7
a3
b8
d4
b8
1c
19
7a
db
e2
88
9a
a4
af
2e
16
21
b9
91
f4
ee
b1
fe
67
0c
1a
c5
83
22
32
32
3e
df
e9
9a
85
5e
c9
04
6e
e5
a7
fc
34
95
bc
cf
b8
59
f1
31
2c
9d
4a
c1
76
a2
9f
31
ad
68
a0
86
8e
7c
cf
d1
c5
36
6f
48
0e
12
6a
f0
2c
c5
aa
d3
1a
0f
88
85
10
8e
d2
54
df
2f
3f
f0
fe
ce
e7
e9
7c
dc
08
81
ee
da
4a
c7
12
b0
67
4e
7c
75
e6
4a
10
ee
77
39
7e
ca
bf
0a
65
79
05
15
aa
