7a
e5
76
b1
3d
3a
ce
61
ff
29
2d
d2
70
aa
f2
d7
52
8b
31
a7
39
c3
65
55
f1
d2
90
43
c0
1b
06
38
f0
87
ec
b6
fa
ce
2a
f6
45
b4
92
36
c8
5b
5a
cc
8b
84
95
7d
84
fd
c4
06
02
9a
98
d3
d3
59
15
a6
ee
dc
56
9f
95
a3
a5
b5
04
57
ec
84
17
8e
3f
94
b2
dc
6f
b7
86
c8
60
62
eb
f2
ca
a1
ea
e5
93
f5
11
1a
b4
91
1c
e1
3c
9a
45
c8
71
d6
9f
24
6c
25
42
8e
42
c7
72
2c
81
26
32
01
d0
ec
c4
87
b9
ac
88
70
ce
64
e0
15
15
b8
d5
a9
c5
a5
3f
2a
f1
28
21
d6
ee
fb
8c
49
22
b3
f6
e7
60
da
8b
74
05
10
b6
03
52
58
4c
d7
a3
30
aa
32
62
2a
75
c7
a2
05
67
1f
90
c6
dc
77
30
6f
d9
1f
a0
a7
2c
19
6c
27
20
1f
8b
41
24
32
c8
36
69
fa
e3
b4
29
ed
a7
04
4a
f1
64
fc
35
4a
8f
be
53
2b
76
8f
c4
b1
db
2c
25
b8
ff
f1
5a
2e
0c
b6
93
90
96
45
e5
d2
93
5b
fc
c3
e8
2a
2d
ff
54
20
6e
92
7e
92
b7
74
96
0c
ca
21
c8
16
00
bd
ae
fc
58
55
65
5b
9b
b7
72
f3
69
3f
76
c2
24
9d
dd
ae
95
e4
1c
88
84
48
f9
2a
89
3b
b7
f1
24
60
b2
91
91
e0
c1
89
2c
c4
ff
b9
db
b4
ca
1e
97
88
da
dd
bf
1d
4a
d8
da
44
90
bf
ed
c6
00
25
9a
5b
db
d1
1b
ba
b7
8f
f6
28
72
b0
9c
1c
d1
cb
f5
aa
c9
61
6c
16
1f
2e
45
7b
8a
61
f7
91
e5
f4
28
fd
96
b5
30
f1
ac
cf
da
a1
e5
46
0e
47
df
7c
e5
cf
c5
c6
66
47
ab
cd
82
ca
aa
02
cf
98
ae
a4
44
3d
23
5a
24
7f
b5
01
58
43
76
a8
b7
8a
49
ce
d2
e9
3a
66
da
33
77
42
24
4f
a8
b6
b0
0d
06
e3
fb
7b
12
b7
52
de
74
3d
52
19
b8
78
db
74
56
26
74
4e
d8
79
69
a3
b0
e1
8e
cf
ec
29
d9
82
be
a5
0c
3d
c5
f7
91
28
7f
30
13
89
54
84
f7
2f
40
f9
af
85
08
68
d4
24
db
06
24
96
38
29
33
aa
8c
ea
d4
7d
d5
9c
cd
9d
d9
2f
47
14
aa
fe
91
59
f3
0d
ca
20
6f
ec
e7
cb
c6
7f
ec
b6
7a
7e
