00
d4
72
b2
0a
95
f1
f1
83
14
09
ee
f1
00
9b
42
38
a0
3b
86
89
ef
8b
e1
66
b9
39
df
fa
28
93
ea
34
57
3f
0e
75
64
5b
a2
1a
50
9a
55
d4
85
b6
13
fb
6b
29
a5
ee
33
06
22
65
ae
48
a5
dc
85
60
ad
1f
52
c8
8d
aa
52
67
72
03
7a
9a
c6
b8
9b
a5
2e
91
5a
7b
f5
db
e0
31
bf
5e
fb
8d
a5
a2
b0
be
84
b5
60
5c
93
e5
b9
10
10
05
23
6f
36
73
b2
3a
1c
0b
0f
06
29
ef
d3
6c
86
9a
64
53
5e
d1
47
ae
7e
a0
e2
53
8b
45
01
07
1d
03
f2
70
ba
4c
cb
3a
27
b6
9f
c6
98
df
1b
3f
9f
39
52
38
aa
a4
9b
25
20
62
58
29
58
3d
db
61
cf
f9
97
ba
8f
ff
cb
3b
8a
a4
ed
21
18
dd
e8
b3
91
9f
9f
01
37
4e
da
49
b3
1c
5d
fb
d6
62
db
99
df
dc
07
27
57
99
69
66
ed
6a
9a
3d
66
b7
c8
11
98
d0
31
3a
75
76
2b
87
ca
03
04
1f
ed
7d
90
3d
f5
f1
fa
d9
e6
40
fc
da
d9
52
c6
11
ef
f3
21
16
02
12
02
3a
6e
24
cf
c8
28
e5
9f
ac
95
4f
bb
05
9f
22
f7
bc
91
b4
f5
76
f0
1b
8d
85
ee
a6
be
20
04
d5
d8
b3
1e
4b
29
99
d0
b1
8e
f1
ad
eb
06
91
11
31
3f
59
23
59
11
59
94
44
83
2b
65
1d
b5
0a
37
7e
3e
ac
4e
62
fe
f5
dc
6e
d2
77
f2
cf
72
34
5f
51
8d
15
b3
55
e9
06
38
f5
0c
66
03
7e
6a
30
22
fd
ab
d2
4a
ab
a0
bb
10
6b
22
10
b4
d5
b0
b4
17
4d
49
60
ad
ae
79
3c
7b
eb
88
ed
84
38
fa
33
91
eb
9d
72
27
35
89
e2
1d
48
ee
a3
fc
b4
81
22
0a
6f
10
d1
94
b9
09
01
2d
e3
96
7a
62
92
ed
5f
e0
74
b1
6a
40
ed
ac
ea
ac
45
ac
42
71
87
3b
e8
d5
d1
dc
7c
15
e7
c0
f8
6d
78
5a
d8
55
33
36
3e
93
6e
a9
e5
e7
9a
38
13
8c
88
7e
75
96
6f
3c
b5
48
d6
73
e9
e2
e3
b9
1f
3c
bd
14
0c
2c
49
c9
73
16
ae
78
ca
c8
2e
b0
21
7a
70
78
0f
b4
94
77
59
ef
c9
f0
73
95
0b
73
5e
a9
a7
94
49
ab
08
83
af
47
cb
4a
5b
93
26
73
65
c7
dc
62
91
5d
f0
41
ed
33
4a
5e
f7
ee
13
4a
66
bb
ac
d3
9e
7d
f1
a4
4c
0d
f0
42
c5
5e
50
8e
4f
56
8a
27
fa
7e
71
53
3c
c0
04
79
43
d0
e1
3e
26
ef
1d
c4
62
ac
b0
69
96
b7
db
92
f4
2d
22
dc
37
2f
a4
27
0e
29
4d
be
db
50
f3
04
51
76
a0
a8
da
e4
4d
a7
b8
7f
08
ee
96
e4
23
fe
f2
b5
1b
fb
bc
97
a2
5d
8e
8c
db
20
c7
9c
95
d5
ee
c7
77
8f
a9
14
40
ae
96
36
06
35
de
77
57
dd
66
3c
91
90
dc
55
49
0a
7c
1c
bc
0d
aa
55
a8
46
19
6b
d6
b4
79
85
39
ad
10
9c
5a
17
60
0b
6b
54
9c
73
8a
f0
39
73
2e
e4
7a
00
9c
22
0d
e1
ce
c4
64
13
0b
9c
f7
f1
54
d7
13
70
13
1e
87
3b
fb
0c
7f
42
37
ac
ba
1d
29
26
24
31
b6
04
99
2e
f4
4f
ff
84
f5
78
40
1c
09
13
f7
91
07
9e
5a
df
af
33
05
4c
7a
b3
a6
d7
b8
af
8a
4f
a1
66
0a
dc
ab
6e
43
ad
a3
8d
65
de
28
21
ec
bc
2c
0c
91
2a
13
e0
83
5c
c2
11
15
5b
55
ff
36
ab
c9
44
2f
cf
18
2d
ad
2b
4e
63
d2
16
b3
8d
1d
cb
ea
93
65
0a
61
2a
d8
c8
11
9b
f7
0c
6a
46
e5
56
fa
61
e5
01
88
29
09
79
e9
c2
51
6d
17
75
38
23
9b
ff
63
c4
dd
54
00
1f
9d
a4
2a
a0
17
b0
6a
d4
e9
da
9c
e3
3d
dc
30
73
07
e5
8a
8a
45
c6
eb
96
d2
73
d5
1f
bc
cd
ff
a6
8e
90
47
12
63
b6
dc
d2
24
f4
29
18
4a
3d
32
cd
d5
1b
1c
01
61
05
c7
20
08
9a
7e
db
e8
f5
67
90
22
72
cb
79
eb
fd
e0
74
8c
55
b2
b5
56
b0
34
66
19
20
fb
04
99
78
20
50
c7
d6
70
1c
c9
d6
fa
9b
1a
ec
20
c4
8f
01
08
a4
42
13
45
88
3c
a0
89
98
dc
25
db
70
be
8c
40
e2
c4
69
b6
c0
41
f0
f6
96
e2
75
bb
1f
e4
5f
e3
94
b4
cd
eb
89
44
e0
c1
3e
f8
18
78
d9
f8
dd
83
76
11
ce
cb
12
dc
09
b5
bd
0e
88
65
f3
2f
f0
3a
d5
19
91
a0
9f
56
76
1e
b8
83
05
47
d1
85
4d
c3
36
b4
a6
18
66
b9
ea
05
9e
96
e4
e5
df
3e
c4
10
3a
f3
08
74
b9
d0
54
5c
a9
ba
73
1f
ba
a5
2e
27
dc
b9
a7
8e
63
c1
91
ca
5d
9c
b4
33
64
75
fd
a1
93
8f
a2
49
75
90
2b
55
2e
34
e5
ca
f5
ba
38
b4
2f
49
d9
05
db
a7
96
b4
f3
b0
3f
82
44
2e
6d
a5
fc
a1
5d
94
45
d9
26
a9
5f
d0
0c
ac
62
9b
27
9f
40
bc
39
33
d9
51
8b
ef
f8
d4
63
00
3c
ec
c8
c2
b7
1d
aa
61
43
32
45
82
f4
22
f4
0e
6d
e6
59
3d
3a
51
37
85
f0
b3
8b
41
62
08
1b
1f
70
48
5f
ad
7e
1c
01
36
a5
01
ee
f2
44
9d
24
0a
8a
01
b8
f7
0a
7e
d3
cf
b5
c5
01
ff
7d
61
77
34
74
32
73
2d
cf
e1
42
bf
a9
1f
62
9a
df
24
b5
6b
3a
ac
ec
ac
49
e2
42
06
b3
d5
af
53
32
40
dd
4b
44
16
cb
86
99
fa
a3
fe
a8
83
e4
fe
e8
c9
f7
0a
22
e3
4c
ca
4c
1e
8f
3d
26
d8
fe
f3
f1
8a
d0
bd
bc
e7
8f
ce
47
ff
42
92
65
a5
9e
e4
e2
4e
78
2f
bd
c8
db
ad
5e
5f
59
77
e4
6a
6f
53
f7
a8
cd
5f
8c
ca
f5
33
d4
06
85
9a
e2
4b
57
7a
34
94
30
c7
0e
c8
85
6d
78
fb
d4
e1
7b
fd
03
e3
4d
5e
f3
26
23
d2
99
64
20
f6
71
7e
c7
8a
36
5c
17
bf
b2
43
c7
97
04
d8
7e
e0
14
e3
24
76
c0
cc
7c
60
5d
9b
ad
79
bb
15
2d
e8
e8
bf
4f
8b
b9
d0
fb
84
39
6a
fe
33
bb
10
6e
cf
ce
d1
38
df
92
03
bc
8c
e5
37
fe
4c
64
a0
ea
3a
62
24
94
b5
4c
60
ea
ed
82
53
bd
70
9b
c7
94
af
29
4d
8a
29
dd
d1
e1
f2
ca
20
b6
c9
dd
24
8c
f6
fd
20
c4
54
a1
84
3d
e0
8a
54
dc
24
18
73
16
e0
34
d8
a0
e2
64
ab
f4
5f
88
2c
05
7d
32
47
33
f9
26
11
99
8f
df
25
d6
43
9f
85
9f
14
0a
86
2b
56
f8
e6
a4
51
15
e8
96
bc
9c
38
ad
59
a0
66
6c
74
7b
58
85
76
d6
63
5a
f0
af
f5
94
86
90
67
e3
fb
63
e6
e6
19
85
bd
91
46
ae
c8
79
18
aa
25
a9
22
47
50
74
a2
9c
d4
33
f2
e6
f5
ca
96
22
88
e6
24
65
90
f8
e7
60
e3
bc
83
0f
df
bf
b1
dc
62
3e
a4
32
04
b3
6b
01
b3
4c
1e
31
17
f4
16
75
90
d4
91
15
67
00
18
fb
89
4e
3c
7d
c9
03
28
29
e4
9f
e8
56
de
e1
67
21
51
c9
ff
b7
09
58
a8
96
67
78
00
9f
6f
77
17
dc
63
2e
4f
45
23
48
c4
ed
da
19
56
f3
dc
dd
1d
a3
43
bb
00
e2
03
f0
72
0e
b0
06
2f
7b
11
5d
85
04
60
32
6d
a7
96
66
46
b7
2c
f9
f4
d6
6d
6f
d4
00
6b
39
6c
43
50
5d
2d
2b
6b
b8
e5
fd
ad
31
66
35
08
54
ae
69
43
8a
09
2e
8b
41
2b
a0
60
6c
a0
19
25
df
a1
47
54
1a
48
26
30
b9
87
9f
10
15
e7
5f
1b
4b
f8
6d
31
59
cf
3e
c0
88
73
a1
39
50
77
cb
3b
6e
4e
50
17
bd
44
3e
78
87
40
0b
34
03
2c
b2
37
51
47
d2
d5
3f
ae
27
ee
fe
d8
c3
f1
52
08
40
af
08
3a
01
be
bb
fa
73
c9
0e
bb
f2
26
ea
3e
37
b3
ba
88
a8
29
27
6e
3f
04
4d
22
44
8c
67
b5
92
29
ff
52
40
9e
96
16
7f
4d
0a
aa
0f
17
fe
c3
5a
b9
91
83
78
23
d8
25
f5
a1
9a
d5
87
21
3c
61
21
1b
34
93
29
18
61
ea
ae
93
44
e1
d2
21
60
b6
59
11
a8
54
0f
06
96
d3
d3
e4
8f
07
35
00
10
06
65
f4
a0
a0
d8
9a
3f
93
ed
b5
d5
9a
36
4e
07
40
af
88
12
16
c6
15
c6
5c
dc
7a
47
47
23
7c
e2
1e
19
58
49
9a
40
ac
fe
b9
4c
33
71
c1
d3
ac
40
16
06
69
4b
b2
ac
72
f0
7b
1f
c0
65
7a
2a
55
15
58
d6
8d
5a
22
62
b1
c2
f4
ad
da
2f
c1
e6
b7
24
d9
f1
8f
53
bd
48
0a
e8
55
12
67
00
86
93
78
9b
f3
24
fd
35
48
f3
c0
a8
f9
b9
83
ba
c2
2e
bb
ce
1b
30
1c
79
f0
cf
8f
d2
a6
b8
8d
5b
e0
eb
7c
bc
7a
20
8d
c1
63
10
db
0e
b4
bd
02
2e
ba
29
10
70
4b
48
43
d1
67
bb
aa
ec
46
27
49
8d
40
8d
9d
70
aa
47
18
d3
69
cc
90
01
e7
a0
e8
50
e2
75
f5
94
c9
d6
4c
fb
f9
e2
c9
58
a8
07
65
ec
9f
4b
e2
66
c5
11
0d
7a
72
bd
f5
c1
3b
e9
74
c8
cb
08
a8
96
69
94
77
4d
6a
55
cc
3f
b4
db
b5
8e
ba
fd
1c
64
18
32
3e
a3
c3
e9
c9
73
14
40
75
ea
e7
2d
63
6a
cb
b9
fd
7f
58
d2
b4
60
92
06
6b
07
b9
a0
9e
36
92
a4
49
a2
ad
73
e6
ea
be
09
79
de
54
9f
ff
12
ae
b3
cc
18
96
48
1d
3e
0b
62
f5
a5
85
5f
bd
b3
63
ad
b0
a9
85
e3
d3
04
a7
95
c4
b7
fc
f2
85
4d
03
eb
8d
8f
30
1a
42
78
e1
84
5b
df
7e
7a
fd
d5
de
de
fd
a3
57
69
a2
a6
e4
b8
1b
d4
11
83
b0
f4
16
a4
61
42
0a
c1
b1
28
98
b3
c9
72
98
79
1c
60
b9
af
27
26
2d
ee
8a
8e
e5
42
78
41
f4
b7
ff
c5
33
31
af
fd
da
93
f2
07
f2
8a
5f
f2
f2
9f
cc
14
9e
ca
5f
84
df
25
0a
53
bd
3e
37
22
6b
eb
da
d2
84
db
d4
53
2f
15
7c
13
26
f5
ad
4d
2b
c4
88
75
cd
c2
f7
b9
6c
ab
70
02
5c
b9
62
20
e8
ce
87
00
ec
6d
84
b9
63
fc
6b
d6
64
0d
64
36
70
f9
ba
94
9b
32
5b
a2
85
6a
dd
f0
67
d4
15
83
f0
b3
6e
ab
01
f7
d1
ed
37
ff
ea
aa
db
05
e7
fc
09
13
b2
a4
bb
ce
62
1d
5b
04
71
a2
1c
75
7f
2e
28
df
f4
51
c3
36
74
64
2e
c8
d7
0d
1a
9c
6c
33
a3
06
0e
21
5e
b7
59
34
43
fb
a6
c6
09
a6
48
72
be
1a
fa
d3
91
f1
46
13
d6
87
ee
31
ca
ae
df
97
61
39
d7
1c
f6
c8
42
44
9a
ed
2b
8e
32
63
96
43
e1
e3
ad
d8
e1
e3
fb
43
f5
dd
53
a0
1b
a4
73
47
4f
59
2f
14
bd
e0
15
bf
3b
77
1f
c3
c9
17
39
4e
d1
24
03
2a
b7
93
a6
06
5a
d2
0f
ab
b6
67
e4
d7
48
ee
06
b9
c9
43
2d
65
2e
ef
08
39
32
da
c8
46
70
3a
88
cf
60
7d
f0
73
15
30
f3
02
3f
ba
87
fc
73
da
ea
ce
c3
82
8e
2a
47
ce
d1
32
57
cd
88
45
2e
f9
31
ce
af
cb
27
d4
5e
74
f8
ae
0b
62
99
15
5e
2b
9a
3c
c8
10
5d
de
78
ec
05
67
8f
fb
ba
69
e0
f2
c6
4d
8e
91
59
35
0a
47
a2
22
6d
f0
68
5a
24
0e
68
dd
36
50
01
bd
be
d7
83
a9
7d
1f
53
fd
da
bf
0d
30
08
d7
bc
95
82
0a
0c
76
c6
b3
4a
fe
a8
a5
c0
13
73
52
aa
78
9e
4b
a0
a2
19
51
15
ce
dd
1f
39
c6
7b
8f
76
1d
de
46
97
89
b3
3d
d9
d2
eb
f7
41
43
38
71
13
9b
99
f9
c4
aa
30
f1
ad
f1
c3
a0
e3
ca
ff
bc
0b
03
34
bc
a2
37
28
f5
5d
cb
09
b4
25
be
9d
9f
a7
62
06
d0
90
40
0a
40
ce
e4
e0
75
6c
d0
c3
b0
b9
86
50
7e
c4
77
da
84
20
33
26
84
ef
f6
75
90
5a
6e
99
19
05
54
22
c1
4b
b9
61
1b
e1
ef
c0
a4
0b
b7
83
11
e5
05
29
00
3c
c8
43
d3
65
89
ea
ca
fa
4d
ff
56
b2
16
d7
44
de
24
61
8b
0c
b7
75
14
a8
ca
c2
f9
6b
63
11
79
72
48
8a
5d
a4
c4
03
60
19
f5
5b
12
b7
a5
5b
99
99
c6
ba
8a
ac
76
d4
e4
0c
42
2a
37
b9
87
f3
be
52
f5
f3
ab
1b
4d
12
b9
07
7c
48
36
aa
e9
34
96
ff
24
13
2e
e9
f9
c2
78
d4
09
1b
f9
db
f3
d9
c4
5a
af
4e
f2
53
b9
71
18
a2
40
21
0f
93
89
02
18
aa
f2
e9
6e
01
02
76
40
d9
03
d8
58
1a
61
26
0e
c5
a9
15
36
60
7c
e3
89
ca
7b
1e
99
88
ee
08
39
da
f2
94
f0
15
b1
87
29
d0
27
7e
cc
ca
1b
20
c6
43
d0
e2
bd
20
4e
8c
c6
3f
a3
55
76
16
b1
a6
0a
a4
39
c6
63
4a
f4
f7
a8
d4
da
92
e5
15
36
df
43
9d
4f
fa
2c
85
16
4e
3e
77
64
77
d9
29
97
68
de
24
61
3f
59
9c
f0
58
5a
82
7d
cb
16
ed
0e
4d
e6
72
14
14
87
f6
41
c9
41
8e
a2
3e
50
14
94
6d
9b
7c
d4
21
b1
a1
04
2f
8e
46
65
0c
42
e1
6f
77
76
ff
86
c5
21
37
95
b2
ea
ab
cc
3c
f8
44
fb
a5
ae
26
1c
37
47
67
f6
25
72
a6
b9
e4
70
fe
bf
12
48
30
ab
fc
9e
4c
76
f8
5d
71
bc
36
a5
10
c2
a3
96
df
aa
cb
93
6c
b7
12
88
77
09
ef
26
aa
50
da
67
7a
1b
44
5d
4e
0d
c7
b5
ad
25
57
bd
3d
fb
ad
99
1d
95
9f
b0
e8
25
0f
e8
42
59
49
0c
68
c2
ae
5c
f2
57
cb
8e
27
3d
1d
10
8c
21
20
7c
74
f7
2a
0c
6b
f0
18
da
74
e2
7b
ef
ed
15
90
18
44
a1
f2
26
f5
fe
0c
ae
ed
2d
90
c0
1c
95
a3
34
e1
3c
78
df
d5
2b
9a
e4
07
f7
ff
32
74
b0
09
c9
2b
c3
07
3d
f2
26
08
89
6d
0c
6a
f8
e6
ef
ee
e2
e0
ab
a0
5c
16
26
c1
bf
82
76
0a
84
1b
d7
c8
92
ef
ac
2a
56
ea
44
83
41
2f
51
85
f9
31
06
f0
71
84
e9
3b
e5
a7
e7
19
8b
20
1f
dc
6d
ae
51
d3
82
c5
48
c2
59
0f
49
7c
67
be
89
90
43
20
a3
d8
70
5e
e2
8a
d6
de
01
27
bc
1d
25
24
9e
28
73
4f
df
f8
70
92
e6
57
88
44
fc
66
fb
e0
ca
32
26
84
34
32
d4
33
e6
61
fb
7d
d0
35
fc
3a
c1
52
d1
9d
78
89
64
6b
21
b7
90
46
30
99
22
b5
90
e5
4a
26
b4
40
aa
8b
8d
db
c5
22
b0
34
f1
d6
31
a2
00
3d
c0
11
1a
40
ac
f3
2d
fa
e4
ff
5d
e6
ce
d2
f9
db
d7
2b
ac
33
f8
4c
3a
c2
46
52
a6
a9
4c
31
83
9a
75
09
63
92
25
84
b6
6a
f5
3d
ce
13
71
5e
bc
b5
34
83
e6
b2
f4
55
a0
cf
3d
a4
b9
77
d1
e2
91
35
7c
c8
e4
cc
03
1e
d0
82
65
f0
57
cc
30
03
52
d3
1a
7b
07
f1
58
dc
cc
f9
31
8c
2d
4e
3f
0e
e4
f6
2c
4b
ad
36
1a
eb
bb
93
8a
59
43
9f
1f
7c
82
c8
4c
72
87
2b
00
9b
55
49
8a
63
26
10
4c
53
02
ba
42
54
1a
97
a9
89
7a
67
d3
fd
97
98
07
2b
42
c1
b9
0c
c1
30
7d
71
ce
d1
75
1f
37
2c
ad
ca
9f
34
db
d6
25
f6
50
3d
38
ca
22
db
20
0f
f1
45
e0
b8
e8
83
2c
3d
30
7c
0f
0a
3f
6f
56
cc
17
75
cb
86
66
37
6f
5c
e3
4d
f1
dc
23
d2
46
6c
88
1a
cd
7e
64
4c
fd
5d
ec
12
97
5e
d4
fc
39
34
5d
5c
c7
67
fd
18
47
08
52
24
5e
cd
9e
16
90
e6
a5
e8
70
26
db
b3
38
8f
fb
59
d3
50
de
0b
12
16
89
2a
23
84
af
31
a8
e0
ee
03
de
5f
13
67
e7
85
3c
31
9d
89
35
ec
cf
e8
44
9c
aa
10
ed
ab
68
0f
f0
1f
70
23
fb
57
f8
b2
c9
15
54
17
17
54
f4
37
b5
38
2c
4b
38
82
a8
8c
92
5a
a2
71
eb
7f
0e
73
f7
7e
60
64
73
51
e6
44
cf
4c
2b
72
32
e6
d9
07
04
ae
a8
86
00
d4
45
e0
fb
49
c4
27
69
4f
42
31
57
df
b8
18
3e
4c
92
2f
75
59
eb
54
a7
43
71
e4
10
da
5c
ae
11
3d
78
33
f1
86
96
c1
5f
89
45
73
7c
1f
6a
5a
c2
8c
e5
9d
95
c5
b3
cf
13
fb
52
09
89
16
20
18
2c
a0
09
f0
12
8a
10
22
ae
c1
64
be
f6
69
df
03
cf
cd
bb
e8
10
df
1b
9e
d1
f9
44
27
53
bb
3d
48
ed
79
97
b0
5d
6a
a6
f1
77
6c
a4
bf
c7
7b
bc
4a
8b
18
e1
cd
71
63
52
f1
5f
72
ac
57
16
3c
62
a8
f6
2a
b9
4e
c4
78
fa
4a
47
a7
7f
c6
f7
e0
d7
bf
56
c4
df
53
44
aa
52
81
e2
3f
29
8b
d8
9b
18
ec
d8
ef
96
c9
0c
06
f0
a1
56
78
69
d7
59
d3
ab
db
c9
b2
0e
1e
3d
e2
3e
38
a0
78
8f
b7
c6
24
4f
88
71
d9
29
9b
b4
26
e5
8c
fa
e8
ed
2c
de
47
f7
48
59
7a
98
18
12
61
ff
ed
87
53
f3
6f
a8
43
1f
69
3b
90
97
28
14
72
9b
8f
a7
ed
17
b9
fb
56
ad
cb
13
69
1b
1f
99
fe
43
c9
ed
d7
3f
8a
6a
43
05
3e
79
e3
62
93
14
1d
ca
ea
07
37
9b
a3
d6
eb
be
78
3a
66
b8
ce
a0
08
02
c3
83
5f
65
8e
6c
c2
88
32
f1
6e
a6
f8
49
d4
f9
c9
fd
7f
af
ca
13
70
f1
26
44
62
41
f2
73
20
de
7e
36
4a
69
7c
16
86
8d
ab
e9
30
f3
69
05
cc
70
58
71
09
cc
f6
5d
c8
e7
7e
fa
cc
3f
62
c4
54
6d
40
2e
46
75
cb
db
d7
75
52
04
72
a4
68
86
8e
1c
fb
86
da
50
4a
56
b9
17
9a
2b
fe
94
38
7e
33
fa
5c
48
fa
bf
91
04
95
c3
64
93
3f
3d
f2
18
3c
63
83
a1
7d
9d
2b
aa
2d
fb
86
c8
67
51
02
37
40
90
1c
e7
84
0d
d9
c9
08
27
10
63
fa
4b
3b
2e
60
c6
7a
aa
64
db
c1
03
90
e3
b0
4d
11
37
9c
42
d2
e7
d1
e7
9d
d7
61
b2
08
a5
33
75
96
35
c0
66
03
d0
67
1c
77
b9
02
b9
a2
06
62
f4
c9
fe
66
03
fa
e9
8f
f4
dc
d9
98
df
33
18
bd
0b
4d
21
7e
aa
48
3f
7e
22
38
ea
76
8e
b7
29
52
d0
9d
ff
0d
ae
25
0e
3d
25
f2
c2
6c
4c
e0
f6
5b
f3
19
8d
b5
7b
cd
bd
d9
e9
b2
76
7b
e8
a2
de
2f
dc
44
e7
62
a4
ed
7c
89
f2
b0
2c
cf
2d
0f
63
ac
7f
fe
4c
b6
99
d9
e2
9d
9a
8c
e5
28
da
09
5e
f0
4c
5a
25
1a
34
6b
bc
92
10
5f
69
a4
42
0e
5b
b4
a2
60
1a
43
56
cf
71
ce
f5
24
ac
93
bd
37
4b
6e
36
39
e9
cd
d8
0f
3a
be
b4
09
4c
f5
18
16
b3
8d
31
b4
e6
c4
29
2f
0b
cb
cb
97
b4
fa
e8
53
a8
f5
76
91
7d
2e
cd
ad
d1
88
f3
31
25
2d
19
38
5d
9c
81
e6
82
a3
ea
c8
8a
2a
0c
6f
db
16
50
24
d8
8f
4c
83
af
69
de
d9
7b
fd
ad
10
18
76
3f
1f
4b
68
cf
95
89
c9
54
d7
11
f9
24
f2
00
69
e3
b1
b0
ed
7f
c8
00
57
b1
2f
2d
de
70
84
11
07
fb
49
7c
0d
fe
16
5c
f2
8a
e6
91
ad
89
87
71
88
e1
25
fe
8c
06
55
72
bc
92
87
12
1f
e6
9b
b8
ef
e6
b9
26
60
c4
63
84
ff
dc
bb
9d
68
22
75
24
0f
14
5a
2d
45
93
d0
47
ec
71
2e
05
4e
fc
2d
23
bc
ed
e2
49
27
84
66
8a
24
b8
67
a5
b8
78
ce
b1
fc
1e
19
5c
3f
02
db
01
4c
95
22
ae
a6
8c
66
28
a6
75
77
79
8d
a1
5f
7a
44
a5
d5
51
db
e9
73
c6
30
0c
4f
9b
dc
0a
04
1c
d8
63
0b
3a
ba
e5
32
55
e5
25
cb
50
d5
7d
e3
6e
fc
72
36
ad
0e
79
05
5e
e9
f3
07
74
ee
88
34
50
e2
2e
0b
34
34
31
68
ef
04
0d
dc
64
2a
7a
94
93
cd
c8
42
59
7b
66
6e
98
4c
93
6b
e0
bf
52
37
69
01
7c
1d
d7
f3
60
d9
b0
8f
a3
b9
e3
50
94
bb
00
bc
b5
d3
0b
49
ba
5b
98
97
f8
f9
e2
01
43
07
d8
bd
fc
fd
67
85
0b
a7
37
4c
a2
5b
db
f8
c5
ac
39
d5
8a
a5
a0
e9
b3
4f
cf
b0
0a
90
61
90
db
fa
82
87
53
3e
82
25
86
44
8a
ac
22
2e
6f
fa
0c
8d
9c
aa
30
68
73
00
85
8b
c2
61
c5
39
3d
d9
1b
8f
c5
5b
51
ca
1b
af
12
0e
0c
a7
62
a2
b2
cf
c0
65
d5
b1
21
d1
c5
6b
da
1a
8b
ca
f5
0f
58
f9
cf
16
77
cd
1f
dc
54
e4
7c
e6
cc
ef
6f
c0
5f
f2
de
6f
74
67
e1
3b
02
85
bf
c8
5c
0b
f6
35
2c
9b
b6
a6
8e
18
7a
11
92
d4
e1
0b
c4
7d
6e
b8
e9
28
99
c5
63
b8
31
ac
df
3c
4d
8f
aa
92
03
2e
1c
de
3f
82
cf
e8
22
fe
2a
3e
b6
8e
6a
ad
0b
8b
f7
82
64
86
99
11
43
97
2f
ef
71
2c
0e
12
4e
a0
27
d9
3b
31
f4
ee
5a
9a
ae
39
2e
cc
8b
03
dc
70
f5
f0
af
e3
1e
07
37
64
72
57
28
52
8e
d9
bf
54
25
0f
ee
18
c1
64
2a
ab
4e
d7
d5
c8
cd
74
3e
59
79
63
15
57
2d
ff
76
a7
2c
b9
34
7f
62
32
50
46
79
72
f9
21
88
b8
ef
4c
a9
1f
cc
da
82
53
3d
31
cf
46
31
22
a1
d2
5e
00
7e
4e
6e
02
9e
0b
19
cf
b5
71
09
f4
7a
b0
33
2f
f1
c7
7a
17
33
75
f2
25
ca
b7
49
30
46
22
4d
c2
06
de
6d
82
fd
cb
64
e2
1a
64
cf
8d
5f
44
8a
f4
a2
23
04
c6
34
79
a7
90
81
7a
1a
2d
0e
26
d8
4c
64
5e
49
ba
4d
d2
01
05
8b
85
2f
15
5d
1f
42
65
df
81
b5
35
ae
44
ea
24
2e
0d
34
30
5f
f0
1c
aa
7d
6a
a7
d4
3d
32
fa
2d
6e
21
1f
10
c4
7f
5c
72
39
32
f4
2e
8f
79
74
b5
ca
bc
52
66
0c
e2
84
6e
53
03
d5
27
b3
57
05
49
cc
e3
10
72
36
56
0d
65
1a
91
59
ee
fc
f9
a6
52
a1
17
58
0d
55
af
ca
5e
7d
2d
1a
3a
24
f8
e0
11
da
18
5a
9b
04
0a
0b
59
bf
9a
4b
75
9e
b5
15
f5
95
12
6f
83
2c
fb
2e
1d
8a
b8
eb
d2
47
ce
7a
de
69
19
91
11
c1
94
dd
4a
88
70
67
79
64
6f
2b
20
84
6e
bf
33
91
11
3a
f0
e9
e4
56
56
73
39
1b
3c
c8
b8
68
c3
e3
b3
69
1f
e4
1b
38
0f
a1
94
43
e2
7d
3f
e6
c0
25
9e
ff
5a
00
98
77
85
ff
42
02
38
01
d6
0a
63
cb
a3
99
86
72
5e
94
76
9e
04
cc
a8
1b
74
c1
f7
1d
78
64
4d
23
e4
0f
15
28
f3
86
23
18
d5
8e
e0
24
6f
48
e3
f4
ba
45
c5
5e
d7
fc
0c
71
cb
6c
d0
7b
ff
02
4a
ce
b3
6e
c4
85
75
5c
f9
3b
19
d6
54
0d
fe
e6
d4
9e
f7
fb
69
fd
dd
ec
fd
fb
92
5d
e3
fa
23
78
39
7c
5a
9d
19
ec
a4
e4
65
1d
10
f8
63
2c
96
a9
26
ef
ef
e6
45
1c
9a
2c
e9
84
2c
3c
72
60
69
55
30
18
bd
4f
a5
94
bb
41
4c
e6
9f
48
1d
c9
96
62
99
19
56
a4
d8
25
fc
71
55
38
2c
38
d6
b9
c0
38
b6
0f
a8
c6
6a
1c
cd
9f
fb
c3
6e
24
49
49
a0
6a
71
f1
f0
27
f0
3a
9d
d9
65
39
7b
f1
f1
bb
66
d8
b9
87
d2
d5
86
d7
8b
cf
a1
26
10
f8
fc
da
0b
a0
40
3f
d4
30
dd
e6
7c
18
7e
38
2f
25
bc
20
c8
ce
62
cd
72
c7
4d
a6
88
db
56
17
a5
18
35
70
e5
a7
8a
10
03
02
57
e4
56
86
4c
24
77
31
cd
1d
8d
eb
df
c6
d0
c9
03
27
44
46
2d
2b
22
d7
a3
6a
83
9d
b5
60
52
11
8c
92
c7
2a
5a
d1
35
59
35
a1
b4
84
64
90
6b
b2
97
99
e9
2c
8b
2b
75
de
a7
c5
10
1a
6e
ab
02
93
e8
ce
4a
ee
b9
f6
07
74
3d
7c
2b
f7
61
ad
16
79
40
44
03
36
66
d5
72
55
58
d3
83
7a
d3
01
36
ef
94
b0
a9
0a
33
39
ad
0c
1d
4e
a8
0e
da
06
59
bd
40
a6
cd
95
9b
2f
b0
c9
96
8a
92
5f
07
36
57
d6
09
c6
8d
70
91
4f
fe
dd
e2
c6
a7
63
66
4d
af
7e
90
09
c1
14
3a
96
77
43
71
54
2b
b1
00
74
28
90
51
c0
a6
05
50
a6
70
52
f5
5d
18
f6
45
28
9f
b3
50
e3
aa
58
cb
3c
3e
20
3e
01
84
f9
b8
2a
f7
39
10
2e
65
fc
6d
8c
46
dc
c7
f7
6b
11
e1
ca
b3
e4
89
32
0b
fa
c6
03
48
f2
f0
b5
17
4a
ed
27
d2
4a
86
22
8a
93
8b
7c
75
5b
21
0c
ea
06
99
8c
f4
da
a3
3d
2c
b2
de
38
28
e0
75
b2
39
46
67
92
b5
6d
21
ae
93
f5
b9
5c
0a
bc
df
da
23
52
92
e2
26
ef
5b
bc
b9
0c
1e
b8
17
6d
00
22
a8
4e
36
07
cd
96
2a
e1
15
0d
42
f2
c4
47
85
11
84
8f
d2
23
db
13
a0
29
c1
2d
0c
4b
2a
32
3a
40
35
10
69
22
b3
43
d6
06
89
4e
96
fd
9c
60
71
35
93
42
8f
dc
4c
de
c6
e2
d9
b4
81
6b
11
b2
c0
a8
31
cf
1e
31
74
c8
ec
fb
7d
e8
31
fb
59
59
1e
24
34
4e
63
29
f4
55
42
51
0e
a4
92
8a
31
b7
23
e3
df
17
07
bb
29
28
d4
6d
71
95
0e
ab
b4
f3
ce
ac
48
03
78
40
c6
53
e2
ac
95
c6
e8
74
f1
c9
f0
74
c6
a7
b7
bc
03
9a
77
c0
b4
b1
49
2f
66
5a
b9
9f
7c
72
6b
dd
a4
0d
69
70
e0
ef
7d
33
b9
fa
78
32
5d
dd
c3
c4
4f
5b
be
aa
70
dd
c9
af
52
d0
fd
ba
dc
18
ff
79
8b
40
0a
44
42
4c
4c
82
02
c8
35
ab
22
01
aa
f5
28
34
8c
07
36
f7
05
f0
70
73
02
29
db
85
d4
10
92
9e
3a
92
5a
3c
f2
51
72
be
c9
74
ef
58
ff
be
11
81
62
fe
67
e5
ef
60
7b
2c
8c
37
c1
20
a3
cd
4f
a2
73
b5
3b
14
0c
42
34
db
d0
ae
da
4a
df
01
01
8f
73
f8
bb
c6
a5
e4
87
c1
6e
f4
21
8f
0c
38
fe
43
63
63
5d
ca
17
02
9f
99
2a
b1
75
bf
2d
f9
4b
a9
25
b5
ec
b5
d3
cc
b4
6d
17
ce
b2
ad
dc
51
8c
db
f5
4e
98
c9
f1
a6
8e
39
c1
d7
cf
be
c0
75
72
a1
78
bf
75
c4
82
6b
92
1b
8d
4c
17
00
f7
6b
02
d7
e5
08
49
e9
3b
8c
43
af
20
74
d9
b2
dc
07
7d
a3
66
36
7d
66
d6
f0
1e
0d
e1
07
44
b3
77
b5
52
2c
88
42
87
68
f5
e6
31
51
dd
aa
9c
ca
1f
20
6e
a0
84
30
8c
e4
ea
e0
07
7e
c4
c7
47
1e
74
11
12
6e
8f
1b
d7
45
43
8f
79
be
e3
12
a6
48
30
14
51
01
25
5b
99
50
4b
55
c0
64
da
1a
a6
0a
f7
8e
7a
7d
2c
f2
fd
06
e2
a0
13
bb
62
3a
c1
34
49
61
2b
9b
fb
0c
5d
53
5c
d9
9d
92
83
6b
12
a8
bb
c8
98
b6
b3
93
90
bf
09
82
cb
ac
e3
58
6c
5b
c7
7d
43
0c
d4
2c
54
52
22
41
6d
e8
ca
dc
8a
dd
07
dc
a1
30
22
a4
c9
1f
97
77
cc
af
ca
d4
e4
91
15
f8
d8
5f
39
be
99
f3
d7
90
a0
ae
44
a3
18
be
65
d7
94
dd
2f
75
e7
25
12
d6
7c
94
3b
64
72
a6
1c
eb
cf
bb
8f
3a
17
3f
91
00
53
4c
e5
c8
31
b7
46
46
37
e9
aa
cf
5d
03
b0
0e
b4
04
16
8f
99
27
2c
ad
5e
66
67
90
40
bb
41
c0
c5
2b
4b
e2
61
5f
21
f7
d4
42
e4
fa
cc
8f
c2
89
c5
0c
46
0b
5a
6b
77
0f
27
35
f3
2e
25
93
9c
d5
17
e5
2a
d2
bc
7a
50
ee
5f
b9
7e
93
b9
15
21
ac
fa
12
66
56
c5
f6
a8
55
e0
26
94
09
09
c0
35
ab
c8
cb
d5
c5
de
b5
99
75
4a
1a
62
09
89
90
87
ef
57
73
34
fa
42
c2
ec
71
98
4e
46
ce
dc
ab
89
07
63
f0
0e
dc
fa
dd
94
32
e3
dc
30
45
85
9c
47
eb
57
8c
a7
2f
ea
bb
f6
63
4d
15
6c
89
a2
60
a5
78
0c
64
6f
17
36
f7
c0
18
8a
41
59
c6
7a
28
ea
39
2b
74
54
77
e8
e8
6b
6e
cb
22
a3
b5
94
e6
60
f5
38
38
1b
b3
61
9e
e3
9d
65
f5
e8
cf
b7
bb
38
b9
0c
8f
77
6a
e4
3f
0e
95
3a
d6
40
06
ca
02
76
7b
4a
a4
42
9b
9c
08
0d
fd
1b
0c
ca
de
3a
72
f9
b1
51
4b
0a
66
21
d5
dc
c5
58
e9
e5
ee
18
ef
53
c1
ea
12
54
05
f1
da
1c
14
d3
12
25
ac
70
13
f4
78
f7
5d
a5
79
07
af
2e
06
21
5a
60
d5
c8
70
3d
71
35
28
8a
9d
26
57
c3
d8
46
c1
2c
99
cc
b2
98
43
ef
d6
fc
27
d8
39
f0
5c
92
d9
f9
9d
a5
2a
35
8d
af
fb
b2
e3
cf
b2
2b
3b
75
4d
1e
c1
be
d5
bb
d8
4d
61
e1
33
de
dd
40
3d
86
0b
16
e3
dc
ce
31
6c
9c
3d
f8
3b
82
6a
9a
4a
fd
d7
65
0a
90
84
fc
dd
ca
11
8d
ca
71
5b
da
12
79
5f
de
4a
b7
d2
73
8f
ed
53
9f
a5
05
82
c4
0c
f1
ba
08
b4
de
2e
2d
21
88
a2
8c
dc
cc
db
bc
42
cd
1f
99
2e
c3
06
b6
cd
40
cd
f2
84
05
27
d8
9a
1e
20
1c
44
48
2f
b6
3f
63
11
9c
c6
45
26
21
23
d1
b6
03
d6
49
38
19
87
15
97
fe
52
a6
9f
4e
7c
cb
71
17
36
7e
6a
d7
78
1c
ea
b9
e6
ef
3c
e2
bf
e6
93
e3
c6
37
6f
85
94
4e
70
6d
60
c9
05
3c
b0
57
6a
03
cd
34
bb
d2
95
53
05
ca
25
92
f0
9b
71
0f
28
bb
08
bd
e4
48
ae
2d
d1
0a
fb
2b
ff
36
26
6e
6c
70
ef
d8
e4
c2
b8
4f
f1
e8
78
07
54
5c
5b
c8
1d
28
de
a7
61
50
ae
d7
d3
37
b2
b5
49
e3
49
24
9a
e6
90
be
23
ff
b1
c0
d2
68
3a
5c
68
77
2d
34
58
21
cc
29
f4
cc
ef
14
64
12
b9
28
0a
c1
22
85
08
18
df
02
cd
85
37
3a
75
2e
8a
ef
8c
02
0c
a8
5c
b0
48
6a
2d
72
d2
d1
e4
e3
2d
bf
1f
c3
32
bb
94
9d
f3
06
e8
8c
24
46
af
75
9a
b3
c3
4d
e5
27
12
02
fc
46
a6
bc
19
ec
62
6b
38
19
e6
d0
ac
f5
ad
f2
4c
fe
4f
6a
f3
cf
5d
7d
cb
2f
a3
2d
d8
3a
9a
39
b6
b8
02
ed
d5
36
cb
76
45
0a
62
38
5a
f9
3e
50
4b
ad
01
46
6a
55
ea
95
ed
b3
69
bf
6c
89
03
4d
7a
f4
9d
3c
09
04
a9
e4
f7
d9
97
14
de
c2
48
c0
89
39
4c
67
b0
14
25
3a
81
ec
61
be
b9
73
ee
2b
30
54
37
9a
83
1e
e2
02
9f
52
cd
9a
c2
50
45
c8
d9
eb
09
2e
1a
cb
3c
31
37
0a
37
58
42
e4
83
6e
87
6f
9c
c6
fe
7e
5e
45
c7
ef
27
db
71
74
52
1a
8d
b8
b3
b4
b8
73
ae
0a
07
2e
86
86
ab
d1
0c
fc
51
4c
96
ee
04
39
0d
70
e5
43
6a
b5
85
1a
4f
b0
4c
42
b3
16
50
57
1e
e2
8c
66
b3
30
d3
06
a0
54
0c
ba
62
b2
d7
0b
ca
5a
0a
1a
05
23
e7
4e
9a
79
f3
62
ca
b5
cc
7b
9f
b7
b8
f9
f5
f2
4b
b2
85
30
6b
11
36
95
fc
44
94
34
e9
5f
fd
cd
30
70
20
90
e2
af
e3
2f
73
f3
fa
2b
05
01
1d
98
ef
37
b9
99
8f
a5
2b
7b
8e
a6
cd
c3
6c
54
d0
3d
d9
b6
68
4f
e7
d7
a7
79
b0
32
68
6d
cd
de
c9
b7
7e
e4
03
44
e9
4a
fb
49
25
7a
38
0e
07
55
5b
01
af
1a
61
45
de
97
6a
6b
ac
5c
85
00
50
45
92
42
42
88
8c
f3
6c
04
ae
c2
c8
2d
13
f0
6b
53
91
f4
33
09
55
bd
54
f2
e7
cf
d3
69
0b
60
46
d9
c6
99
60
39
bd
2d
0c
63
6b
73
9b
06
c7
10
c7
3d
4b
d6
fb
6d
b0
a9
5f
3c
7b
6e
4e
a3
e1
ca
41
cb
e9
cf
6c
d7
d2
32
99
03
b8
0b
ec
34
3e
86
94
91
dd
f3
d5
07
99
5d
c8
38
68
ef
5f
fc
92
0f
f4
7a
cf
7d
0c
ad
06
fb
cc
a3
f1
88
e4
65
cf
7d
5b
41
d7
68
73
04
51
d0
97
99
03
06
33
12
e6
05
6e
29
83
1c
9e
e6
7b
3c
e9
f1
14
38
33
fb
59
a7
53
f7
3f
da
c8
0a
c0
52
14
3a
c4
7a
b0
40
03
c5
15
ff
f4
b5
e3
05
2a
d8
b2
4f
3f
df
f1
65
7d
5d
04
96
30
d9
f4
e5
a4
59
79
f7
f9
bb
16
95
94
77
ee
85
05
7e
78
01
cc
0d
14
21
c0
1d
13
89
a7
cd
2a
f8
aa
38
10
a3
45
64
20
85
be
63
57
40
53
e8
59
23
de
98
99
45
5a
c6
cc
93
05
1c
34
b8
c9
58
dc
8b
14
b5
2e
5e
a5
3c
eb
9c
3b
8b
7e
92
03
83
4d
e6
9f
b3
40
60
f2
84
18
1a
c6
59
6c
ec
e5
1f
05
f6
bb
50
0d
c4
b1
f7
27
95
70
14
75
a7
3c
3f
73
4f
97
ce
3c
b9
5c
f2
78
54
46
61
34
a2
75
fb
9d
9a
21
73
8e
e9
c0
70
69
cf
3c
c0
9f
c3
a5
c3
f6
03
29
64
32
f6
ad
a9
c2
21
e0
b4
0d
3d
3d
e5
f8
f5
b2
61
83
35
42
6e
dc
a1
93
b5
0a
e6
93
51
9a
36
a0
36
37
78
ea
aa
48
bf
ad
b6
3f
1f
bc
f7
18
d1
98
f0
68
61
e1
72
41
3e
11
54
b9
5f
87
2a
1a
67
08
bd
0b
45
d6
7b
67
7c
8f
1b
c4
e3
1f
4a
91
d5
83
67
c2
7d
29
f9
e8
76
c1
dd
15
83
2b
71
ac
d0
c7
07
79
13
40
8c
f1
34
2e
a7
f9
f0
17
ec
42
d0
de
ab
36
b2
d2
43
24
2a
2f
bf
24
0c
77
7b
56
01
fb
69
92
b2
a0
e8
33
7b
8e
8f
66
56
6d
94
d8
dc
a8
62
53
46
90
13
6c
38
d6
d6
f2
4b
b5
e2
21
fe
6e
25
55
e6
fb
49
0f
ae
21
57
9e
5d
d1
27
56
a4
94
61
91
3f
c0
46
d8
57
d8
9b
6a
1f
ff
b5
6a
41
47
d5
31
5b
88
78
77
5e
16
86
af
89
92
df
a5
2c
26
8f
3f
3c
90
5e
42
c6
7b
90
52
fc
d4
94
b7
c4
93
a9
db
9e
90
b5
56
a5
5d
38
ac
f2
08
a6
f4
ec
93
34
5c
db
57
4f
b1
35
b7
39
28
57
8f
88
27
7e
b5
54
04
a2
60
f5
17
19
46
61
af
f0
d8
d4
b1
6d
ca
1f
ec
a8
f9
a5
b8
53
61
09
90
0f
ce
74
2d
1f
e5
d3
a6
63
62
f6
26
76
08
44
72
c1
2a
48
ca
68
dd
9b
65
7d
27
bd
c6
aa
45
33
cd
bf
cd
0c
03
57
55
71
71
ab
c8
b6
4f
37
26
73
55
f2
0b
df
36
fc
c6
b8
62
96
64
8a
d6
2b
5f
52
a6
50
9a
c0
17
8d
7f
2b
8b
b6
4d
76
c4
2a
cb
78
4a
cc
71
4b
07
33
7c
04
d5
b2
58
58
4d
d5
29
9c
6e
e4
c6
22
71
9d
36
13
8c
b0
c7
6e
68
7b
75
84
86
4f
1b
ab
85
49
f9
e9
86
8d
25
38
56
37
e6
f3
09
e1
65
08
e4
18
6e
95
11
52
86
44
74
8e
d6
da
e4
8a
a4
40
70
0b
f1
69
02
a8
db
69
88
4a
84
6b
c8
7c
33
76
e2
13
38
7e
4a
1d
7a
7a
3b
e6
4a
1f
0c
87
91
82
1b
bc
4b
5f
18
0b
ff
4a
22
12
5e
ef
d2
8c
d4
fc
ab
91
88
a4
b7
df
14
56
d3
ee
1e
87
d4
d4
47
48
53
a9
83
c0
ab
7e
d5
d4
96
ec
c2
9f
d9
fc
89
b2
70
bf
ff
16
5c
b5
2a
b6
4e
4a
56
bb
b0
1f
d8
48
94
ad
ce
c5
b3
b1
b8
e4
a5
d6
24
ef
d1
ea
bc
46
b6
1d
c3
06
30
51
77
9f
94
a6
7f
21
79
f0
8b
57
65
8a
da
a6
f2
68
19
36
b7
26
59
42
a2
11
f3
52
d4
3b
ae
2a
5a
4c
e5
07
36
d2
a7
f2
68
4b
ba
59
46
58
cd
5b
91
64
8d
1a
1d
59
a8
e8
58
1e
5d
53
ec
46
43
06
0d
27
99
f9
7d
f9
f6
0f
6f
b0
a2
5d
0d
d1
26
5a
18
a5
17
1d
c6
30
e3
6b
2b
9b
40
14
f3
6f
59
1a
3b
52
ea
bf
7f
cb
74
97
64
b9
82
a3
e2
13
8f
54
67
45
76
46
3c
ec
17
e9
37
32
a1
15
61
03
2d
3d
20
a2
af
1f
ed
af
1c
1a
38
59
cf
2a
6d
c5
a1
71
13
74
ce
62
55
26
85
29
1a
cf
25
8e
e2
5c
ba
a5
7a
1e
f3
9b
5a
fe
57
a8
d5
dc
f2
33
e6
c1
81
28
a9
3d
9c
c9
fb
05
f9
b5
b4
af
2d
f0
67
54
d9
ce
f5
2c
d9
dd
75
74
00
d3
45
95
79
d5
91
db
4f
f0
e3
8c
54
ec
5e
4f
7b
da
ce
fc
2d
f5
31
34
5d
20
0b
86
a2
41
8b
ca
36
68
92
bc
37
fe
a7
82
b8
b8
07
df
52
08
3b
0c
f9
39
bc
2e
89
68
21
9c
ea
9c
f9
69
d0
75
0f
a6
22
10
5d
5d
ab
79
91
b8
37
b7
13
ad
f2
1c
3f
33
ae
75
c7
9b
eb
e5
ba
7d
df
ff
b4
89
dd
d1
00
27
93
e4
5c
91
1d
b5
aa
86
8f
b2
73
16
74
cc
82
3a
04
dd
52
ef
4a
87
7b
56
b7
d0
58
a5
d0
fa
63
5f
ea
81
c8
16
a2
bc
02
ad
6e
5a
5e
23
92
73
95
14
fb
a6
f0
e0
1f
a2
ab
0b
16
af
91
8a
c6
40
b4
ef
10
0d
ff
3b
21
26
4b
1f
fc
bb
4f
82
b2
19
f9
44
4f
12
8f
bc
11
b0
c3
18
ab
5f
71
81
74
5d
8f
7a
f2
5f
a3
13
81
c9
db
86
ec
33
f2
35
14
03
1e
6d
dd
f9
6d
5d
f8
72
2e
86
d0
86
e9
a3
f8
3a
8f
66
92
a8
0a
85
cc
bb
6e
43
25
fa
0e
88
f5
a6
00
86
72
0e
00
f0
f6
9c
98
b7
17
cf
6f
05
f6
f3
ba
3b
77
39
dd
ba
22
b4
33
55
ad
8f
03
e8
2f
0d
aa
56
9a
2c
c9
2f
70
37
a8
b4
40
05
0f
58
3d
41
25
a3
e0
56
7a
8b
f3
18
6f
66
0e
56
3a
d7
f2
8f
e7
31
74
47
09
c1
82
34
30
79
38
6a
a3
52
bf
36
b3
be
82
48
aa
cd
6a
05
da
8a
b4
cf
a9
26
f8
99
ac
2a
bf
60
a9
5c
f3
03
7e
64
9d
2c
ae
a1
8d
1b
c6
f3
9c
b2
0a
47
dd
5e
51
0b
c2
d6
2a
a3
1a
e6
ef
e6
2c
2d
11
39
7b
0f
06
00
77
42
cf
b1
5e
a0
f3
af
8e
00
31
ee
dc
33
99
5d
bb
c5
d1
56
7d
3a
16
2f
01
31
2c
93
27
98
90
8d
45
ce
c1
6e
21
7b
b4
09
2c
06
9b
b4
b7
a9
6f
2d
5d
9a
72
2f
cc
8b
52
cf
97
74
d9
f0
2b
08
e1
e4
cc
ea
c5
38
2a
09
a8
d8
cf
d1
89
9c
03
b5
92
f7
d7
1a
ce
a4
42
a0
87
e3
a5
7b
68
30
a0
a5
fc
f9
d0
20
6e
e8
29
68
b2
b5
5a
cd
fd
d6
02
0d
e2
ff
e5
10
e9
db
da
56
de
c4
64
a5
05
44
e5
55
58
83
c4
e2
0b
9e
bf
75
8e
21
09
0d
1e
f9
2e
88
47
c6
56
95
7f
c2
5c
53
95
8d
6d
9e
5f
08
c3
29
a9
65
e4
1c
d0
ed
fb
bb
61
7d
23
d5
d4
71
14
e5
b0
83
bd
b3
b6
b8
cf
19
01
05
c1
42
48
6a
68
fd
d7
b3
c2
5c
f4
e5
4d
2f
38
e6
73
f5
83
f7
3a
1d
05
d1
fa
79
98
e8
2b
1c
70
5f
f4
4e
e3
3b
6d
9a
f1
ef
6c
5b
e2
bf
e9
4f
1f
18
8e
ea
9b
46
00
03
b2
13
cd
dd
d0
21
bf
97
14
5f
ca
04
de
3e
a1
a2
20
93
08
18
38
c9
10
ad
b4
c4
48
21
62
86
32
8e
1e
b8
7b
d8
0a
6c
5c
55
e8
21
f7
ee
07
87
6c
23
f2
e4
40
fc
fb
72
47
2e
aa
2e
81
a8
49
d3
a5
d7
82
7d
f7
18
1c
20
01
bf
e2
e2
f5
2b
c5
b1
c9
18
e9
7c
e2
26
bc
f3
fd
f6
9c
31
fc
fa
ea
d3
3a
39
83
0a
1b
59
6a
54
2c
ab
c5
7a
f8
28
b3
c1
09
df
f2
e9
47
a6
24
a5
9c
9c
fd
fa
8b
73
b4
af
34
e8
2f
ac
09
8d
d1
26
a3
82
74
f6
6b
cf
ef
f2
03
32
d9
d2
21
b5
53
82
de
27
0b
55
62
da
08
77
0f
b2
4b
6c
48
da
51
c2
19
10
10
f7
74
bb
33
22
3c
54
e6
57
bb
79
0b
53
38
23
21
88
da
ae
99
33
3a
52
ff
1c
88
fe
09
0d
da
ca
2a
50
b5
36
c8
ab
35
84
11
e7
da
83
cd
b3
5d
59
c5
83
07
19
d1
41
66
63
3d
17
e2
70
f6
fe
6c
37
03
60
49
16
fe
d1
ac
f1
4d
d4
c7
7f
ff
bd
15
e9
74
06
bc
f1
0e
e8
23
7a
4b
66
21
ec
37
aa
77
51
bf
0f
00
c9
d0
b3
24
02
4e
b8
69
f2
6a
75
07
cb
1f
05
b3
b3
4e
15
46
02
34
4c
79
66
fe
46
64
0d
21
3e
3d
e6
34
19
20
5b
96
6a
48
47
73
cc
82
fe
5a
8e
93
1b
b6
59
a1
2d
c4
01
ee
50
95
17
c6
45
8e
a6
fc
ed
0c
ad
96
d7
03
c6
6c
8b
96
92
e5
e6
75
cb
45
df
4a
24
90
d1
83
24
8d
37
85
6d
58
49
ba
c5
b2
ce
b7
43
5c
e3
77
3e
79
dd
ee
9c
43
f4
7c
ff
c2
0f
ee
d3
77
a3
34
ec
23
8b
3e
ae
35
fb
cb
a6
f2
50
94
3a
fe
44
c9
5c
dc
f2
07
58
7f
b3
b4
9a
06
a4
e7
b8
08
62
96
91
bc
68
39
72
a2
9c
62
8b
3a
aa
f4
01
74
ab
bb
88
ec
e8
28
31
70
64
34
41
87
97
e6
32
ca
25
de
c9
3d
0b
95
fd
07
a6
df
70
46
c2
91
42
7e
8c
8a
