b2
54
1d
77
00
90
17
fc
55
a3
e7
36
b8
11
a8
98
ad
f2
11
10
95
bd
de
ec
55
5b
06
c4
23
8f
af
45
d4
b6
bb
8a
10
4a
38
5c
84
18
95
30
bd
dc
4d
ed
0a
f8
ab
ee
ce
66
1b
30
54
e4
40
d1
83
40
ac
e6
c6
e6
f6
5e
4e
ba
b0
3c
17
3e
ff
ed
00
6c
46
42
ed
43
df
44
f3
26
49
3e
8c
b3
2d
90
75
c0
ca
29
7e
40
b8
a7
55
0a
fc
ba
15
b8
b3
5f
38
20
be
7a
59
ff
14
84
a5
e4
b3
60
21
77
91
86
db
4c
a1
32
18
38
18
8c
d9
46
61
ef
87
53
6a
ce
a7
37
70
35
4f
e2
4e
7b
56
77
b7
21
93
b0
dd
fb
e0
71
9a
d2
68
d2
ff
66
e0
36
c1
d6
32
be
00
ed
81
ff
d9
10
9f
f8
a4
f2
68
8d
42
1c
f2
0d
9d
2c
7e
f2
72
9b
54
42
6a
88
85
3f
a1
a6
49
7e
1c
10
d9
10
bc
36
13
b0
2e
64
eb
3b
5f
a3
5a
a4
f9
29
17
03
b3
e5
ac
b3
9a
2e
c2
66
3f
2e
af
dd
ab
77
4e
b1
72
06
d1
91
44
29
29
93
10
4b
33
59
2f
b6
69
57
22
d7
ed
20
53
59
46
d9
b1
b0
81
ba
36
d0
01
b5
78
d4
14
d5
d0
64
d4
aa
ae
4b
e4
5c
3c
27
a9
ec
72
6b
c9
48
f1
92
2b
65
a9
d5
76
f5
47
55
86
3d
0d
f7
d9
f8
4c
f3
51
67
20
ac
aa
41
7e
58
13
d1
25
c9
e6
e3
c4
12
9f
38
9a
a8
23
fb
b7
f6
0c
dd
50
59
0a
0e
77
08
42
aa
03
ee
d0
78
d9
a9
5a
eb
36
1f
eb
44
c9
7d
06
6c
d4
ec
70
1f
21
55
d2
86
ff
23
db
7b
cc
89
e4
9d
d0
fc
f9
16
29
c6
27
ab
75
6e
5c
09
32
af
4e
fb
d3
d3
65
d9
03
1b
1f
79
97
b3
f5
3e
a2
3d
d0
8f
3a
1a
f7
3c
83
fd
22
29
7e
5e
84
64
b8
42
52
f1
f1
4f
81
f8
3c
b5
f2
6f
49
29
03
6b
6f
fc
19
dd
e3
bc
f6
ff
47
5e
55
31
0e
6a
f7
95
52
66
22
c8
81
d9
1f
9d
85
52
4c
21
05
ff
ef
65
8b
5f
76
11
59
5b
65
58
ef
e3
08
99
2d
37
5e
8f
0c
13
6b
a7
a4
54
15
fd
3d
e5
01
5c
2c
f6
04
0b
1f
b0
13
78
85
0a
73
b4
f0
fd
72
b5
7d
44
10
ef
70
d6
9d
79
97
87
69
01
f1
e1
9e
3c
6e
4a
54
51
99
38
c3
c2
1e
75
e4
3c
bc
b2
76
6c
df
04
45
19
e5
d4
2b
42
65
d9
99
1d
6c
c4
73
2c
71
00
d0
7b
95
45
61
36
1c
20
0e
2a
42
ce
ba
4f
9a
2d
3f
17
82
0b
b8
ac
5f
22
6e
f6
fb
4c
c2
ba
56
34
2b
8c
f9
fb
b2
df
7b
84
e9
73
c6
d9
1c
cd
e1
65
69
2b
da
bd
53
66
3a
fa
b7
af
8c
6a
85
88
f6
c2
0b
67
32
41
0e
ad
cc
60
d1
8c
97
a1
45
44
3e
40
3c
09
09
8e
be
2d
a3
d3
56
54
65
e6
25
e3
08
fd
64
f9
d0
a7
5f
13
25
8b
ee
25
17
ab
7e
53
cf
1d
43
d6
69
b2
3a
98
fe
a8
59
bc
f5
79
c0
7d
74
aa
18
10
15
e7
c6
d4
97
df
e5
a7
26
37
88
0c
d3
d5
fe
57
8b
28
dc
4f
b2
c2
58
ec
28
58
32
54
b9
49
c4
94
ee
da
6a
28
5f
0a
cb
1a
63
e5
2e
b8
df
2f
97
d2
a6
35
07
f1
e5
68
84
5e
d5
26
8d
b2
23
b5
32
30
2b
67
7c
11
59
6d
d6
1a
b2
52
c3
fd
27
72
17
03
3c
18
29
0a
00
4d
f7
d1
35
a4
6d
06
c8
3e
85
e8
1f
e4
e7
2c
dd
21
42
e6
89
f1
3b
ed
d1
10
62
f2
59
58
65
34
9c
26
26
a0
29
d8
35
01
61
2e
c4
ac
37
fc
a9
1b
8e
32
52
0d
85
da
0f
0f
bd
fa
d3
eb
de
4f
6d
3a
9e
c3
f9
25
59
2a
b3
5d
de
da
ba
57
e3
c8
4d
4f
04
a9
ab
a5
19
4a
41
de
94
bf
63
6e
8f
e6
b4
bc
fb
87
59
96
dc
7e
cd
dc
bf
70
61
09
6a
fa
4c
83
dd
aa
53
90
ce
0b
01
0a
38
af
53
0e
db
17
aa
23
4c
ff
d9
b7
f8
7d
d7
ad
89
9d
a2
fa
33
4c
2c
90
3a
47
a0
3a
dd
5d
4b
d7
fe
62
fa
56
4b
fd
46
00
97
51
f3
35
4e
77
ce
9e
c4
fa
7e
05
83
8b
77
9a
7a
60
26
8c
5b
54
1d
39
78
1f
71
38
23
84
56
7f
85
77
08
02
62
35
c6
96
d6
16
3e
47
cc
b4
ef
d0
57
cf
bb
37
8b
97
00
25
7a
f7
04
c3
fe
93
8b
79
89
fb
f7
87
ef
ff
69
fb
52
85
ed
23
ad
91
a8
e8
9d
19
54
c6
b3
ec
4d
95
3e
95
c6
12
aa
bb
45
f7
8c
13
a1
2b
05
ef
89
43
d3
1d
94
51
14
dd
1c
fe
07
c0
e1
13
e8
d5
5f
d1
7b
a7
34
a4
b4
93
c4
1a
1c
70
93
25
16
6b
1f
0b
dd
3e
0c
6d
e0
70
60
e5
ad
c8
bd
64
6d
19
7f
fc
bc
37
04
6a
8b
00
b5
86
48
5c
91
a3
cc
9e
4b
96
c0
98
45
23
72
7e
18
72
7d
24
4d
06
fe
09
09
1c
b4
aa
34
54
92
a7
c7
97
d3
dc
dd
09
ad
a9
96
4a
f7
68
d2
47
b2
9f
b1
1c
24
51
a3
c2
c8
ee
50
f9
d3
db
77
1d
d7
f7
eb
cb
b8
33
5d
5f
30
ed
21
f7
1f
4b
a3
28
a6
ae
d9
6b
cd
40
fa
b3
99
91
f8
d6
b3
8e
77
d3
1c
d5
54
f9
50
65
f4
04
64
1e
9c
60
3a
b8
4f
03
2c
b3
f7
86
7b
d8
55
a3
6a
fd
65
19
95
f6
3e
c9
4c
0e
a1
1a
0a
2b
1d
14
59
e4
a9
59
ef
5a
86
99
84
cf
c8
de
c7
30
91
da
97
fa
18
eb
f7
ed
b9
57
32
c6
83
77
85
41
1f
5c
d4
41
f8
73
60
00
43
f2
33
b2
a8
77
ea
e0
ea
dc
31
4b
81
ae
3c
2f
66
10
4c
86
c1
37
e8
70
57
e3
d0
fe
48
de
d7
28
57
2d
ad
69
90
42
e8
92
03
10
5b
57
4a
83
22
a0
22
23
a0
3a
cb
6a
76
b1
89
82
50
9b
b8
a8
47
67
d2
40
13
40
33
58
14
c0
53
c9
9b
63
77
4a
6c
fe
5d
ee
3c
04
63
19
3a
d7
ba
93
b2
b0
85
13
d1
b4
05
c1
65
d6
eb
1c
b4
f0
24
a1
a3
22
b2
b9
ea
90
0e
58
90
9c
28
65
d2
3f
04
c0
7c
7b
59
78
e0
70
44
34
35
e4
21
c6
af
26
32
6d
ab
39
03
74
2e
22
57
df
5c
73
02
44
9b
05
03
05
a5
ec
98
6a
49
5c
c0
a2
1f
a8
8f
5b
25
94
71
53
82
83
27
79
40
2b
fd
d1
45
6a
75
2d
dd
d0
b0
51
41
05
99
94
06
2a
13
df
e2
a3
2c
15
55
24
e7
e6
17
cd
ea
6c
46
ee
4e
92
90
ed
da
74
12
33
9b
35
63
d0
23
31
66
54
0d
33
fa
76
b4
2d
77
3d
46
c9
d2
2f
35
1a
ca
f6
f7
87
35
75
ff
3f
f2
55
65
2f
e6
45
04
01
19
82
ea
8a
44
00
f9
7e
6f
dd
f1
31
7a
ff
62
22
3f
59
dc
cc
31
c0
dd
c9
1a
04
9b
1d
d4
d1
46
3d
25
d3
0c
2c
71
5c
1a
27
4e
39
d5
62
44
ad
ad
f8
aa
28
66
a8
f6
b1
d8
3f
41
da
51
bb
0e
61
06
4c
29
30
12
fd
06
39
b6
ca
23
9e
f0
03
70
f8
74
b8
ef
a3
df
f7
36
04
cd
e2
d1
a5
f5
4d
37
83
23
bf
35
51
e6
73
17
ce
f7
0b
dc
cb
4d
63
88
9e
57
9d
28
fe
7c
bb
8c
1e
a6
70
cb
a5
c0
c9
a6
8e
bf
c5
0f
75
18
4b
d5
c7
75
ec
dc
e9
0a
db
05
98
7b
c6
45
ca
14
0c
11
7b
b6
65
85
61
b7
53
de
d0
12
00
20
46
50
fb
54
95
67
3b
8c
f0
70
dc
b3
ce
86
7d
6f
f7
12
b2
5e
9a
e9
03
68
4d
d5
16
0c
c8
e5
22
41
4d
62
3d
d6
88
c7
6e
b2
14
4c
d0
8e
8a
73
bf
35
35
07
58
1e
7a
d2
5d
a5
ee
29
f7
55
e3
1e
a6
b8
1d
71
bb
5c
29
55
96
43
f6
f2
1f
1b
97
a6
ae
19
3b
7d
56
34
e8
1a
f5
53
fb
25
f2
a9
e0
15
5a
34
39
f9
f9
f5
3a
ec
61
da
1a
f8
ce
14
c9
04
56
ff
18
23
a7
5f
76
46
f5
7b
e0
c2
d8
f8
d6
2c
12
37
0c
9f
6e
fa
b7
13
82
2e
2b
6c
78
8f
c7
26
57
45
67
ae
62
1a
1c
d9
ea
15
cb
06
ea
d9
4b
07
56
9b
47
b9
64
72
e4
68
db
72
77
23
d7
60
8a
d2
73
88
6b
9f
cd
f9
63
8b
a0
7a
1a
65
b6
ad
68
29
9d
1f
b1
9c
6c
2d
01
f9
60
e0
a8
53
50
1b
7f
37
34
ed
e0
02
be
da
2b
ae
a2
1c
e8
91
4d
56
27
01
fa
4c
9c
fd
c4
38
27
cb
09
af
04
06
4b
12
f1
d7
32
f0
9d
41
5e
bd
de
1f
2b
77
57
83
29
ad
b6
ba
e2
19
45
d1
ea
b6
dc
05
55
24
b0
df
ea
0a
d7
3a
b4
6d
2f
3b
11
ee
f5
53
6d
39
fb
17
2c
b6
09
e2
8e
71
0e
49
40
5d
1f
6f
e8
f9
e6
6b
a5
26
e9
7a
cc
3f
5f
95
88
d3
f6
0d
0e
0a
76
6c
11
aa
45
40
d8
14
05
be
e8
56
02
af
37
bf
6c
7f
8d
77
90
a9
df
87
bf
1b
34
21
ed
f9
e1
02
ae
d8
3a
9e
5b
a0
ff
38
c4
47
ad
1d
35
67
51
28
f9
6f
48
1b
cb
fb
e8
ab
58
5c
f9
23
3a
bc
27
27
f9
6b
66
d1
34
5e
64
96
17
34
60
57
ba
ec
fe
86
10
9a
56
45
de
d1
6a
11
66
5c
8a
04
59
a8
dc
79
86
99
92
d2
1c
b2
e6
f1
56
1d
b4
32
c8
48
a4
d6
2d
3d
7b
1a
58
fb
d5
d5
d6
da
65
75
36
bd
29
b7
9d
c9
37
b3
08
15
18
cd
8e
27
c2
d9
fa
61
cc
8b
2e
b7
a8
23
75
27
8b
f7
a4
09
7c
9f
dd
5c
81
5b
9a
3c
21
e2
c3
cb
bd
06
eb
99
83
be
9e
a9
2f
ae
24
7c
c5
c3
2f
d5
0d
0a
35
cc
fb
cd
e2
72
e8
d4
c3
0d
8c
88
46
24
dd
74
d5
46
91
54
83
fa
af
3c
b9
27
8b
0e
fd
ae
cc
cc
f4
08
62
5b
1f
78
86
ca
4e
06
9b
22
a4
52
8b
b4
01
d8
d6
54
b6
3d
37
ea
21
98
2d
97
55
5d
43
ed
d1
21
57
cc
a8
50
90
3f
38
3d
6d
b7
d2
7a
a1
0f
a8
38
e1
ac
b1
81
41
bd
1c
cd
1c
ac
f4
2f
66
8b
f7
2c
dc
76
b1
63
94
f1
70
a7
a7
ce
56
23
1c
92
99
4a
be
2a
42
de
9e
9e
14
eb
ed
ab
5d
d4
f1
b1
68
ef
c1
f0
38
51
d2
60
72
e7
64
00
8b
98
6e
24
25
77
e6
50
9f
e7
de
e9
0d
5b
06
78
0d
5e
18
05
ee
29
e5
ca
da
e2
c0
d7
2e
65
c5
d7
fe
af
70
ac
93
b6
fc
1f
93
58
90
7e
42
ed
af
8f
d8
4c
57
4b
2e
84
cb
9e
1d
72
f9
8b
78
47
c7
50
f8
08
9f
87
07
13
dd
b3
10
df
f3
33
d1
f6
97
5d
97
99
d8
ab
da
91
92
2b
40
95
34
10
04
6d
79
39
b1
cc
da
35
bd
cb
f6
d0
6b
8e
21
1e
d5
2c
6f
1a
65
85
68
70
26
04
82
2a
f1
b8
93
53
9a
75
41
c1
62
a6
a0
b1
5f
f9
cf
13
41
4c
c2
0f
94
73
28
9c
a7
ba
18
84
0c
10
0d
95
f4
e1
45
ec
1c
f4
3b
6c
02
d8
1b
0a
36
62
44
7f
fe
2a
15
65
2d
f9
b9
87
05
47
d1
87
ec
29
4e
46
d0
c1
20
65
9b
6c
1b
3c
23
a3
cb
0c
4b
32
53
26
6f
16
af
dc
8d
0d
44
61
61
1c
90
15
ba
28
91
1e
96
1e
03
c4
c7
02
e2
74
ee
b6
fc
63
e0
9a
14
f8
0a
bf
a0
e8
ae
49
86
8d
93
d4
83
33
67
87
d1
3c
83
14
02
af
22
95
d4
bb
56
17
34
4f
e6
3a
2a
31
76
f7
33
54
74
19
eb
6d
8f
13
f9
55
16
7c
29
69
0e
7a
95
c3
13
51
3f
0f
97
fe
71
ac
42
59
f1
12
50
b8
bd
c7
47
2c
08
f9
c0
3b
5e
be
91
68
72
dc
8d
5a
91
d9
3b
16
45
d1
df
c7
05
5e
b7
60
09
a1
4e
37
53
65
dc
3d
35
9d
eb
0d
0c
ec
61
69
1a
35
38
56
f0
1e
b6
cb
c2
9b
66
33
2c
c6
63
b2
d0
53
10
85
ce
15
ad
fd
23
82
48
0e
6c
34
97
69
ad
16
1f
da
2b
4b
a8
8b
c6
c8
40
ac
3b
3f
95
20
e2
a1
63
df
9e
b0
e7
95
bb
7c
28
74
3c
a5
50
5c
45
0a
44
ea
01
f5
23
9d
c7
35
c7
fa
05
2c
08
10
93
18
87
02
32
6d
b8
91
cb
1d
99
34
4c
c3
a1
75
6c
b8
d0
e7
b4
7e
f6
ce
e5
68
f2
a2
95
d4
58
9f
28
47
cb
30
70
f6
49
f4
cf
96
7a
91
c9
7c
85
69
02
9b
bd
08
32
77
b3
87
c6
94
07
fb
29
16
a3
01
bf
08
c5
c4
1b
52
65
c6
17
30
87
65
5e
07
c8
96
75
d9
1e
5c
da
cf
49
0c
17
8a
32
d6
86
3a
6e
d9
73
66
b5
76
fd
11
63
4a
7c
8e
fe
5d
37
db
db
d6
a2
17
4e
57
38
c8
4c
77
f2
63
8f
38
d8
23
9b
59
3a
58
18
42
54
ac
c2
f0
37
24
8e
13
c8
54
1d
4a
d6
58
f9
07
3c
ba
9b
b6
d6
8b
ae
99
8f
4c
f3
20
24
59
b0
40
fa
26
ba
e1
d3
aa
29
e2
41
20
0c
85
7b
1b
0f
26
ce
b7
43
e3
d6
b0
59
31
f3
5c
1e
07
a4
8a
7f
52
d4
ad
e6
da
94
f3
6b
28
73
75
c1
9a
63
01
d1
45
d8
36
78
74
9d
36
9c
8f
c7
07
1e
9a
70
73
a5
14
aa
a1
7d
90
35
ab
49
35
fc
c4
f8
32
ea
7b
d3
d1
57
56
02
5f
97
51
c0
79
6b
d5
24
ad
b0
eb
be
9a
cf
c0
04
3c
f7
00
8b
4d
a2
91
89
31
87
0b
77
6d
ae
ec
c4
47
34
6a
2e
66
9f
8a
41
62
84
8e
42
e3
6e
66
88
67
4b
45
0f
f8
d2
54
1b
c8
0e
6b
e6
dd
56
aa
8a
f5
4c
47
79
16
48
9f
74
b3
29
bd
05
6a
b0
8e
89
f7
97
65
0d
96
4e
ff
ee
7e
25
29
7d
a8
ed
73
29
95
0a
5f
92
0b
63
a5
22
ca
77
f5
bd
67
db
dc
31
69
e6
70
82
03
d5
2b
76
b6
3a
39
fd
5e
c2
7a
9d
9a
e3
f8
a0
23
2a
10
70
ad
58
a5
c3
5c
ac
f1
22
eb
33
fa
c3
75
da
a7
a3
04
93
be
45
c6
13
3d
7d
99
08
37
71
f1
4c
ec
ef
d0
1c
d3
13
7c
6d
cd
28
e6
7c
d2
21
5d
41
9c
a5
dc
ab
41
c0
4f
ff
0d
8d
94
22
d7
8c
b7
1f
b4
34
8d
83
43
f1
43
e0
67
67
03
4d
b1
9c
14
8a
8c
64
f2
ac
c7
78
49
16
61
39
9f
07
ac
d1
dc
78
6f
11
2c
0f
3a
94
16
8a
f4
5a
ea
76
4a
0a
67
a5
28
fc
b3
fc
c1
d3
95
9d
23
ae
0f
98
0e
c1
e9
4c
fe
f7
a3
7e
04
05
44
e8
e0
5e
09
38
d1
6f
4e
26
12
b1
f7
73
d1
77
c5
6b
df
64
e6
a4
26
0e
54
74
41
4f
28
81
b2
7c
5d
4f
07
fe
f5
db
53
72
39
de
ce
7d
3e
10
61
c9
f2
0e
fd
15
66
5a
b4
9a
7e
29
04
51
53
66
d2
68
a3
5e
d0
22
68
51
62
93
31
f5
ab
82
e1
e1
3e
28
a9
33
ff
b6
17
86
cf
34
ca
72
d5
84
15
fc
2d
6d
0f
ec
15
49
a1
a5
9b
c4
87
3e
6d
4d
fc
98
3a
de
79
98
30
98
97
09
df
29
1f
bf
bf
a7
ea
ba
3d
92
24
7c
ab
25
6c
66
8e
88
67
f0
12
15
1f
82
75
61
07
2e
f5
5f
ca
1d
d6
12
ab
13
4a
b6
df
c6
d0
67
a7
f6
2d
82
13
94
04
75
8d
28
29
fd
0a
59
09
d5
cc
6c
be
d7
c9
45
c5
83
68
ab
45
36
64
69
10
48
ae
f0
04
b1
12
2b
41
9f
5b
4c
2c
56
46
2b
f8
93
e2
41
9e
24
e4
89
98
d7
ae
c7
d7
6f
37
ec
43
2a
dc
21
c6
07
99
71
a8
66
0c
d7
f7
d4
57
14
95
e6
8a
1a
ea
0a
20
e7
d6
67
f0
2c
48
27
51
f4
ad
f1
7b
8b
67
8d
e0
28
9a
ac
0a
61
58
d6
5f
da
34
f2
0e
e6
04
20
9d
56
fa
a2
25
33
f7
74
9a
b0
02
8b
b1
23
2e
07
2b
61
04
ca
df
10
a3
23
2a
3a
e7
7a
f5
55
25
99
a0
bf
35
bf
91
7e
33
32
38
c3
61
5a
e1
fc
aa
b2
c3
ee
13
50
c4
3b
a6
6c
e2
2b
43
70
dd
14
f1
a7
83
85
20
ab
14
06
bc
d5
7a
db
f2
ce
93
21
2c
d4
c8
c4
c7
6b
23
9b
b4
10
e3
d8
55
3c
56
d6
7d
d6
30
53
93
1a
40
88
bd
14
ac
31
eb
5b
c3
56
a3
40
a1
da
ac
6f
c8
c8
13
a3
a4
68
31
a2
62
2f
00
3c
a0
16
e5
e0
20
3e
9e
e5
90
4c
b7
9f
78
f9
8b
08
2c
dc
90
14
8b
97
59
fe
90
25
c3
b5
c3
cb
d2
19
75
9f
d8
07
38
6b
5e
0b
cd
f9
82
4f
0d
5b
16
f7
ec
81
a9
bb
ea
00
c4
4e
e9
29
ba
9d
ac
1b
18
28
02
05
31
a8
23
5f
a4
09
90
9e
49
a0
92
4e
8c
9f
cc
02
ab
aa
f4
6f
6f
16
8f
43
d2
e2
25
d0
33
62
48
68
2d
5a
92
31
9b
72
d7
ca
3d
6e
0f
f3
d3
3c
d4
da
0a
6c
1f
93
a3
85
43
e1
e2
8e
9c
8d
89
27
bb
c2
65
7d
3e
4a
2f
42
22
f3
02
88
0a
cd
70
66
40
ee
7b
4f
eb
fd
85
b5
f3
e2
1d
17
45
c6
46
fa
ce
7e
ff
c1
92
ce
5a
4b
d5
f7
bd
a8
b9
38
b8
3f
e7
23
3c
0e
a7
27
3c
a2
3d
e0
a0
3b
f1
d9
dc
57
7e
81
a6
48
9b
19
04
46
b8
bd
a7
b4
e8
c5
61
34
1b
07
c8
56
0a
c2
ed
d4
c4
51
ec
ad
ab
5e
e9
86
67
d1
db
85
76
7d
51
93
5a
93
87
df
34
42
e5
4b
ec
0e
9a
5b
0c
61
4e
a5
a3
36
d9
b7
83
bc
3b
d9
f4
4b
9a
c6
88
11
b7
4f
c7
b2
ab
87
b9
75
bc
97
08
f1
22
dd
20
cf
8b
b8
f9
f8
95
ca
de
dc
88
fe
54
2a
7a
ef
b0
0c
4e
65
d1
f9
f4
00
84
c9
8b
d1
39
c4
d7
6f
22
4b
be
15
ac
6f
aa
5c
93
0e
9d
8b
60
db
6b
85
fc
96
a7
f2
95
8f
02
7d
eb
c0
b2
2d
9e
a2
10
63
2b
af
fb
51
89
b0
ce
5c
3b
88
9a
1f
73
a0
cb
00
b1
c2
af
0e
2d
8b
ed
33
22
f5
b7
2b
51
3b
7b
fc
67
c6
21
fc
ec
13
39
00
30
6e
29
ed
73
25
8b
a1
74
76
bc
42
06
48
a7
27
73
dd
55
61
e5
a4
4a
7a
fd
29
dc
c0
56
65
dd
9b
3e
f5
45
18
76
7a
fd
bf
ff
b4
9b
42
db
16
78
e3
52
e3
d5
09
95
31
1d
df
d6
97
c4
9f
e0
f7
07
d2
82
ca
4b
27
ee
fb
ca
03
b2
3f
bb
e4
45
f7
b0
f8
1d
eb
10
ea
10
39
65
ce
24
bb
c4
51
12
13
ef
5a
8d
67
ce
ee
73
c6
d6
b1
99
e8
ef
4e
56
ae
49
4f
78
8a
89
8c
39
d4
39
91
38
3b
e6
ce
73
c2
96
76
19
46
7d
62
a6
7e
92
86
de
f7
59
b6
2d
11
4e
bb
35
0b
60
49
eb
ee
c2
7a
df
1a
64
76
95
09
59
aa
04
b6
f1
ba
c0
01
50
d4
b3
97
3a
60
4e
d6
37
7e
be
eb
d2
c4
31
46
b7
4c
4f
97
1b
f6
a1
2c
d1
ec
49
52
45
b7
71
5c
34
66
d3
82
f6
95
68
17
df
76
61
e5
85
e7
34
37
e0
4e
4d
e1
71
74
b3
0c
95
5e
83
d9
66
eb
6f
5c
4e
b0
a7
7a
68
47
0e
94
3c
a0
0b
40
c9
a9
8f
a8
aa
ff
f2
89
0d
e3
77
e0
e6
67
79
93
2f
e6
69
55
ec
52
dc
5c
aa
b1
f9
d5
4d
9e
c3
51
f5
6b
1d
3c
2b
6f
7c
cf
32
f6
55
a1
f8
42
08
b8
93
d7
31
e1
3a
95
fb
89
b5
c8
46
5b
15
b4
e0
af
6f
f3
ba
68
63
ae
c8
0c
16
68
16
85
e6
a0
1a
28
90
9b
4c
18
11
9b
52
c7
57
86
d1
01
45
fd
5a
b8
06
67
a1
e0
11
f1
1e
13
81
13
1c
21
95
df
5a
20
92
e0
07
d0
3b
1d
56
d5
33
ae
28
29
83
7d
3f
65
7c
7e
d3
ae
7b
99
8d
48
6c
38
22
63
b2
94
6c
3f
ae
63
a2
61
68
ed
6d
85
c7
83
96
06
29
5b
2c
1f
47
48
66
f8
b8
c9
85
8c
ec
a0
59
47
1d
d4
14
ab
27
ca
d1
cf
ca
31
1a
8a
88
76
4f
be
e3
c4
0e
fa
db
be
e4
e1
46
1a
2d
be
39
b1
50
9b
7b
72
07
7c
2c
99
49
99
07
48
56
ff
a9
82
d1
fe
4b
5b
6a
0e
4f
00
89
50
2a
90
af
4f
d0
30
36
af
eb
f9
33
c9
b3
89
dc
47
a5
b7
89
df
4b
03
d6
11
b3
30
03
09
35
79
52
0f
cf
85
c0
d2
d7
15
1f
74
12
fc
e7
ca
8e
8a
86
2c
fd
b3
6c
7e
03
cf
7e
66
53
1a
7e
ee
b6
11
e5
8b
49
a2
b1
3f
2e
11
bd
fc
fb
87
ba
ce
1e
35
c3
13
bb
77
05
96
22
5f
78
35
43
02
94
fd
6a
7e
e4
ca
5f
c8
77
29
d0
7c
52
96
fc
cc
7a
65
30
c7
65
8c
66
d1
e1
df
3a
8c
8d
3b
86
3d
82
b0
fd
b0
cf
43
8f
f2
79
a1
08
8b
49
5b
db
73
65
b6
5c
03
af
0e
84
83
26
ff
74
18
db
fc
f6
04
bf
fa
5a
d3
ec
f9
68
e2
c5
76
af
0c
dc
36
c7
f4
70
5e
f6
71
e5
3b
4e
b5
79
92
c8
aa
c7
a2
30
83
12
4a
56
fa
93
82
d5
81
6a
3f
68
10
cc
b8
6b
bd
72
b7
18
5d
98
d3
75
d4
87
3e
40
1b
f1
62
8d
94
1a
72
25
ee
18
32
42
1f
2b
7e
04
c5
a2
56
0e
e1
07
6f
d7
be
f9
53
38
ac
93
14
b4
a7
47
ce
7c
ab
e2
ef
44
1a
17
75
85
87
9a
e5
7e
c9
ed
58
e2
c7
dd
e4
7d
fb
6f
83
ba
cf
d7
2e
3f
df
94
c7
b6
8f
f8
f7
f7
d9
f5
5f
c9
1d
54
b3
37
ff
cd
17
7a
0d
c2
55
6d
ff
bc
e1
44
db
b9
f4
b7
17
2a
a5
fa
7b
ba
02
40
a2
1b
d3
b3
6c
1b
4c
e9
f7
77
34
9d
09
96
95
af
a1
43
b9
99
f0
da
09
7c
13
25
30
8a
23
3e
ef
e0
02
69
24
87
1d
e8
72
06
8a
38
8d
ca
d2
15
69
65
d5
e6
92
1a
aa
fe
3f
87
ca
9d
e6
da
ef
a8
a8
af
b4
b4
6b
13
02
fa
a2
54
30
cd
00
fc
6f
c6
15
3e
69
49
0c
87
3f
29
6d
16
30
01
0c
4e
c7
3c
c0
fa
2e
1f
76
f1
f9
f4
2c
ed
1e
c3
2a
c7
39
14
b5
b4
8f
41
48
f9
8e
27
c0
37
50
a9
7e
18
f7
78
24
bd
d1
16
d4
9e
08
4a
18
6d
b1
f1
89
01
be
9d
45
9f
6e
98
f6
9a
8a
b6
9a
91
02
be
fa
de
6f
f6
66
7a
d3
b4
57
63
06
ad
00
69
af
ef
cf
68
b1
20
28
64
0e
63
f9
38
af
13
76
dd
55
1e
bf
79
2a
56
15
6c
27
23
f6
fc
6d
e0
d9
75
6e
6e
c6
d8
13
10
32
e8
62
f8
2d
b2
23
8e
a4
c6
ae
f6
97
02
fb
59
eb
50
13
e9
49
26
1f
59
4b
15
33
93
40
fa
06
0a
be
c1
bd
1d
89
42
7b
19
d4
74
8b
6e
44
da
3f
48
53
0f
14
8c
a6
c4
69
fe
4f
d9
1e
25
b8
5c
5e
77
96
03
79
ce
a4
f3
48
34
41
08
df
0d
d5
2a
83
22
48
14
54
68
a4
03
b3
15
e7
98
64
c2
2b
82
60
3a
2d
aa
dd
4a
e5
f0
65
32
c8
c9
7c
11
20
6e
71
26
2d
b6
c4
c7
bc
d1
d7
45
31
96
c8
18
27
10
63
60
2b
3a
48
ea
de
31
12
09
82
d5
e8
31
70
dc
df
da
84
48
18
e5
02
59
e4
96
68
b1
09
34
25
74
89
6e
ae
b8
5b
2b
b6
8f
c2
c2
ea
6b
b3
e1
ba
04
1c
6d
8e
40
f7
3b
ef
3a
a6
7f
9d
c5
89
1b
82
58
4b
bc
7d
e1
62
84
de
2b
71
2e
bc
24
bc
1e
3a
8d
2f
ab
c8
72
ef
01
2d
2a
07
01
5d
64
e7
29
68
86
5a
49
25
5b
c0
f6
11
ea
00
7a
fe
ea
78
13
2f
2a
72
9b
b1
5d
a5
f2
ef
f8
c8
d0
0e
2c
e3
f9
41
a1
9d
14
64
99
da
c0
44
8e
e7
45
12
df
41
9a
ab
ad
ba
0d
26
a6
81
c0
44
f1
9d
00
70
42
1e
58
a7
ab
da
bb
33
ac
7a
52
46
e7
0c
83
9d
e2
91
b3
a9
0a
8e
64
eb
3e
59
8b
8a
0e
fa
1d
1f
a6
27
bd
23
31
bb
75
6d
e6
0f
4c
b1
bd
0b
23
f6
08
36
79
34
d5
14
01
de
be
75
d9
a4
f5
dd
2c
90
b0
07
55
18
c6
54
cb
f9
1e
37
05
4b
39
57
ba
fa
07
9b
62
b8
e4
8d
cb
22
57
a9
cd
c7
f8
77
be
b4
d8
00
ba
21
99
47
05
72
1f
ba
a7
e4
0c
67
37
37
85
d7
6d
f0
0b
ce
f7
ab
2c
a5
84
1f
a9
43
8f
f9
13
ae
eb
52
07
6f
a5
48
87
3f
77
2b
ee
4d
51
14
be
43
ca
93
5b
19
98
f2
97
8a
18
18
2f
ab
26
1e
dc
9c
f3
71
93
bc
02
11
88
0f
ed
89
b6
58
35
1f
e7
98
2f
75
eb
4d
a3
e0
a8
57
21
f5
a5
8f
64
a5
25
55
71
20
e7
03
99
b1
41
a1
25
ad
06
3f
87
08
4c
51
93
8b
0d
d3
a7
cc
d1
f0
5b
61
76
6b
b0
b0
39
00
0a
eb
ee
c5
17
52
ee
e7
ea
51
3e
13
28
99
8a
b4
04
b1
a4
b7
9b
09
07
d7
a9
d9
fe
05
9f
de
43
b3
6c
82
99
e2
2e
6b
ee
8d
5e
bd
5a
bb
82
2e
04
84
76
4a
d9
2c
51
46
e8
54
08
b1
9d
ef
85
1f
4a
75
fe
29
9b
0d
13
aa
31
1a
f9
a9
36
6d
77
7f
bf
3c
95
1a
db
24
51
95
a8
50
e0
44
1c
28
87
22
a9
2b
cd
66
25
10
41
6e
ac
dd
65
df
dc
7d
b1
c3
ec
70
44
f8
e3
1f
ad
48
5e
5d
3e
9e
50
77
67
bc
11
43
79
2e
da
46
79
cb
8d
d1
23
4e
d2
76
8d
70
ca
af
dc
14
22
ef
3a
81
61
c0
86
2d
55
e3
27
e3
4e
be
32
87
1e
31
5c
b8
70
62
95
09
bb
8b
92
89
75
5a
12
78
f6
97
74
92
d0
30
f0
05
2e
df
d9
e1
2f
2f
13
48
ed
63
ee
6a
55
cb
bb
8d
6c
f8
6e
95
28
5d
c0
c0
dd
0e
cf
b0
13
59
47
74
6e
33
24
c0
4b
00
a4
69
f2
5f
3b
34
93
d4
d8
0e
f6
b2
db
f0
0b
fe
a0
23
31
67
35
53
d8
4b
c2
ec
2e
00
f9
8b
97
a4
e0
25
25
68
fc
41
8b
4b
03
63
5b
ad
3b
17
74
78
2e
4c
58
f8
a0
ab
54
18
16
7e
79
10
ab
15
7c
63
ef
02
3f
90
32
e8
d5
44
6b
a9
d8
58
0d
a8
d9
7a
67
4e
13
dc
0f
90
79
10
1d
6f
b6
6a
ac
f2
5d
82
6f
1a
5e
61
15
a6
ce
3e
ec
ae
a5
ea
e1
51
fd
4d
07
33
4c
9a
ed
31
5e
b6
de
93
65
57
e9
d9
a9
4b
36
2e
6b
9b
8a
fa
4b
01
fa
81
f6
93
3e
c2
92
57
8c
25
37
e0
e6
ab
2d
fe
48
28
ff
45
3b
3a
56
d9
1a
00
de
e0
f6
38
ee
e6
24
a7
1b
41
48
53
e7
02
48
8b
4b
74
2b
a2
36
34
ab
43
ed
88
13
2a
ea
61
63
36
58
9c
92
3f
5e
96
20
f9
fe
d0
55
c5
f4
a6
c4
13
41
9b
00
9f
60
f6
a2
b8
cf
28
4d
d1
ea
70
c1
39
17
44
61
dc
48
93
f9
ca
ea
6a
9a
ae
d3
04
cc
66
ea
7a
3f
4c
e5
13
1b
f8
b8
7c
31
b0
55
2b
5d
91
07
e4
0b
f1
d7
58
2f
3f
88
a8
6b
8a
6a
eb
09
c1
8e
a1
86
b1
64
3c
e3
2f
a7
ea
1b
b2
9c
ce
5b
44
08
e4
ab
ad
f6
b8
6a
ab
ee
e8
f5
dd
9a
67
05
1e
c8
ee
74
dd
cb
f2
e7
18
0d
85
b2
12
bb
45
f8
18
bc
29
22
bc
7e
05
5f
25
b1
e8
fa
2c
dc
b6
20
0f
cf
ef
bf
ee
10
46
f3
4e
3c
21
34
29
f4
87
e3
43
59
f2
b8
24
ef
d7
b2
0e
bb
17
8c
72
bf
26
f7
36
48
11
5c
dd
8c
15
99
d6
cf
3a
51
64
35
f6
bc
53
45
ba
09
ab
fc
98
4f
4f
be
f6
31
cb
fe
55
e6
35
5d
2b
3d
a1
da
78
34
ad
07
02
ac
25
a5
fe
b0
c7
55
78
4e
9e
f4
1e
d5
0b
5d
3e
0f
a5
95
72
3a
2d
f2
84
78
75
be
35
3e
d2
40
94
f7
4c
25
e0
a3
1b
1c
eb
3c
8b
6a
eb
02
0c
72
76
61
cb
ba
16
43
a8
42
63
44
77
f2
3d
96
e0
f3
00
c9
99
1b
79
73
75
4e
1c
f0
01
c8
31
c0
6c
f5
3a
e0
58
be
ac
5f
94
a9
48
40
b7
38
37
b4
35
d3
ec
50
3f
6a
de
72
65
fe
5f
07
6b
6c
5f
70
65
9b
fa
ae
b0
a8
1d
87
c6
70
26
ab
03
8d
f1
e8
87
bd
95
82
b8
e1
e1
6e
d1
aa
67
ef
6c
63
ec
58
f5
c7
97
27
00
73
6f
65
18
ad
0e
93
d5
47
ed
44
c6
48
51
3e
7c
c0
78
4e
47
4b
8f
79
53
6c
c1
ab
bd
b1
9a
79
e7
7a
4b
9e
55
8c
52
87
68
75
ef
44
56
69
b4
a0
3e
c6
7e
8b
a3
07
4a
04
bd
7c
59
0c
ae
4e
d1
47
ce
cd
02
8c
8d
3d
f5
3f
6d
0f
88
3f
68
88
ae
55
9d
5d
37
82
3b
aa
90
ae
48
df
c4
34
0e
29
d0
fd
31
ac
6f
c9
de
6b
f9
85
1f
1f
c5
4a
54
f6
e3
34
e6
4b
e7
2e
24
0f
2c
be
d9
61
e1
11
7a
56
06
8f
10
68
e4
19
06
ab
c7
4d
b5
94
51
fa
3d
0d
50
ad
22
55
06
19
f3
98
4b
af
91
da
dd
a8
4d
dd
d9
97
53
27
f9
c9
7a
d9
45
01
6e
11
36
b0
28
65
8d
d2
bf
f7
2d
1e
28
6b
29
c9
01
f4
9e
07
7a
2d
c3
4f
1e
2d
d3
c2
e2
e1
07
4b
ee
23
48
f6
3c
01
be
69
db
d9
be
26
c8
57
36
4b
92
bc
1d
d5
27
0e
28
b9
56
de
8a
42
d2
ec
53
6f
b6
0d
27
32
da
1d
0f
3a
c7
68
d8
08
8e
30
37
a4
c7
72
63
65
8a
a2
b8
19
b8
cb
e7
36
b4
5c
5f
95
73
52
d4
19
88
46
70
4d
c3
f0
e8
62
dc
5c
eb
99
e5
c1
eb
cf
73
dc
6b
06
24
84
d6
b2
b4
f6
13
71
eb
00
59
6a
c1
2c
6a
d9
97
72
06
f3
30
92
e8
72
43
1b
74
3e
d2
8d
89
f4
59
55
d2
cf
4f
53
25
36
c4
99
e5
59
32
d7
d1
8d
95
79
94
2c
5d
3c
e6
0a
00
86
4f
64
8e
07
88
6d
c6
b2
cb
2a
d2
37
03
37
b0
81
ca
39
40
41
fd
e1
64
cd
dd
9b
53
bc
41
95
37
e7
6d
26
55
93
1f
b6
18
75
0e
c7
04
82
c4
35
07
73
e0
b7
f5
0e
cc
2f
b7
8d
1b
55
b9
e3
76
71
bf
e8
d6
22
70
f2
a8
e9
56
b1
e4
17
01
08
14
1d
c2
dd
10
e5
d5
10
68
df
9c
51
72
ad
53
cf
e2
4d
5e
b7
3b
a7
d1
49
d0
0b
0d
19
c4
58
7c
19
89
e0
66
07
ba
7e
a3
62
d4
15
5f
2f
e3
ef
c1
71
f4
3a
87
49
26
af
23
95
23
2f
c3
05
ea
73
77
78
79
81
4b
0a
f4
d4
e3
e7
cc
e4
84
87
37
78
f5
ae
83
9c
14
01
7a
f4
37
a7
21
92
ae
ee
c7
02
ad
02
1e
dd
7a
5d
a8
ec
c9
56
63
c0
4c
59
68
7b
8b
6a
f6
43
8c
42
cf
28
27
56
3b
47
c6
9e
4c
43
da
19
f7
8a
19
30
84
18
3d
66
c5
f2
1a
fc
be
69
ec
66
ba
dd
ee
4c
23
35
d7
40
97
42
77
a9
b4
0c
4d
50
ab
1a
22
45
8e
93
24
3e
f0
be
de
c2
f5
07
8b
77
42
ff
5b
e6
58
9d
15
52
53
88
38
b4
b9
c1
7a
0f
e9
ce
4a
b6
b1
f1
b6
4f
05
08
8c
93
2e
2b
dd
a1
18
8f
8e
5b
af
40
ae
4a
00
c9
62
dd
1d
cf
11
27
1e
2a
70
8e
87
08
a9
46
f5
a7
fa
d2
23
23
14
4f
77
79
2c
71
e0
c4
29
cf
47
ba
7b
06
13
39
5a
c0
76
4d
e2
2a
a4
04
12
71
fc
29
e8
83
da
d4
af
4d
83
87
b9
88
b8
b8
b3
d0
d3
fa
21
58
a4
b9
fc
82
a6
3b
97
5c
b4
5f
88
4a
d6
91
b1
d2
cf
f7
12
31
e1
15
13
24
19
cf
7c
c0
cb
08
4c
9b
4c
8d
62
0f
2d
99
0e
24
b7
3b
39
00
c8
ba
06
8e
ea
d6
22
cf
4a
a7
22
bf
68
cc
ee
f2
86
42
8b
bc
2f
a0
15
9a
ad
1a
21
99
f7
66
53
0f
ae
14
9f
82
b4
82
ba
c2
b1
95
e0
31
92
e0
87
70
3b
14
f0
d6
51
19
cc
9e
28
9b
0e
b9
43
70
25
6d
49
fd
f1
2a
d9
ca
69
78
d0
65
63
37
de
96
57
e7
1f
48
0d
0b
5f
68
24
34
db
b6
74
84
ec
c3
13
a4
00
64
7e
5b
e0
65
32
9a
91
23
06
8a
31
b1
df
98
97
71
94
e3
cf
b9
ae
08
d1
60
cc
94
9b
fc
15
b5
dd
ac
68
4c
34
1e
82
a9
86
ab
b8
43
14
33
69
d4
d7
53
d5
55
03
9c
34
4b
48
51
f8
2d
16
ad
04
f2
2c
ae
67
92
20
37
9b
f8
f4
fa
88
37
4d
cb
83
13
c5
73
76
36
ea
cd
57
1d
1b
cf
f9
a7
9c
4a
0d
24
19
99
a5
2b
83
d3
92
dc
c1
ba
60
04
f0
d6
b8
66
d2
a7
33
14
38
a4
66
a7
19
ad
b4
56
ff
8f
1b
ea
ff
2c
c2
96
6a
7a
3b
73
85
2f
77
ad
70
b5
b2
04
f5
d5
3f
0f
1f
4b
5b
cc
91
c9
08
e5
1f
b1
bf
f0
73
aa
82
41
83
da
0c
3f
56
48
bb
5b
03
1c
eb
d7
65
a4
cf
70
67
ec
e0
d9
e1
26
e8
96
59
73
ce
e0
ee
4e
13
21
eb
ef
c2
02
47
62
c6
ea
09
d4
85
14
99
55
73
d2
cb
d2
ba
36
82
e0
f1
b4
58
2b
15
1c
49
12
e6
99
49
a2
61
1a
a7
3f
07
a7
fd
fe
02
ec
06
d2
12
a7
85
53
10
e9
86
d8
dc
a9
a6
57
57
04
d9
ed
c3
a8
a4
cc
03
a6
8d
1c
74
d8
9a
22
2a
b1
dc
c1
91
5b
9b
68
69
d1
02
06
3e
79
6c
31
07
2a
f0
76
19
c9
a9
b3
39
b6
d3
99
0d
d6
ff
a4
70
97
b2
0c
34
b4
0b
b4
2d
a5
9f
3d
60
e8
ab
e9
af
69
b8
e0
30
6e
e2
e8
05
3e
bb
96
95
58
50
34
e8
bd
53
55
7b
dc
a7
0c
ea
52
b1
2b
d2
a4
43
33
d4
33
fd
c3
da
30
69
fd
1a
56
a9
0a
23
b5
df
fd
9b
60
55
54
c5
8d
d8
af
49
ff
42
b6
3c
bf
01
ea
95
ce
ba
d8
a0
64
2b
b1
d8
6d
57
71
1c
63
3a
11
4e
b6
77
b5
16
af
bb
75
7b
b5
c7
82
9c
22
a4
4a
54
8a
7b
c2
37
5c
3d
ae
f2
6d
8d
69
57
39
b8
fc
58
2f
a9
ce
1b
07
c3
0b
f1
4e
aa
7c
f6
17
5e
ff
99
97
6f
14
98
bf
6d
b6
28
f9
91
b0
c4
cc
f7
33
bd
99
51
9a
b8
bb
29
47
62
92
8b
eb
5a
95
9c
a8
f7
77
ef
d0
4d
25
a5
57
8a
62
0e
5e
f2
ba
70
e5
23
67
52
7d
11
c8
a0
10
2b
d3
39
aa
b2
01
2e
1d
c3
bd
39
44
0e
54
f2
c7
5f
2d
46
cb
1b
3b
44
40
05
26
17
26
e1
1b
2c
6f
68
03
65
b1
14
e2
a9
95
cb
b9
36
ca
35
b2
dc
77
e3
02
1b
e6
40
77
8e
33
a1
1a
9a
29
60
c1
4b
53
d9
62
ab
bb
67
95
6a
c3
3d
d8
47
43
68
2b
46
32
f1
e9
43
4b
2c
15
a7
c7
17
4c
ab
31
b0
3a
13
45
5f
ee
b9
c0
bc
f8
6f
69
7d
57
f3
59
9d
7d
1f
d2
81
82
71
00
44
bb
03
89
59
78
b9
30
4d
2f
3c
13
96
8b
1c
50
55
6b
a5
85
f3
7c
9d
95
eb
36
b3
fa
e9
e2
cc
9d
65
78
db
db
11
f8
c3
3a
21
83
84
a6
a2
b7
fd
a3
03
98
ef
cb
bc
b8
27
1c
b2
88
04
90
dc
0d
b2
8a
c8
bf
71
90
b7
36
5b
65
53
d0
0e
93
01
8c
59
3b
9a
53
96
83
d4
c3
54
cb
4c
53
71
8c
c6
d4
aa
94
33
a7
fb
1e
dc
c3
23
61
d8
98
79
76
5c
f7
5a
46
59
3d
ad
3b
b3
37
28
4b
e9
74
e3
be
da
a6
f5
bb
2a
96
fe
b8
a4
07
54
d8
fe
0f
66
c6
0a
67
13
d5
99
79
83
44
a4
52
b0
6b
8c
72
4a
4c
4c
bb
0b
36
4a
40
44
17
a4
6f
b7
cb
bf
88
5a
ca
0c
76
75
b9
a9
d2
fa
03
1d
e9
4e
13
ce
8d
76
ce
e0
dd
77
00
78
34
37
93
91
b5
f2
30
31
45
6c
4c
fc
25
0a
5c
4e
b8
de
38
af
19
a7
9e
62
77
0c
58
f3
a2
bd
84
e9
61
51
c5
e0
e2
b3
2f
44
b6
48
eb
e3
e4
7f
c8
05
8e
60
3d
84
fd
41
3f
7f
17
55
4a
26
d2
c0
ad
ae
0e
40
fc
d6
78
eb
55
52
3b
4b
b7
7d
5e
9f
7d
c4
da
4d
f2
5b
a7
d9
05
e4
8d
19
3b
7b
fc
2c
43
40
cc
ea
ce
ba
3a
fd
a0
ac
ed
97
85
fb
c5
df
f6
19
2c
90
8f
04
57
18
d0
a3
63
20
69
d8
ef
70
f7
20
cb
3b
90
55
97
64
15
11
ab
19
bc
46
91
6b
ca
c1
c0
50
22
59
6c
40
5e
8d
ed
b2
a9
9b
b6
82
f8
03
20
b6
a2
eb
5e
fa
dd
db
12
5f
8d
c5
63
e5
82
ce
61
39
47
cc
46
4d
7c
9a
7e
af
55
bb
f9
81
77
a4
54
69
85
33
63
b0
1a
df
a4
02
aa
f6
e6
3d
ae
96
d8
a7
45
c2
8b
99
62
9d
e0
4f
af
64
a7
60
9c
1c
c9
b7
d4
fd
f6
c2
c8
62
63
70
fd
d2
7b
96
47
60
46
9b
8e
a5
02
93
79
c9
97
86
aa
a5
c9
7a
c5
33
f2
f1
da
9e
eb
10
b3
98
7f
21
12
89
7d
df
09
49
d2
0a
8c
69
be
6e
9d
e1
af
9a
42
98
b9
b4
1a
f8
55
07
08
b4
f6
ed
38
33
82
ae
03
27
af
fe
f9
4b
ee
cd
be
de
da
0a
f7
fa
ad
b4
a8
c4
93
92
07
3f
c7
08
df
c2
67
35
fb
fe
36
c8
7d
32
0a
46
46
ca
6c
56
20
01
7f
28
49
78
dc
c8
f8
13
76
3d
14
ce
16
15
1a
c6
8a
47
6b
e2
b5
55
8d
70
96
71
6a
57
35
84
34
68
0c
65
3c
08
88
1f
82
93
d3
5b
93
37
cd
4c
3d
77
3d
61
49
0a
1f
6b
f5
94
fb
8d
1d
97
cc
6c
32
ea
c8
31
f9
56
26
ec
b5
e1
21
42
36
6c
ec
fb
93
16
78
c7
e2
13
16
0f
7a
bc
0b
24
95
e2
fe
54
d4
0b
b2
b1
8c
d2
6d
15
1a
9c
39
62
a6
e0
99
91
03
87
21
cd
f4
9e
1f
b5
ce
2f
5e
8c
b9
8e
e3
f5
cb
62
6e
db
55
ad
c3
79
f3
d3
a0
7d
26
3c
bb
ca
0f
2f
de
6e
00
60
7b
d9
3f
eb
55
1b
4d
8b
f7
fa
c8
eb
9d
f1
5c
66
70
69
95
22
d1
d5
a9
63
52
53
c4
d4
45
55
8d
03
c4
0e
1e
4a
7a
e1
02
ca
86
e9
c7
c0
09
13
49
ea
ba
c6
41
0a
83
95
b5
60
62
e0
c2
a0
dc
ef
97
54
8b
cc
57
a0
fe
be
10
a3
9b
e5
3f
7f
af
c1
8e
c5
79
05
02
fa
c8
16
71
ae
be
b8
99
86
f6
57
ea
63
ed
50
4c
d0
63
f9
5e
7c
1a
dc
a1
5a
b3
3a
52
ba
d8
21
b4
63
32
de
69
4d
03
25
7a
d8
52
86
25
ba
5a
72
60
65
cf
74
69
4b
2a
8b
8b
8e
8b
84
37
6d
ad
60
27
32
dc
2e
e5
6c
96
ed
4b
fc
69
50
33
20
46
0e
bf
46
81
03
6a
40
61
a5
d1
e3
63
fd
14
6d
f7
d0
ee
d4
a5
ee
a3
44
c3
72
9d
d2
8c
76
e3
e9
97
cf
bf
a0
f6
e2
3f
42
51
dd
c8
63
3b
60
83
99
86
f7
dc
14
16
69
15
dd
68
65
ec
9d
ea
e9
7c
b9
46
d7
f0
1d
f6
96
50
0f
40
a4
58
f4
3d
a6
b1
7b
c9
c6
b2
5e
cd
b9
d2
22
5a
cb
4f
59
f6
09
f9
7d
20
d2
d0
02
27
3b
f8
59
79
3d
0a
e2
91
2d
0a
83
4f
69
ac
be
f4
4d
db
e0
0c
cf
db
c3
37
ec
49
56
c7
70
bd
44
4f
23
0a
6c
44
60
17
6b
94
cf
fc
cb
9e
7e
15
69
fd
55
d2
35
8c
3a
09
71
f6
2a
de
55
40
2e
6f
0c
0d
c0
f5
19
e3
52
eb
1a
8e
b3
a0
9e
cd
da
87
32
20
82
71
1f
6b
a8
96
fe
66
8c
bb
c1
bd
66
ae
c2
1d
af
d7
da
1a
18
3a
d2
e2
43
c7
17
46
8a
f3
5c
cd
14
1d
8b
a0
fd
9c
20
8b
0f
e4
48
c1
23
41
bc
4c
5d
e4
66
ad
1c
35
c0
e0
73
89
71
6f
75
96
5c
5e
a2
fb
00
09
3a
ac
dd
b0
28
e8
ac
8e
c5
c0
e7
0a
fc
16
78
a6
6d
38
9d
f9
59
c3
7d
b7
d5
0a
6e
3d
f0
0d
3f
1d
af
7f
ee
29
58
bd
61
b9
c7
7e
04
84
69
d9
09
b1
3d
04
da
1c
ce
57
a2
50
82
aa
a9
d6
f5
e3
9a
05
5f
15
a6
1f
fa
c1
b1
00
46
ce
60
39
51
ff
e0
77
35
c7
41
38
86
be
75
f7
03
df
5c
05
7e
44
69
34
26
3f
12
79
91
6f
29
0c
5a
c1
e0
9d
d6
fa
e8
87
9d
e7
cb
e9
61
fa
06
87
ec
cd
46
84
9e
47
52
7a
45
1f
9f
3b
00
11
0d
0b
ff
eb
3b
e5
7b
37
6b
3c
5d
be
50
b8
b7
05
f0
12
3b
48
bd
df
94
8d
c4
77
a4
62
33
36
a6
27
bc
9a
67
e8
4a
48
8a
da
5d
c0
46
da
3a
b6
6f
32
bc
a6
49
5e
ea
3c
2a
84
91
6b
38
ca
dc
b4
dd
a3
20
27
02
d4
3d
04
99
0c
4e
25
4f
fa
d1
4c
1b
1b
ec
ad
d3
10
8b
71
8f
5c
4e
92
c5
be
12
fe
88
1f
36
ab
db
6f
47
1b
f7
bd
dc
78
e8
72
6d
02
e2
40
ea
88
37
34
b2
24
c1
54
23
12
f4
ce
57
3c
b4
e6
dc
10
f6
d1
e9
d8
70
ac
c6
62
49
44
38
6b
31
b2
4a
73
2c
50
9c
9f
a2
ed
b1
08
06
23
31
0b
3b
15
72
f7
f4
ca
61
92
a6
a0
21
96
35
f1
f1
e2
5f
9e
14
42
ce
40
d6
93
65
b6
ef
c2
05
a5
d1
ef
70
c8
d9
b1
c3
24
4a
08
2f
fd
7d
96
b1
51
96
15
4e
b8
76
a8
3a
