f5
4e
68
2a
d4
5d
7d
82
ba
c2
96
40
d7
2a
95
5e
68
73
ab
2e
a6
65
4a
ea
4c
5c
91
ee
2e
ce
5c
a0
22
ba
52
11
68
19
df
69
a2
67
17
a5
46
33
d0
00
19
55
31
f6
1f
fd
8f
8f
8e
c9
cb
39
4a
f8
7a
30
2e
22
09
78
b8
8a
e0
c3
b1
e6
d0
8e
a6
63
99
74
33
92
3d
36
7c
6f
1d
98
6b
a7
2a
a9
c0
bd
d8
b3
c8
9b
d1
f5
a2
a4
02
a8
41
8f
4f
f7
ad
e4
9f
53
fe
53
25
1c
9a
be
d7
b9
a1
01
30
19
51
98
eb
91
e2
68
8e
ea
ec
30
dd
5e
22
1a
e3
2f
a3
9b
24
85
78
17
cc
00
15
03
da
cf
22
6b
cb
14
16
49
62
e7
e5
f3
0e
8a
92
77
6e
c7
de
21
76
e3
04
d8
45
99
90
5f
2d
6f
17
a2
01
4d
d6
3c
66
c3
77
e8
4e
c8
e9
84
28
2e
b3
db
8e
5c
b3
24
25
12
3b
2e
52
89
69
e4
e8
d3
82
db
fb
48
52
47
a9
24
50
68
7b
60
f5
35
99
ee
78
44
af
f5
0e
48
05
1b
de
83
6f
fc
1f
1d
95
b0
34
26
df
98
9f
5c
29
e8
f0
4c
d8
a7
9f
b9
dc
5c
c8
4c
11
ca
0c
da
03
c6
c3
95
f6
0a
7c
5d
69
b7
35
da
16
b6
c6
6f
b0
06
6d
d8
57
a9
33
cf
aa
d1
b4
d7
8a
20
e3
af
95
81
64
e4
12
75
48
56
b8
42
8e
8d
23
48
48
8d
85
1c
7f
a2
67
b7
d7
10
00
9e
ee
d2
6d
05
94
7b
f3
fb
46
c1
a2
c9
9a
63
f1
9c
db
9e
c6
5b
f0
4d
22
07
91
05
aa
21
c6
27
87
4d
97
7d
f6
36
af
e8
b2
9d
e2
f1
84
99
e8
12
cb
99
bb
1e
15
cb
f8
89
9d
2d
c0
77
7e
93
8d
eb
c4
3d
c0
93
e7
fd
b6
1b
63
98
d5
d1
78
31
e6
c9
3c
f8
26
b9
20
28
cd
fc
f5
bf
f2
7e
7c
e0
6f
38
f5
e2
bd
e7
3c
12
af
e3
91
e3
11
e9
17
62
ce
ff
6c
43
d0
ee
ca
61
f2
8d
77
3b
c8
90
25
9c
88
e9
6e
ac
01
a1
7e
1a
35
0a
ba
24
f5
e1
65
7a
97
02
e8
1d
87
6e
98
17
2f
27
97
1b
98
0f
f4
8b
a1
fd
7d
81
cd
f8
da
c1
57
95
19
be
57
28
d3
61
64
5c
44
95
c6
10
35
19
33
9d
67
a7
f0
13
2a
6b
