72
bc
14
ff
50
6d
2d
63
74
68
fc
06
c5
ea
36
84
e1
e8
14
65
26
78
60
53
69
25
0f
65
62
a4
13
a7
c9
b3
94
82
24
b5
7f
53
fc
67
62
33
78
84
5e
5d
f0
1f
e4
89
72
3b
0f
ea
9a
02
53
17
ea
08
12
da
b4
6e
b5
ce
f7
2c
cf
cc
d4
2d
65
f9
c4
f9
33
83
d3
6b
1d
57
ac
1e
dd
ae
a6
cf
71
98
c7
23
ad
dc
ca
94
74
a1
37
42
ae
46
4e
a9
06
c8
00
2c
bb
17
1f
73
20
e9
3b
87
1e
9a
b6
4c
44
81
f5
26
af
5d
f3
40
6a
4a
e9
12
44
6d
d3
74
eb
71
ed
9b
b1
3f
0f
fc
46
7a
7e
e0
8b
63
c0
c7
6f
89
4d
a1
bf
37
3b
82
83
ac
4c
21
95
6e
70
d2
c0
17
54
35
3d
45
bd
72
8e
49
7e
a3
8b
d5
eb
34
75
b9
f6
50
66
96
d1
8e
b2
57
ef
6c
d5
35
73
9c
3e
93
49
c6
40
95
59
33
85
79
90
db
14
86
2b
53
fb
4c
09
d0
76
d1
19
af
08
b9
9e
43
4d
0f
27
9b
52
de
91
54
43
1a
e4
fb
eb
19
f1
dd
67
8f
07
fb
72
63
9c
f3
ec
e9
