df
6e
7e
37
0e
6f
df
70
83
cf
8a
5f
ce
fc
78
22
d4
cc
74
37
2d
cf
a1
18
0d
6f
8d
48
f8
35
af
bd
a0
3e
a4
eb
09
53
e9
06
08
6d
bb
d5
e6
fb
d6
2c
b4
84
c8
c5
65
7b
b5
88
f3
d2
47
13
e7
a0
36
b6
f9
ee
b8
25
15
0f
f4
fe
a2
07
90
1c
bb
ea
30
6a
2c
f1
72
7f
9c
50
19
a4
0d
ff
c3
a7
24
6b
11
f3
53
bf
aa
35
93
ca
e3
28
18
db
d5
d1
38
72
58
8c
c5
88
1c
1d
6d
5e
0a
03
0b
90
f0
1c
ef
0a
87
53
03
87
d0
8c
55
5f
42
ca
46
f8
e2
e7
36
36
d1
2a
47
99
13
ba
40
9f
d5
b4
5f
98
0c
0a
da
58
c1
2f
6e
93
b2
47
2b
9f
ac
25
d2
d3
85
71
82
d3
c4
99
4f
87
53
ff
3d
8b
5e
67
60
92
a7
31
90
76
60
08
e5
35
d8
89
d9
dd
51
1a
6a
20
8e
fb
fb
54
82
9f
e4
ff
4e
71
8f
89
09
59
7d
33
2c
03
81
d2
53
ad
a3
0c
57
e0
95
90
7c
10
37
6e
ca
58
69
89
2c
4c
ca
18
d9
9b
77
65
74
d2
87
4d
30
6a
4f
a5
b9
49
