d4
bc
4e
f9
40
42
59
f0
f9
6c
7a
9b
d0
91
fd
c7
d8
3e
3f
fd
38
af
10
96
f0
f1
29
8c
0a
52
7e
14
a7
ce
6f
79
d8
42
e6
1f
68
d0
a8
59
b5
21
74
fd
a5
60
e7
6d
86
1e
7c
17
b8
f1
5e
2a
fd
1a
1a
47
1d
11
67
91
9e
84
03
26
9f
18
18
99
d5
09
a0
5a
2f
6c
b5
18
72
e7
fc
48
0c
d2
95
0a
54
c1
9b
84
b6
a5
84
dc
08
b4
d4
07
d7
92
9e
b8
11
e9
75
0e
b6
b5
dd
71
9a
8c
7a
55
5e
ef
11
0b
0b
62
48
e5
5f
5e
87
e8
e3
22
6b
b6
14
0e
c3
b6
17
a6
85
5e
b4
fc
6d
9f
b7
f0
09
05
fb
a2
bf
e8
09
cd
55
06
fb
9a
1b
e8
06
c9
0c
09
a5
96
85
49
1f
b6
f7
06
fe
11
b9
3e
42
b5
8e
7f
4b
f8
77
78
0d
b5
dc
53
14
b9
20
f0
48
d6
4c
56
56
7d
12
5a
07
c4
8f
c4
ed
69
37
e6
72
7f
90
e7
02
0b
52
64
37
fc
c9
d0
e4
d3
d0
0b
b4
98
4a
22
f8
eb
94
49
17
58
c4
4d
c7
e7
d3
9c
ac
f8
9d
6e
21
cd
67
16
d3
36
f9
b4
