f9
0e
35
26
e5
9c
f2
19
18
35
5d
92
33
9e
48
0b
6f
84
fb
77
05
10
a3
6b
90
1d
24
69
51
f7
76
3a
f8
33
c8
d1
f9
a2
3a
b8
e4
e2
f8
71
22
bd
6d
ae
92
99
d4
ed
c0
c4
92
15
eb
84
69
ad
19
15
52
13
4f
cf
7f
ab
cf
92
f2
a8
08
b4
ed
d6
3d
7f
da
50
0c
f6
1e
5a
e0
d5
8f
fe
73
49
72
e7
c4
76
0e
69
63
68
82
26
1e
43
51
4e
6d
55
0f
f6
3d
23
4a
8b
5c
cc
9d
9a
52
93
5b
1b
1c
60
7d
f3
09
0b
a0
2a
0a
03
37
a1
32
7e
de
d5
09
45
d1
21
3d
20
0c
2e
4e
9e
20
e1
3e
d8
8e
3c
2c
02
d2
a8
99
fa
f2
26
30
55
2a
c7
73
8b
c7
02
ee
2c
57
38
45
b3
67
24
2b
50
18
97
7f
17
54
b0
86
70
b7
00
68
1b
74
21
ed
db
dd
73
77
54
e0
20
d8
72
a0
4f
f4
5c
53
c3
90
25
a1
a8
44
54
65
a3
fb
fa
70
b3
46
b2
2f
d1
e1
a0
20
95
04
1b
a7
ab
5c
93
33
64
99
fd
04
fc
dc
21
10
89
d2
f7
96
0d
6f
71
ce
6c
b9
8b
dd
64
