df
a2
a1
08
c3
28
48
96
00
67
fb
10
fc
a5
c4
2e
15
ef
8f
66
8c
a5
ee
68
b4
b3
43
d4
32
29
e5
60
26
56
15
93
a2
dd
88
3e
f2
45
05
a1
1c
e3
15
b6
04
28
ac
19
14
c4
7a
78
c3
88
3c
36
01
38
e3
4a
67
44
f1
98
7d
9f
91
35
46
9c
88
87
30
32
9e
93
41
c8
71
6a
75
ca
29
79
f8
44
01
bc
fa
af
2c
5c
50
3d
3c
82
d9
e9
b7
e6
f8
77
f2
8f
18
87
1c
b0
02
e5
fc
0e
74
e7
60
57
cd
b1
05
61
bf
cb
ed
1e
64
30
07
69
7d
60
c8
f6
bf
60
d1
ef
d2
be
f0
ff
e1
05
88
3f
92
62
ab
69
4d
eb
8d
ca
d8
4e
09
0f
53
6c
13
8d
d2
b7
36
94
87
6e
53
2f
74
49
61
50
a2
ed
b7
03
6d
3c
4c
12
0a
a1
e7
0f
c1
f1
ed
ab
b8
56
35
51
1d
3b
7f
aa
9e
30
32
73
3e
cd
98
40
b5
7a
72
8d
9e
e9
2f
7e
e3
65
f2
81
f1
2c
bc
fd
bf
05
72
c1
42
b6
cf
58
a4
d5
c5
a7
0b
28
02
3a
a7
1b
8a
77
24
f2
f5
59
9c
5b
7a
c6
a9
2a
98
03
c4
8f
ed
f6
a5
39
f5
66
ee
ad
40
2e
a2
f0
15
21
26
e3
d0
04
ea
75
df
64
39
4e
51
c0
a8
9d
06
9f
18
f9
d0
e5
63
05
af
6a
60
d3
47
d6
2e
94
3c
2d
ef
d3
1b
b9
d1
c7
e6
f4
96
2c
c9
f8
1d
1e
15
aa
c8
95
a6
e6
98
e4
d4
60
75
0e
e3
c5
bf
c1
83
52
67
d8
dc
84
21
1a
81
12
ae
93
cd
fb
f3
61
6b
07
99
d8
f9
2d
23
0b
93
0b
d2
7f
5e
71
26
53
9a
2d
f4
1c
0d
3c
ee
b6
8a
d7
9d
1e
a6
b2
20
f1
57
cc
c8
1d
a6
ba
f8
b4
49
f3
5a
31
e4
8a
d9
50
d6
57
90
d3
91
bb
32
df
57
43
b1
c6
d3
81
36
58
72
66
12
18
da
31
b1
7c
70
0d
c0
60
60
be
ec
fd
21
97
e9
5e
fe
b2
b7
3f
87
6c
f7
96
bd
9d
f8
1a
d2
01
a4
38
8e
92
ec
c8
db
db
fe
1e
55
ab
65
56
68
4e
a2
96
19
46
9e
ce
83
01
d2
b1
b8
d1
ce
ba
29
ce
29
3e
4f
17
62
18
17
77
06
4c
29
0a
91
44
cf
67
99
59
64
6f
2e
cc
b4
9b
45
09
a3
26
51
97
3a
e3
