9d
0f
8d
5e
b4
8c
89
38
3e
dc
ac
54
25
20
de
bc
3a
46
5a
e5
3d
b7
c0
09
41
78
6b
b9
0e
f3
2e
f0
eb
3d
c2
c4
03
b6
0c
13
fd
f5
4c
c8
2f
61
92
d1
6c
3d
8f
bf
22
70
e0
60
d0
90
dc
83
ba
c5
d4
8b
49
5f
5f
c5
a8
b1
61
7b
88
c7
d0
3d
0d
9a
09
4b
19
18
8e
16
d6
16
0f
12
38
bb
33
8a
7f
22
62
a5
26
a6
78
9e
98
15
7d
db
9a
01
0e
7b
25
68
c0
34
37
e4
19
0e
f3
98
d3
33
a7
88
6c
77
51
d8
6b
02
b0
5d
8f
7a
4d
17
af
cc
ca
8e
ac
bf
46
89
22
fc
4d
29
82
7e
74
ae
fa
d0
91
c1
03
a0
6d
0a
f8
88
ae
61
9c
df
3c
5f
3a
29
17
98
9c
c5
83
df
f2
51
ae
48
d6
9a
cd
fa
4b
2e
93
f0
85
32
ea
d5
45
68
d2
3f
fa
90
96
1c
47
cb
8e
1a
56
37
f6
a1
81
a8
ce
69
58
32
53
ab
49
20
d3
28
07
22
aa
e9
0c
0b
5e
6c
bd
0c
ca
bd
72
c8
88
b0
48
3d
0b
11
24
5f
76
38
73
52
37
83
37
4f
3b
19
da
5e
47
a2
20
69
26
7c
db
b9
f8
99
8e
b3
88
75
3b
69
ff
e4
6c
d1
66
63
58
26
04
cd
e0
36
e1
33
15
82
2f
3d
be
0a
6a
aa
f6
ea
a2
c7
da
b7
f6
52
22
f3
35
14
cd
f1
97
55
3a
56
09
68
7b
c5
48
7b
82
63
64
58
b5
50
df
f7
9d
f1
5b
2a
a1
fd
ca
ad
ca
24
94
43
50
4c
8a
90
33
7e
3f
9c
87
a6
73
f0
8e
52
5f
86
30
c2
c1
61
39
6d
75
6a
b4
bf
56
6b
a1
b4
bf
3d
cf
34
0e
18
5b
dd
60
4c
b5
6e
ea
79
46
d0
5f
2c
18
68
4c
56
e4
f6
e8
c5
19
13
e1
54
a7
9d
7c
14
9a
59
b8
06
17
84
67
1d
0b
f7
f0
de
cd
92
85
2d
31
06
43
14
40
60
99
4e
0d
49
2f
93
ce
22
e3
87
69
e5
14
05
ae
41
40
a1
c1
c8
99
fc
87
d8
aa
0e
00
e4
8a
83
b5
ff
18
01
e3
a4
32
06
6d
21
ee
bb
5b
b7
c2
53
72
4b
70
42
2f
72
91
de
49
a8
10
db
29
c3
b8
eb
de
2d
8f
d3
6d
c3
93
23
e6
e4
ca
32
36
1f
4d
87
9a
52
5a
92
bd
8d
73
11
89
31
a5
42
e4
98
1b
b7
a0
07
50
90
de
8f
a4
00
05
52
ba
38
a8
b3
29
60
5e
a1
d1
67
91
99
60
91
dc
4c
81
40
d7
8c
cd
3d
36
db
7b
98
b1
a4
0f
82
cf
6d
d1
46
01
f0
42
7d
e7
b4
55
bb
81
cc
6c
8e
08
5d
4b
43
87
88
bd
19
f7
1b
47
44
cc
2f
f2
67
40
ee
9c
b4
a4
1b
d9
b5
4b
bd
56
88
9f
4c
2c
8a
69
3f
62
93
fc
de
05
aa
a1
e9
f0
08
66
2c
ed
e1
af
7f
eb
d1
c4
ba
ca
5b
9e
86
5e
4d
02
bb
92
aa
df
b3
8b
a7
3f
d0
fe
d6
4d
09
c3
9a
ac
7a
bd
b7
cc
d9
96
e4
52
8b
43
89
94
6f
73
31
81
2f
df
6f
e7
ce
ac
b6
dc
66
0a
e9
a5
4c
05
e3
d0
d3
1a
aa
e6
25
32
56
6d
cd
3e
89
44
7b
4b
bd
c0
77
59
e8
e0
b8
09
0b
5b
a7
44
f7
76
72
86
15
17
66
1d
83
57
bc
00
d0
ed
4d
10
eb
67
ee
3a
b8
00
18
05
64
2a
a2
e2
a8
de
2d
ce
3e
af
3d
68
be
b2
13
66
65
f6
44
67
32
d3
c9
63
45
44
a5
5d
f6
27
f3
38
75
fc
d7
73
55
ac
79
d0
a2
11
64
9c
a4
6c
2a
e1
25
21
8a
d9
e6
d0
f6
03
ee
66
92
89
65
6e
06
81
6e
62
9d
1c
eb
2f
76
46
2c
fd
0e
93
5b
7b
cc
60
60
aa
30
86
71
72
4f
08
a3
8f
9e
64
df
6a
a2
16
be
71
7c
f1
22
76
c9
fc
a4
a5
87
03
e8
bf
8e
f9
19
86
4d
85
2e
92
77
34
af
32
16
a8
86
ed
c1
82
0d
03
15
a3
09
3f
1a
d5
94
d9
b8
49
81
c1
d2
7e
5e
d0
8d
e6
ee
1e
82
56
ea
f5
16
c8
04
a4
c9
83
db
21
70
da
d7
15
4e
b7
66
5a
2a
21
db
df
6f
f0
13
06
69
e9
b6
b8
c5
37
87
67
e3
a1
37
7a
cd
42
70
1c
f7
b7
af
d6
27
20
06
d2
af
6a
bb
e1
41
53
0b
fd
c1
ed
2c
cd
2d
75
70
f3
22
fe
b4
64
97
c1
48
0d
83
a2
c2
87
dc
c5
45
99
14
2d
be
a7
79
6f
20
45
f5
e0
c6
58
3f
3a
89
8e
16
f9
8b
35
df
17
88
c1
48
b7
e8
46
cc
e2
de
b0
4c
98
c6
f4
d9
b7
fd
d6
99
eb
d5
93
d3
e6
87
85
3b
65
f7
09
1d
6f
e1
a7
15
c7
c3
15
04
0f
a5
ce
9b
f8
a0
76
54
36
39
cc
88
13
44
24
c9
45
ac
3f
c2
21
5d
be
3c
90
b0
dc
11
ce
c2
5b
7d
b4
f1
96
91
ba
37
64
d8
7b
a0
9c
c8
57
a9
61
70
0c
ad
75
70
5b
8a
93
fe
c5
f9
99
fa
3c
a6
23
19
e6
61
19
e8
ba
69
cd
96
7b
6a
f2
74
43
3a
71
a5
2f
cf
d1
ca
f4
a9
c9
83
e1
63
e2
e5
7f
95
fb
d9
68
3e
e9
fc
da
d4
c0
9b
31
c9
8f
5f
39
5d
1e
4b
77
60
1f
95
69
2e
ce
cd
f1
cf
70
3a
20
a0
f6
b3
01
de
c6
d7
f8
86
c7
b0
35
bc
8c
56
ad
19
af
a8
3d
68
b1
e9
b9
13
f9
61
6a
cc
b2
e0
13
cd
8a
e6
ec
55
e2
5e
bc
03
2a
ca
be
fc
f8
15
ab
93
f2
83
12
e5
2f
86
76
61
83
90
ed
d2
38
5b
e6
5c
bf
37
6d
a4
29
48
5f
55
77
07
c1
38
52
30
a1
a4
03
f2
42
a7
43
7d
6d
52
57
36
f2
bf
57
86
b7
dc
54
e9
da
19
ac
b0
cf
70
76
64
b7
49
cf
63
e0
d3
0f
3a
e3
8e
3c
f3
ab
b3
00
0c
df
19
8c
4c
2f
8d
14
cf
6e
e4
7a
86
ff
a0
f2
83
9f
f4
74
6e
d9
2d
e0
5f
4a
b0
a8
e9
be
f8
00
69
67
c9
b4
6d
97
5c
ff
f1
c0
9d
24
cd
00
b2
e7
da
ee
72
73
46
82
1a
d7
61
ce
35
36
bc
ce
0a
f8
23
aa
a0
3c
c5
46
35
a1
71
4e
4b
25
ee
c7
61
2c
46
53
d6
03
8b
9b
4a
c7
35
6e
6e
fa
b9
b3
87
9e
27
7f
35
2c
50
07
c1
f4
89
2c
51
94
29
ca
96
c1
41
0a
f0
86
7b
45
b8
ee
9d
f2
3c
c0
da
6e
ed
48
68
5e
2f
ce
42
d3
43
75
d6
a6
2c
e6
1a
c5
ae
64
43
9e
7d
d5
8c
d8
0c
58
61
43
6b
7c
02
df
1b
dc
3c
cf
0e
11
8a
42
4b
76
62
c8
aa
52
8a
68
a3
cd
fd
83
03
e1
1f
48
8b
db
44
0e
5c
d1
75
02
3b
6d
e6
ed
7a
de
6e
34
53
b4
09
a0
c8
fa
ad
31
2f
27
75
23
69
97
c4
4e
aa
59
cc
1e
1f
48
b6
f4
4f
2b
56
ba
8a
b4
27
ae
c5
68
81
b3
10
4b
e8
64
5f
28
9a
44
2f
8d
7e
98
48
4a
16
2c
dd
75
ab
5e
9f
e9
c4
44
2b
25
d2
e9
d5
14
8e
13
dc
79
61
f7
83
5a
35
fa
90
29
64
2a
34
17
e1
fc
82
12
f2
16
4f
43
e1
5a
bc
d8
d4
40
95
da
ca
97
22
05
bf
d8
dd
84
2b
c5
09
29
b6
7e
4f
16
68
14
08
3c
ea
0b
bb
38
4f
0c
db
8f
2f
71
fe
b8
5b
ef
66
d2
d2
6d
1d
0c
fd
05
7b
1c
29
62
de
16
c6
4f
65
0f
32
27
c7
f2
1c
77
26
3b
58
14
94
ee
23
26
3c
02
14
9d
ba
88
6e
cf
53
63
e8
c2
da
81
f1
7c
a0
7a
fc
2e
79
60
52
ac
df
bf
d7
2f
ef
64
3a
be
53
93
0a
4a
eb
95
fc
19
60
a9
cb
62
b2
a8
9f
6d
81
c3
f1
45
d8
21
45
71
d2
ed
37
b1
b3
3a
88
1c
5a
8c
18
61
1f
ce
41
c7
6b
9e
34
cf
d2
43
50
ec
cc
a7
e7
6a
a1
b8
20
75
a5
a6
4e
7a
8d
d7
02
4a
57
e4
ea
fc
43
ac
56
7c
ae
df
18
a4
a5
65
93
59
c6
86
65
51
30
e5
91
57
f0
77
b4
64
76
71
62
b9
02
67
62
c5
eb
21
59
64
e2
fe
6b
76
5e
0c
23
c3
82
72
ef
cf
6f
c2
92
c7
c9
84
ad
28
74
ff
4d
db
4a
e3
bf
ca
b1
36
99
2f
36
2b
b5
f1
26
fe
85
02
67
87
12
de
1a
6e
13
66
b9
db
24
f4
85
5b
b9
cd
4d
3e
68
cc
fc
75
01
b7
6a
ba
b4
83
ff
4c
74
a6
76
6d
6a
ac
a3
36
04
c9
b4
98
fe
91
de
de
30
c5
56
05
ad
d7
0d
09
6a
92
b8
f1
c4
5b
21
e7
4a
85
33
02
6a
e5
f6
17
61
77
03
5f
53
dc
49
0d
f3
7a
be
59
47
f6
a8
be
72
84
07
64
e2
b5
53
29
d8
8b
fa
24
18
b2
29
79
62
83
d8
dd
de
91
bd
03
1b
63
a1
5d
fe
cd
78
89
01
b4
ee
59
30
89
17
84
f2
f3
dd
91
dd
01
92
ac
47
8b
5f
47
11
4a
bd
ea
e1
fa
08
ad
de
f6
df
4c
2a
52
6d
75
ec
2b
23
05
bb
51
cf
5b
55
0d
df
7a
29
ae
da
14
45
c9
88
09
28
bc
4d
bd
2c
c9
b9
8a
db
ff
0e
cd
e0
a9
51
13
55
0a
9c
99
52
18
86
82
12
14
f8
62
31
a0
47
67
c3
84
ed
e8
af
71
54
1d
66
83
09
83
ab
d4
6b
32
00
a7
fe
24
bb
2a
ea
27
01
66
5c
28
1a
66
71
dd
31
9c
d0
11
3b
b1
5c
1d
f3
40
0d
46
7c
94
7f
47
cb
6d
13
37
cc
06
24
1b
e6
e1
6f
f7
94
23
ff
c7
b0
14
66
6e
fb
c6
4a
b9
f3
60
be
bb
8b
44
5d
08
b2
b0
47
59
4f
e0
a5
54
73
12
d1
b7
ad
0b
01
d3
e7
e3
e6
26
b9
49
40
b0
16
5c
48
7d
ac
e7
2b
be
b1
bc
ee
e8
b7
82
83
aa
56
2c
e5
ed
ef
82
17
3d
62
04
4d
18
93
26
87
0f
ef
58
7d
29
8a
30
dc
2c
13
4d
fd
93
3a
07
31
c6
b4
30
29
3f
63
f5
bb
9f
a7
2d
69
9e
d2
34
f5
3b
44
e1
f2
fa
28
38
ff
eb
6e
c7
4b
2f
26
81
c9
d1
11
0e
35
10
e4
5e
d6
6e
ad
c5
fb
15
2d
c9
87
1a
ed
25
c9
83
64
74
a4
09
a2
12
5d
10
f7
1d
51
c4
61
e3
ed
5f
70
d5
82
b7
fb
f8
b4
26
69
d0
21
c1
42
87
43
18
eb
96
d6
f8
a3
1a
9b
91
50
e3
53
fd
58
31
56
df
b2
4b
6f
69
e1
bc
18
8d
6a
0d
0b
45
54
71
c9
39
58
1f
51
73
38
48
2b
10
6c
2a
86
b6
d4
95
1d
37
57
7c
b6
c8
c1
82
7a
1d
26
a4
7e
61
48
6f
d2
0d
94
d1
31
24
66
cd
6f
b7
94
b3
51
d1
f4
eb
5a
c3
21
95
97
b0
b7
d5
75
b6
77
33
33
d3
9f
f9
44
53
bc
5c
a0
4c
c0
41
35
9e
1f
e0
a0
27
75
b1
14
f4
97
0f
72
7c
d5
a6
7e
f3
5a
e6
ad
1d
d1
4e
68
51
35
cf
f2
a5
af
34
8c
3c
00
11
2b
56
b0
f9
fa
e8
a0
dd
52
85
e4
78
44
bd
2b
b9
2a
22
0e
70
0d
7c
47
32
7b
99
33
5e
82
23
8d
31
18
da
88
64
f5
57
1c
c9
bb
be
9e
e4
8d
5b
05
52
be
7c
14
95
b2
17
98
65
3b
d7
b2
31
c2
a9
04
ab
c6
4f
09
eb
b6
05
d6
4e
b9
d2
1b
d6
7a
e5
34
c1
2b
20
b9
3a
8c
8f
4a
33
0f
4e
60
6d
b1
9b
5c
d3
f0
6d
99
5a
f6
2d
ab
d2
4a
17
61
59
08
03
0b
11
4b
8c
d9
8c
2d
1d
cc
77
5b
df
63
cf
09
b7
c7
42
9d
cd
6a
46
39
a1
b3
ba
42
c0
03
8b
16
1a
4e
7e
17
ad
73
7b
2c
88
cc
67
e4
3a
03
cb
5e
64
98
69
53
c8
7b
4a
1f
b7
d3
ab
d6
0a
12
9b
18
87
bc
af
b0
61
12
42
fc
36
8e
5d
b7
ea
a4
27
22
af
03
95
97
10
b4
9d
00
51
42
70
4e
32
c3
68
de
35
f6
a9
2e
c0
3a
e4
ed
81
d0
44
8a
9b
b8
e7
91
b6
c3
1a
85
e5
4c
f6
ec
7b
14
ae
c0
c1
06
d4
a3
be
e0
de
44
db
a5
8c
86
bd
d9
42
72
47
97
68
77
e2
00
50
c3
9f
da
47
24
15
50
b4
86
8d
f2
61
f1
de
ce
35
e3
c8
06
63
a5
42
ed
82
28
3a
66
42
c1
1c
65
23
b8
ac
47
4b
d4
0d
df
e7
39
fc
86
bb
75
70
ba
c0
c3
59
05
cc
ba
ee
bf
29
59
9b
57
94
ee
d0
4c
d3
57
ff
a6
12
f5
a1
a9
c7
26
a7
85
8c
7b
96
ef
f7
be
c8
23
f6
64
42
0b
88
a0
f1
10
28
c8
0e
c5
cb
db
fa
04
65
96
e7
97
85
3c
71
af
9a
17
df
cd
b0
21
9b
3d
02
f5
2a
38
f4
19
a7
17
be
2e
9a
25
04
62
cc
62
9e
85
e7
e7
43
08
56
e4
ac
c0
92
bf
c8
e4
1a
97
9d
59
9a
93
98
33
cb
2f
2e
dc
24
0e
d0
1a
dc
57
8b
da
4b
af
e9
c5
e2
1f
53
0a
ad
8b
fb
84
77
ce
d9
3a
3c
dd
0f
08
56
d2
66
c0
00
8e
d2
95
56
d2
32
43
a3
b5
8e
e4
9f
9e
29
40
8d
d8
fe
38
a0
48
91
74
c5
f1
a3
9d
f1
19
93
51
ba
5a
eb
df
20
32
58
52
df
ff
14
02
28
70
7d
00
eb
b5
02
02
c3
11
f4
ae
27
65
a0
f9
16
90
c6
33
1f
09
33
b0
d6
d2
db
bb
7a
e9
da
8b
c7
d5
5d
f6
24
c9
3d
40
21
50
7a
f7
ab
31
57
5f
24
bd
41
a7
4e
cb
ab
ae
38
6e
b0
49
9b
91
ee
0a
08
21
ba
32
13
17
b7
b5
51
dd
39
40
ab
a9
10
96
0b
0e
bd
65
4c
69
d1
5e
a2
0d
8a
c2
0d
8d
8e
32
2d
e4
3a
2e
f0
5b
e9
b1
ef
d2
62
cd
a5
4c
9b
55
e6
9f
b4
e8
59
0e
cf
15
16
aa
70
f3
76
f3
f4
fc
3a
1e
48
d2
c0
61
0d
52
ee
77
55
ba
54
3f
fd
6d
86
40
01
7d
7d
e1
83
c9
69
5b
d1
20
3a
b9
c5
bc
51
75
40
64
f8
4b
b6
c4
b3
dd
5c
cd
b2
42
04
40
4f
4b
60
7a
7e
11
2b
e8
1b
38
fe
2a
e6
71
f0
1d
28
da
fc
6e
1f
dd
13
14
8e
d3
11
45
3a
7d
da
8d
7b
66
92
2b
46
d1
ee
93
4e
b2
bc
5d
e8
71
8e
0e
07
ac
19
e4
01
d9
58
b2
a0
ce
be
90
68
0f
6a
c2
0d
47
27
ed
c1
9e
2b
5b
90
77
37
89
34
0b
6d
0a
da
9b
b3
92
65
88
f6
ff
5e
9d
be
25
df
95
5b
bb
ab
6c
5a
e3
92
a2
e4
04
7f
92
a9
36
2b
b5
cc
12
dd
d2
81
f4
3e
e0
5f
90
ed
67
4c
4d
04
36
c8
bd
a3
74
c8
a6
07
84
11
e3
b2
d0
91
9e
09
d8
ae
12
e0
17
e2
66
8f
a2
30
28
b6
ff
58
dd
66
b0
fa
f0
20
e8
7b
8d
a8
2d
aa
5a
c0
89
61
ff
2a
c1
00
66
01
92
5a
7a
e6
ab
a6
40
42
db
39
bb
03
19
c0
b0
4d
24
bd
31
cc
d8
b3
19
13
d4
34
bc
ab
ad
91
2c
28
c7
95
27
a0
69
e0
05
7a
fa
05
27
6a
b5
bc
ab
83
8b
bc
59
4f
92
05
05
4f
ea
50
4e
67
cf
0d
ea
c1
49
d3
9f
c4
a7
e9
e8
0c
a5
bf
1d
f9
8d
11
fd
63
b4
bf
56
92
6b
97
f2
04
4b
d1
58
9d
ca
07
e3
5f
da
8d
05
33
75
ef
8e
7b
3d
92
7c
05
b0
18
e6
6c
b0
f6
61
87
ef
84
de
a9
07
28
85
02
3c
df
11
38
5a
28
5c
d2
4e
87
62
97
38
7e
ec
ce
01
13
12
a4
e7
62
1b
59
c6
09
16
11
7d
c6
b6
32
eb
93
90
b2
32
85
41
a1
9b
97
db
58
ff
cc
eb
a3
ee
b3
39
15
60
a6
40
52
08
da
36
19
d8
9a
17
68
6b
f5
83
98
d0
97
9c
95
ca
ea
bf
4f
e9
d9
20
c0
ce
54
41
da
f6
66
f0
a1
c4
d5
9e
04
b5
d9
b1
30
1c
43
dc
90
05
cc
88
0c
1c
b2
e3
e3
b7
34
30
17
b3
a6
08
42
54
bd
a8
b0
89
66
3c
87
dc
b9
d1
ac
84
89
14
eb
2f
f7
d8
fe
c7
1b
16
98
e1
86
44
3f
e5
72
7d
e3
20
7e
f7
1a
4a
d2
5f
15
e7
b2
38
2d
36
45
81
7d
16
e1
fc
e1
e0
2f
88
dc
2f
88
7a
17
c1
3a
dc
84
73
a2
2a
f1
ae
21
ba
1c
dc
ac
a1
e2
05
55
7c
9c
e5
84
48
a7
4f
28
a6
60
9f
4b
e4
02
3d
6e
d0
a0
a8
2f
4f
ae
d6
55
31
a8
83
a0
89
0e
de
00
0b
d5
8b
cc
73
27
2e
fa
dc
25
02
78
4d
ab
70
6b
70
49
c1
a4
05
56
78
6d
a5
55
a7
2d
f0
49
61
5e
ca
eb
24
7e
d0
61
a4
f6
67
ca
ab
e4
82
a2
43
bf
7e
17
0e
48
3c
68
1a
19
60
73
ac
3e
4a
ff
19
cf
6e
9d
29
e0
b8
97
c6
3e
1c
4e
ff
7b
ad
12
d3
ce
82
fb
6a
74
e7
f8
28
01
1b
9e
41
b3
11
ad
78
a2
08
39
bb
17
9d
b5
5c
e6
58
de
0a
13
d9
c2
4b
f9
a5
84
11
23
85
15
9d
a8
2c
d9
86
4a
33
ad
5e
08
6f
57
b2
1f
77
bf
72
58
4c
96
26
1f
62
5a
01
93
8c
0b
da
c7
8f
3e
ce
9e
a1
fa
f8
d8
ba
88
ae
e2
f1
04
9f
a4
86
bf
de
c5
26
da
e5
54
85
6d
43
0f
23
a9
da
2d
99
6a
51
c8
57
c4
34
e2
8c
03
2e
fe
48
6d
3e
73
74
3a
c6
40
77
7d
fc
93
49
ea
25
e6
96
13
8b
1e
36
28
c5
be
1b
dc
3a
36
e5
af
5f
74
3b
a4
6d
2e
3a
c2
5a
36
a0
f6
c4
8a
65
66
a4
3a
f7
a4
7d
d3
c3
0b
4d
c1
2f
ed
b0
b7
09
3e
60
b8
bb
f9
08
ef
51
43
94
3e
7d
d8
f1
b4
ca
50
4d
05
8e
9f
91
44
eb
8d
b9
73
99
87
01
8d
d1
4a
7e
0a
3f
9a
82
bd
98
a6
90
a1
c9
3b
7a
9e
5f
fd
fe
dd
52
60
dd
4e
1e
88
2c
27
88
1c
99
5c
fd
40
28
f0
24
43
2f
44
b3
6a
38
0b
33
33
72
a2
7e
cb
19
95
16
23
61
c1
23
5d
c5
96
1e
e7
03
bb
be
55
18
b0
60
42
9e
19
91
10
cc
60
20
41
7b
24
12
02
88
8d
f9
85
7c
1b
54
3a
a1
d8
ca
f1
ab
b6
c7
6b
3e
ec
22
5f
c7
15
b8
5a
a2
ae
ea
9f
35
64
21
fd
4d
a7
b6
7c
0f
bc
12
7e
55
6b
1b
2b
04
6c
b3
24
f4
dd
cc
d9
91
bc
8c
8f
d1
de
2c
0f
90
11
73
d3
ee
66
18
7c
cc
00
2b
25
bb
11
5c
b6
e7
ce
04
05
77
1d
de
62
c6
45
64
83
fa
b6
a6
f7
be
54
60
e7
54
90
a9
f3
ad
95
c1
2d
d0
6d
6b
d0
c3
77
3a
3d
c9
b0
37
11
ad
84
14
86
e2
65
07
9d
4a
ae
93
10
c5
f2
f4
d1
0d
28
e4
05
97
4e
c1
19
5a
95
e0
49
56
6c
50
72
05
39
67
91
03
aa
91
e7
33
68
81
df
59
51
15
c3
18
d6
8f
ae
87
db
e1
89
e2
db
12
53
86
d1
aa
10
d7
52
17
b1
90
9b
b2
7e
17
42
f0
ea
cb
e1
cd
41
5d
c3
23
b6
3a
5e
20
3b
dc
0c
8d
57
c2
cf
df
c5
78
2f
2e
83
bf
ee
d7
6c
74
11
27
58
e6
31
cd
93
3a
e8
57
ec
0b
4b
e5
ce
90
b0
dc
20
7d
78
54
48
db
17
c7
5d
3e
cb
09
95
c5
eb
43
8d
07
69
be
87
17
d7
31
f0
c5
c5
a6
8f
64
03
09
bf
d0
7b
1e
c3
ce
1a
50
0f
93
af
81
2e
31
34
d5
d9
63
c8
84
79
94
e1
73
49
23
00
cb
06
f8
0f
db
ce
ac
f3
7b
6a
fc
89
bf
c7
9b
1d
9f
60
bd
32
0c
25
0d
ea
4c
0c
a4
2f
3b
c1
cb
1c
e6
bc
2c
b6
fe
66
90
86
18
45
3b
e2
d9
b2
b0
29
42
72
0e
40
45
8c
1e
8b
cc
6b
6c
90
26
f1
14
3f
f1
30
5d
6a
cd
b1
50
ad
9c
d3
64
ed
8c
1f
57
66
0d
cf
47
3d
1c
dc
45
85
ec
da
8c
43
b4
ec
dd
19
8b
24
0a
97
34
a3
f0
e6
f2
e0
81
46
ec
87
f7
23
be
06
b0
05
01
cf
ca
7d
28
27
7d
d2
89
f6
55
71
d5
43
e0
50
51
41
fa
86
ec
b5
00
de
04
f7
b8
77
7e
5c
cc
7e
fd
7a
60
f0
fb
d5
01
83
77
49
40
7c
b9
58
16
0f
5a
79
07
1f
60
79
94
5b
d6
91
c5
83
76
a2
4b
56
b6
64
67
f6
df
4d
2a
0b
32
6c
28
11
6b
b5
79
4a
37
d6
6d
c3
73
97
b2
bd
91
dd
92
18
56
c5
2a
8b
16
90
34
6d
8a
16
07
19
47
57
69
aa
2d
62
46
b8
c7
5d
30
1c
87
a7
cb
6c
c1
19
47
2c
e1
c6
df
a5
9f
64
03
bd
f8
f4
dd
03
3d
77
87
89
8c
7b
98
88
f5
26
b0
a9
a1
59
d5
65
3d
1e
2d
2e
f6
bf
b9
40
df
88
43
a3
63
c7
be
14
ca
bf
c4
e2
78
77
f2
24
40
2b
43
e8
67
55
13
ad
aa
30
bd
a1
ed
83
12
3b
6f
97
6f
fd
66
62
2f
ec
21
6b
88
96
01
f2
38
4b
f4
85
a8
e0
3e
c3
91
d7
aa
c3
d5
4d
6e
d2
ae
0e
42
73
18
59
a4
e1
58
a4
02
cf
86
0c
87
df
67
cb
df
9c
31
6d
51
02
e3
33
c5
c8
2e
d3
46
0e
d1
12
b4
de
00
5f
55
b3
8e
b7
33
67
a6
8d
58
5a
5e
a2
c9
e8
10
18
d8
68
14
29
7e
54
cb
ca
46
a3
7b
ea
55
c2
97
7b
2d
ba
3f
3d
fc
62
79
60
6d
ea
b6
ce
35
c2
fd
ec
f4
94
ce
70
68
0b
44
86
56
13
8e
fc
09
89
70
fa
c9
2e
2e
df
58
f4
dd
df
4b
b9
b7
50
96
9e
48
a4
6c
b7
4b
99
df
29
03
da
2f
51
b8
37
57
f2
15
09
ae
70
7b
16
2e
6c
23
03
d5
35
50
f1
84
0a
c7
b1
3e
c7
f6
61
b3
ed
ad
94
66
a5
5e
82
de
28
9e
ba
b4
3c
a3
21
ac
98
c6
f6
52
2a
11
08
3c
cf
b8
8e
b0
17
99
38
76
4c
02
fc
2a
54
d9
ed
98
0a
e1
ce
40
8d
ea
07
96
2b
85
8c
58
70
f7
4f
cf
d1
47
7e
e3
a1
f9
86
83
71
7c
fb
d1
d2
69
84
fb
4a
b6
59
6b
eb
24
90
18
43
11
38
e9
d7
f7
1a
66
66
7a
bb
16
e8
dc
79
86
47
cb
99
8d
7a
d1
ee
86
da
bf
b8
61
52
79
12
e0
04
d1
a6
cc
c8
d0
75
b5
7a
4e
13
e7
28
63
f4
c1
1a
97
33
21
77
83
8f
fb
57
9e
ed
fb
30
b2
1f
f9
66
70
4d
4d
3b
c6
d8
bd
fd
ff
7c
a8
ff
5c
f5
c8
63
93
c2
b7
a9
27
85
75
72
54
d7
0e
2a
b2
0c
43
7a
e2
36
e1
0f
db
ad
15
2f
25
a4
7c
52
9b
54
e2
5a
24
0a
76
04
aa
bd
79
3e
e2
64
b3
20
d9
cd
0a
ca
92
a2
c2
3c
f6
f1
dd
27
27
64
b8
5c
34
ba
3b
63
da
b0
26
12
6b
78
f5
e0
df
ce
20
70
f2
28
0c
6a
43
6a
33
4c
9e
6a
5e
bf
6c
21
86
9f
6d
1c
65
9d
48
2f
24
d4
67
8f
02
e8
32
53
e8
36
f4
f5
e4
0d
37
d3
4d
da
01
fc
60
74
6e
fe
c6
7b
04
85
eb
64
74
ec
ec
32
2c
b0
66
42
49
53
d6
9f
06
a7
d1
a9
a2
14
8d
0a
17
f5
65
ad
1f
e9
c8
2d
20
30
a3
5e
e8
6e
9e
34
f7
85
16
4f
f4
be
2b
a1
92
4a
00
77
fe
a5
4b
ee
eb
b0
6d
20
6e
a6
c1
00
ef
73
63
2d
39
1f
03
af
64
48
e2
03
9e
11
83
8f
29
79
54
a9
76
f2
92
05
fb
5b
a7
95
82
c4
90
1f
09
47
65
1a
17
92
02
a4
87
21
bb
b8
0d
87
4a
18
ba
15
30
85
a9
d7
10
31
ed
84
97
11
fa
50
e4
67
a6
e3
f8
ea
08
5d
7d
e4
5d
1a
2d
00
a6
48
63
b1
17
45
2c
12
b5
5b
d3
3c
47
35
ae
07
c3
53
96
37
93
10
6a
37
8e
af
74
a2
a5
7e
c2
b5
8c
a4
8b
7a
34
a0
52
c6
67
73
cb
c4
0a
64
84
52
f9
10
86
d7
b8
24
64
e5
85
4c
f7
6e
5a
8e
8d
b9
ac
e1
44
9e
a5
62
c5
6f
c5
73
dc
d7
54
ee
e4
f1
07
fe
60
12
dd
90
8a
c5
9a
a6
0e
04
7b
93
be
e5
d9
dc
f9
09
a2
f7
4e
fa
5d
33
c4
30
b1
3c
ef
2a
bb
fa
20
d8
41
f2
34
ac
19
f2
dc
22
41
29
6a
6f
f8
3f
f5
ac
b5
a3
cc
70
1b
0c
91
6c
20
ab
26
c8
8a
a8
02
49
c4
3d
ae
11
ad
77
82
dc
61
f3
27
c8
af
4f
a4
0f
4b
85
df
fc
5c
15
fa
7d
f5
18
c0
d0
ef
0d
4c
89
1b
0b
fe
4c
4f
a8
4b
dc
dd
f5
e9
28
a4
06
ef
6e
61
dd
12
10
e1
9c
ab
ea
93
57
bd
92
01
f9
b9
23
94
c6
ad
da
71
0e
34
bf
84
30
33
ba
b4
1c
2d
5d
5c
47
89
bf
7a
17
f8
8c
49
17
cb
86
01
df
d0
7b
9d
02
6c
61
a7
3e
a7
ea
41
cb
18
04
a4
05
28
a4
7b
cb
7a
3b
01
88
16
67
77
46
f6
27
49
da
e3
03
ac
54
cd
31
d3
8a
6c
62
0c
46
d8
71
6c
2c
75
36
f0
db
a1
23
76
d5
49
2a
96
45
e8
f7
6f
7d
3b
51
da
f0
8d
70
ea
d4
af
16
11
74
b5
a3
17
9c
a6
6e
fb
46
69
fe
5d
86
98
ac
bd
28
36
4b
9a
d8
51
52
e3
c5
67
95
26
c4
da
22
df
5b
98
87
81
8d
69
39
54
d3
50
dc
aa
52
a0
da
93
89
0a
bb
2d
4e
5d
38
a6
d9
17
5c
4f
d0
6a
e9
2a
21
c7
c3
81
c2
50
9c
0d
44
12
5d
90
1d
21
85
66
16
f5
39
d3
f6
0e
46
c4
42
c6
00
49
3f
71
b6
95
1e
79
84
28
a8
60
89
13
64
68
45
fe
0a
21
5b
46
ac
f5
6f
b1
6f
9c
51
dc
30
74
3d
e6
8c
d9
4b
e6
a9
57
6d
82
75
5c
7b
15
46
6b
0c
43
7c
e0
29
22
0e
bb
cc
8e
c8
54
b1
88
ac
6e
16
54
85
2c
8d
17
77
75
e9
84
09
8b
63
07
c9
4a
e3
fb
37
39
bf
71
3f
7b
0f
8e
45
e0
f6
61
37
da
b2
4f
48
40
5b
2a
62
31
5f
42
0c
39
3e
11
61
3f
14
64
5f
c6
4f
d1
c7
95
cf
b2
d4
18
2b
b7
f7
39
08
98
38
ef
77
0d
ba
91
9b
4b
07
0c
f3
7c
fe
da
e4
ba
c9
f3
39
e8
ad
e7
f6
94
83
a5
83
ff
41
d2
f1
1b
e1
2b
b0
af
be
6a
30
1d
33
3a
6e
f5
5b
c4
42
6a
33
c2
47
c7
01
c4
87
da
e0
cf
49
35
61
0d
af
0f
5e
b8
5f
3a
72
40
de
6d
83
9a
18
9a
46
22
cc
07
56
d3
95
26
30
fe
57
ad
71
b8
36
5a
0b
4a
b7
6d
94
0f
f9
2d
53
72
ef
19
65
4f
86
5f
1c
e0
69
22
6d
16
38
cc
49
98
ff
70
0a
18
75
d0
fe
a1
90
f4
a9
de
e3
9a
31
2f
e6
d6
4c
f4
a6
7b
04
12
41
a2
ff
d4
ba
d3
c6
a0
ee
eb
de
9d
ad
72
b8
4a
49
9b
03
0c
d5
69
b3
6d
05
56
de
65
60
07
29
92
50
a7
1d
c5
52
e3
11
e4
e3
a5
b3
0e
b5
ae
bc
74
2b
f3
98
8e
30
87
a7
ef
26
d8
b7
05
57
ed
e1
b5
18
21
c8
6e
a0
1e
c4
2d
c2
06
06
a0
f6
8b
07
04
d0
2e
de
aa
8c
25
e6
f0
61
e1
9b
f3
94
a8
9d
f8
8b
92
dc
a8
88
f0
bf
73
0b
dd
27
85
98
0c
23
43
f2
49
a3
8b
79
4c
09
2f
fa
11
0b
38
47
bc
42
ac
46
ce
c7
6a
91
82
1b
7e
fc
22
db
64
a8
d3
30
20
82
6a
e9
60
a9
e0
5d
df
f4
90
5c
f0
be
f5
46
e9
ae
63
76
4c
d9
86
0a
d5
6b
1e
17
e6
0c
48
fb
2d
25
44
9e
f7
f2
c2
82
4c
65
1b
8b
0a
49
49
93
2d
8a
6f
97
5e
c3
e3
d6
76
2f
43
19
ab
8c
6c
8d
c9
92
7c
ac
3f
19
3b
a1
35
34
33
4f
21
31
89
61
ea
1f
6e
d9
b2
74
90
a1
01
65
d6
ad
96
6d
a0
b4
f6
e8
24
aa
6c
a4
b8
1e
4c
12
a6
1f
1c
34
bd
b6
f7
c6
58
f6
79
99
2b
8c
50
21
00
ea
16
28
8f
1c
3a
63
48
9c
18
6a
ed
0c
b9
9d
88
b8
4c
26
3c
07
4a
27
e6
0b
8d
c8
ff
bb
23
ff
78
2f
e3
56
8d
cc
5c
c2
97
d9
a3
50
d7
ff
e6
8e
c8
2b
14
ef
0a
e6
a5
d0
c6
e3
36
ec
72
a8
75
a3
20
de
f2
5a
50
d8
8f
74
e2
83
26
fd
1d
96
3a
53
16
d1
98
88
dc
c0
d4
9d
05
bb
9e
3d
08
a7
f2
28
85
d3
6b
10
a5
9e
63
91
8f
49
b1
3b
1b
e3
8e
c6
c0
dd
9e
af
73
f4
90
08
5a
00
43
16
09
92
2c
ff
1f
02
55
5b
8b
e2
cb
01
b0
0e
c7
8e
fe
09
57
53
f5
3d
01
c9
db
87
1c
d7
3d
71
7a
06
df
00
35
3e
1c
13
91
46
5d
d9
b1
3b
81
68
ce
c7
e5
46
74
19
3d
55
33
e5
16
f4
17
c7
29
d7
f6
50
8f
8f
b5
dc
68
89
c8
d8
5c
4d
22
70
dc
81
67
e4
09
b1
05
c5
a7
af
21
cb
73
4c
df
95
b7
6f
1e
d0
84
d6
ab
e6
bb
a5
a5
c4
1c
1f
e2
41
26
dd
4a
e6
e8
c4
1e
a1
df
c7
1d
8a
26
62
2c
ae
4a
00
83
78
78
de
76
3a
2d
1c
fa
11
d7
2b
9d
f5
5b
3e
8e
8b
a5
36
38
2d
55
50
16
06
e9
a5
3d
73
77
6e
17
e6
b0
68
a2
2b
c2
82
65
99
d1
b0
e3
52
08
1b
33
b4
e1
c2
5d
f9
e6
7d
02
d7
cd
15
05
71
33
93
30
60
2c
0d
4b
ea
12
07
47
14
e7
63
1c
d4
88
46
bf
73
46
98
ed
21
88
ac
1c
c2
ea
df
d5
fe
bf
d8
c9
bb
d7
2b
a4
8a
e2
83
32
24
67
f7
28
dd
f4
18
d6
fa
3c
bc
34
96
18
ce
2e
c2
3d
a7
97
1c
63
cb
3c
37
f5
9a
b7
de
d2
98
d4
ad
61
1f
c0
6c
a5
7c
ad
a1
d0
24
f4
c4
24
22
60
23
64
59
c6
5a
55
aa
77
ca
b1
1f
a9
6b
7d
78
11
c8
f0
6c
07
f0
5c
00
e4
d6
7e
47
a4
73
37
15
c2
08
5c
94
4d
6f
f8
ec
3d
0d
6b
b6
73
2c
98
b4
53
13
5f
9d
d5
85
d6
98
d5
74
3e
dc
03
5c
66
5c
37
48
c5
c3
68
5e
51
95
3c
5d
e6
e1
a9
61
a9
4b
28
7c
27
0f
83
fd
9e
24
ee
98
79
5e
17
d4
88
8a
98
f2
25
13
d0
53
90
03
74
c2
5a
9b
51
c4
9c
d3
cf
38
df
e1
4c
cf
66
59
7a
23
cf
26
d7
39
e0
da
bc
33
49
81
aa
22
ef
73
79
4e
c5
af
9a
23
9b
0e
13
5a
93
c3
21
48
af
0a
2b
d4
04
39
53
46
4b
2e
18
7a
a8
06
4f
71
a0
20
57
b6
96
ab
48
94
4e
1c
d3
3a
68
66
cd
0d
21
dd
7a
32
a1
70
b7
cf
ee
58
e7
a1
45
6a
8f
4b
ee
d2
03
f5
21
b3
8f
d8
38
b6
fe
38
2f
0c
8a
52
04
44
31
a5
e6
7c
ee
68
21
55
9a
6a
28
4f
df
a6
7c
0d
59
7b
d7
5a
ea
67
ce
fb
9d
ab
c7
42
51
7e
d8
d5
a0
14
37
19
f5
30
e3
4c
4f
01
48
64
a2
e4
01
73
ae
ca
31
87
1c
91
ec
d3
2e
34
5a
3d
78
44
dd
f4
14
41
6f
98
4e
8d
9f
86
0a
d4
cf
ae
23
d8
2d
3a
63
b8
da
66
df
01
10
2b
13
1c
a4
66
ab
58
a0
0c
41
a2
86
8e
f4
b6
eb
d2
ba
59
6d
43
c9
ff
16
72
97
20
2f
3a
c2
e2
f2
f2
c0
03
4a
59
a3
f7
12
c6
6c
de
5b
21
20
7d
12
2e
65
a4
cc
a2
f0
62
73
b4
2e
2c
af
12
ce
a7
8a
e0
ac
7e
f9
c8
12
15
2f
7d
07
28
15
e1
d4
95
32
cb
9d
df
5b
46
62
a7
a5
db
3d
9c
15
fb
0e
bf
50
4e
52
79
f2
86
a3
5e
6f
52
a6
4e
01
ca
25
7e
40
aa
5d
f9
d9
2b
de
5e
e2
97
d7
bc
3e
8c
30
09
12
54
d3
62
7c
c2
8c
4c
5f
98
f2
97
fa
d9
31
11
9b
a0
d0
3a
0c
c4
04
be
e0
09
c5
e3
ed
7a
ae
7b
4e
4d
05
ed
46
7b
9e
37
38
f5
bd
f8
7b
f3
d2
94
a4
c6
0e
c9
89
d3
0b
7a
91
d1
07
29
a8
d9
49
79
ab
8f
ee
24
4b
88
3c
27
5f
87
59
36
a6
86
42
1f
24
0e
d8
fa
b4
65
f3
8f
cb
08
af
ea
95
78
ab
ae
05
29
2d
9b
58
4f
3a
35
86
07
03
74
0c
3d
f0
9d
58
34
c4
53
ae
a9
fa
5a
85
f0
63
0c
14
e1
e7
6b
4a
d3
fb
22
61
07
51
7d
43
98
0f
78
bd
f2
17
ab
9b
21
d7
04
17
f5
7e
19
58
d3
2f
d0
bc
1f
e0
58
3d
56
44
52
fb
99
31
51
e2
11
ab
cd
a1
bc
14
89
26
33
5b
8a
7d
d1
71
72
44
23
da
9e
7a
2c
44
9e
b9
d1
d2
e9
2f
c2
54
1a
d2
2f
20
09
a7
f6
5f
65
32
4b
11
76
d6
fe
f7
04
22
6f
15
6c
c4
f6
48
87
35
d6
9a
10
f9
05
42
62
ac
73
54
cb
e7
47
08
00
da
9b
6b
96
c9
d7
bb
5d
71
c9
6d
c3
34
84
a5
25
08
3e
63
52
53
09
01
55
bc
74
ba
89
76
e2
5f
85
64
ca
4c
fd
81
30
fa
74
64
05
22
00
20
0a
55
b7
3e
f1
e1
f3
a0
f3
36
4b
6c
5d
e2
ce
6a
a6
c1
aa
ab
07
61
02
ad
d2
a7
ed
c2
0f
16
2b
3d
73
e2
6a
79
0b
5a
72
a5
24
4b
ce
8d
d2
7c
64
5a
67
f7
d1
1b
41
20
d4
f3
17
10
c0
4c
58
73
cb
4d
2f
c7
25
4d
c6
2a
6d
4d
53
18
71
f0
9f
07
29
54
d4
cf
af
1c
32
b0
eb
fc
00
49
7e
6d
20
ba
ee
6a
8d
d6
8f
39
e8
e0
b7
d3
2d
c7
76
b9
a0
e3
2c
e5
31
36
9b
e6
92
9f
bc
fe
cb
cf
8f
1a
7e
e0
2d
9a
e5
c4
6b
bb
f9
29
99
52
c1
96
7c
18
39
a6
89
3b
18
48
5e
5b
ca
74
8b
e5
2c
d8
0b
ee
01
82
c8
83
ab
f7
f1
38
de
02
ef
6c
c7
2e
df
40
29
22
29
98
4c
a7
19
e4
6b
04
0f
10
e7
04
ac
f3
be
85
04
68
a1
7d
35
76
f8
2c
01
d3
f0
5b
7e
48
16
e8
a3
d4
5e
e7
e8
8c
e8
f0
d5
07
78
75
99
3c
4a
26
3c
c2
86
70
23
9c
be
0d
d3
49
d9
12
68
95
98
40
c5
e3
47
f4
41
09
3f
e1
d0
60
00
e3
2f
43
f3
73
74
e7
0d
ce
4e
cf
89
9f
9a
e3
d4
78
84
53
4c
19
97
ff
57
5b
a5
36
25
6d
50
16
2a
0a
c3
24
10
4d
03
21
49
dc
cb
26
f7
4c
39
2a
7e
5f
d3
a3
b0
62
89
da
32
7c
00
e2
65
93
b6
03
22
98
03
2c
64
63
0e
18
e8
b5
06
44
b6
d1
7c
ac
f4
ea
47
ee
9f
0d
12
b6
ae
b2
11
a5
6e
61
2b
f3
58
4e
23
97
6c
fa
4e
49
b6
2a
22
19
c1
27
56
d1
19
87
64
31
26
0d
82
17
38
0d
e9
14
d5
bb
fe
32
75
9c
ea
64
25
1b
fc
c1
44
6e
a6
f5
8f
94
4d
5b
11
30
09
22
f1
65
47
22
9e
69
77
be
1e
fe
21
7d
20
95
6e
c6
1a
27
eb
90
cd
67
72
a8
92
62
8f
d8
38
6a
79
c6
2b
1e
02
66
0b
b2
3d
f6
f1
3a
64
0b
e7
b0
d7
4a
1f
eb
0c
e0
57
ec
6f
88
ad
d5
92
d9
e1
95
72
1f
39
16
18
64
39
08
53
6f
d1
8f
e5
bb
86
29
27
9b
d0
a7
90
b3
30
90
4a
82
15
a3
c3
5b
df
8e
46
79
66
9b
0a
ff
e8
8a
44
5b
60
b0
c3
69
78
96
90
b7
a4
98
71
4d
c8
ff
b9
ef
27
31
90
23
a3
e8
ce
b2
5a
13
2d
66
c1
a3
22
2e
53
e5
49
2e
2a
bc
b8
a4
4e
a7
69
94
33
dc
04
5f
fb
ab
83
b8
95
03
e2
15
da
9b
7c
bf
c4
8c
76
10
f0
6a
d6
a9
52
48
79
54
05
5b
a6
cf
0c
53
38
a3
c4
4e
f6
fe
47
7c
55
0a
66
6c
32
6c
bd
72
61
17
32
2e
ae
1a
50
e1
a2
3c
16
2e
81
88
be
2f
6c
98
eb
f8
4d
9f
2e
dd
a1
41
b7
b3
e0
75
bc
a3
33
f8
50
dc
99
4a
48
94
dc
aa
e4
2a
1c
12
74
59
6d
f5
7e
9a
a4
6f
25
fc
97
37
ff
0d
0f
3f
c0
00
26
f9
8f
09
e6
e3
0c
c4
4d
6e
33
93
a0
a0
53
76
3e
84
3f
0b
ac
c3
36
2c
f0
b7
a9
d5
cc
82
f0
34
e0
e6
33
c1
78
89
28
23
bb
1e
cb
46
e9
20
50
bf
84
f9
75
bb
8d
f9
c8
a0
19
0a
b6
68
1d
48
b2
a2
26
ce
b2
40
8c
da
f5
a3
39
36
c8
c3
6b
a3
00
a7
47
c8
03
9e
53
64
6d
f8
18
db
d9
11
8a
e5
9f
ab
cb
28
34
a8
fe
df
f4
ef
85
67
0d
d1
86
81
df
78
83
30
16
e7
02
93
cd
43
97
f3
5b
13
dc
c1
29
3e
23
09
4e
c8
3e
27
d7
6c
e4
6d
37
c1
b9
c5
c2
71
4f
f7
77
9d
36
27
bb
f2
d3
c9
e0
40
6c
db
91
e1
7b
78
76
d6
41
d4
43
72
72
c4
b9
cb
46
87
3e
02
69
c2
fc
f9
ff
f5
67
06
cb
90
06
b4
43
16
55
58
1d
be
50
66
3e
f5
c2
ab
8e
cb
e3
86
5a
22
7a
e9
53
be
87
a3
8a
83
f1
68
1b
52
d0
8b
5c
3c
bd
69
52
3e
d1
6b
58
ea
45
bb
e6
19
f0
79
54
c7
e7
49
07
04
be
41
22
93
fa
cc
9b
73
00
9a
f0
fe
f2
04
f5
5b
f1
da
f7
44
47
47
97
40
7c
c4
a6
67
6b
d9
77
95
c5
fd
5a
23
10
be
b0
15
28
e3
ab
6c
24
8d
67
09
13
21
66
a3
34
8b
ad
d8
4f
72
cc
42
90
0f
14
66
bd
78
c7
4c
3a
dc
e4
7e
58
79
ec
ed
5f
49
41
da
de
a6
98
8a
9c
a7
3b
cb
61
73
e7
c9
1c
ff
2b
b9
bd
f2
28
95
0b
ec
59
83
43
36
41
23
ef
07
32
1f
50
77
70
d0
f0
25
6d
48
ef
bf
b6
5b
e0
88
10
d0
af
e2
a2
f1
f5
d9
a8
69
e2
91
a2
f7
dc
ca
e5
45
98
3f
9e
72
ac
c7
4c
3a
9d
e3
9a
0f
05
03
68
f1
8a
c9
13
02
2c
11
5d
8a
db
66
8f
81
ac
19
8c
28
c1
9a
0a
c6
06
81
32
90
e1
33
6c
d6
dc
fb
f7
69
fc
a1
5c
83
ed
60
76
8a
49
d5
cf
f0
9f
7e
75
f2
ef
3d
e2
cf
70
64
35
84
3f
75
b1
ce
08
66
51
2a
df
95
e1
e2
02
a4
a1
14
34
53
90
4f
cc
0e
e2
c0
24
00
6e
e8
8f
6e
58
1b
27
08
14
03
ef
fa
75
e5
a2
e7
b8
ea
db
0d
7c
c0
7c
d1
30
7a
12
7e
97
38
3e
f9
02
22
e4
a9
f9
47
92
78
d1
84
96
0f
a9
4d
52
dd
73
90
00
84
f3
cb
3f
a5
bb
1b
75
57
c7
6b
64
91
7a
1a
b5
aa
33
52
83
71
6b
66
3c
b1
11
29
c3
a4
56
6e
25
af
c7
9f
ce
94
77
57
4c
45
45
61
bb
cd
bc
f2
5f
5b
4c
19
84
ab
4c
28
c9
ff
18
c5
cc
5d
9c
d0
3f
db
0c
3a
f9
18
9b
06
d6
24
ac
f1
6e
e7
d8
4b
67
56
56
f3
e1
7e
60
9c
21
4a
0c
98
39
26
bb
52
8f
58
ab
05
4d
c9
0e
b7
01
ad
4d
71
32
6f
68
f5
04
54
2c
a4
93
f1
9d
9f
39
2b
1b
3d
b8
b2
2d
ce
4b
76
f3
0b
73
d9
4e
ce
53
c8
23
74
08
fc
dd
36
79
cc
d8
52
c1
82
f4
d4
22
3a
f0
d5
c4
9b
d1
46
47
9b
2b
5d
b3
21
89
a1
ab
04
fc
fe
5b
20
22
9c
32
d8
fc
26
c1
0e
33
70
8a
08
6e
cd
05
8e
ad
a5
1c
f0
63
0c
24
ba
ed
cc
07
e4
09
87
40
71
3e
65
92
62
dd
04
6f
fc
2d
a7
3b
93
b7
7b
24
a8
3f
a1
59
51
45
f8
a5
d5
68
63
86
6e
63
cb
65
11
e0
9f
30
3a
59
17
3b
92
cd
df
fd
d1
13
f6
bf
3f
06
9d
61
46
dd
f5
0c
ae
5e
0c
a5
87
1d
5d
e5
0c
38
13
18
af
20
50
26
3e
88
aa
83
3b
92
97
ee
04
a5
59
50
84
32
33
d4
bb
36
c2
44
a4
dd
88
0d
f5
47
57
a6
b7
be
ee
76
29
54
7c
d7
c0
4f
fd
ed
24
c4
c0
44
86
66
1a
8a
53
b7
76
a9
b6
a7
72
1e
a9
3d
7a
40
c4
d9
29
69
5f
ef
ef
d0
7d
54
64
a0
61
e2
29
97
32
93
29
58
64
0b
9e
9c
f2
b3
76
87
dd
72
85
ac
26
22
c2
b4
dd
4e
87
7b
66
ec
3a
28
a0
d4
d2
a7
0f
77
1f
94
00
d4
d1
9e
23
e8
4e
41
d1
1c
88
09
cc
5c
32
ee
00
5b
9f
e6
bc
d0
ad
93
85
a9
01
50
84
f5
e1
12
58
8d
da
ee
ae
78
1d
c2
84
38
2d
97
c7
1c
b5
5d
35
30
91
f8
eb
47
1d
c6
94
3a
12
97
bd
67
ec
98
cf
83
b6
df
c1
11
73
fa
41
cf
0f
3a
d7
ba
c5
68
a5
35
67
63
d2
fe
03
63
84
bd
85
66
29
c0
6d
7a
e4
7e
75
f2
8f
5f
71
78
2f
db
18
e6
a4
11
3d
b3
d8
0c
54
02
69
bd
52
b0
99
cb
3d
79
6b
b0
45
b5
7a
46
58
34
01
8d
1a
a7
82
58
a7
3e
1f
e8
d9
64
7d
88
13
40
a0
e5
1f
5c
b0
dd
ca
38
70
bc
b6
21
e1
a1
a8
2e
1c
34
1d
5d
cc
55
65
3c
01
50
4f
1a
00
56
5f
f3
66
1f
a4
cd
eb
2c
12
92
cf
08
ed
17
84
5e
06
d9
93
10
31
b6
2c
a5
e4
af
6e
65
83
58
8d
b5
d6
3b
f3
1a
86
82
01
6f
e8
65
73
ef
a9
01
48
eb
40
b4
51
0f
8d
66
86
52
6b
07
54
50
53
e7
1e
44
d6
89
f5
12
c7
f2
cd
0d
b5
98
17
96
32
89
6c
93
7c
8d
c4
2d
45
76
5a
58
55
59
fe
3b
4c
5f
c7
01
1e
3f
d9
73
6d
6f
68
ae
a7
43
e7
fd
0b
4f
87
5a
74
13
f6
9f
93
69
98
33
21
a7
8b
02
a2
e3
af
d2
62
0e
e5
37
76
e9
b2
2b
bd
4e
43
bc
93
08
e0
98
17
6a
96
84
14
d5
42
56
f2
46
60
cf
87
92
48
b6
3f
bb
3c
77
65
03
26
7f
e3
e3
50
d8
39
47
cd
32
81
5a
73
13
67
6d
a8
6a
fa
1a
98
ab
75
a7
39
0a
53
da
ac
f6
aa
9a
8e
21
31
8c
9f
37
70
40
4c
f5
56
e3
5a
74
57
84
2e
7e
0b
3c
02
30
20
60
f2
bf
9e
dc
c5
0f
c6
49
27
49
38
