94
2e
b4
2b
c7
5d
92
c4
2b
fe
8f
a5
bc
ff
aa
dd
72
ed
e3
d6
a5
15
e0
40
9d
56
69
7c
49
b7
22
d1
18
09
08
ae
4f
42
30
2e
e5
5e
96
cb
9e
07
88
7d
09
f2
40
ee
0d
f5
58
ad
92
70
74
ce
e2
78
a2
4b
3b
82
9b
da
a6
46
04
e8
ef
8b
d9
22
32
b0
fd
f1
2b
3a
fb
a6
bb
9c
72
df
dd
45
5d
6e
98
c9
e4
ea
13
f3
45
6b
47
0e
0e
5a
f2
1e
1d
5d
b2
4c
2f
c8
14
44
ea
b4
8d
f0
d7
b9
86
6f
e5
5e
49
02
ab
33
30
d1
7b
25
06
1e
ac
bd
de
c1
57
a4
ba
af
28
0c
7b
2f
33
16
0f
f2
eb
02
48
1e
ff
9c
18
18
14
0b
ea
d0
24
5e
35
8a
c5
65
4c
30
4b
76
28
17
d6
60
5e
e5
e3
fb
88
58
9a
7d
e9
9f
bd
fe
47
61
8f
a7
1d
e6
da
ff
f0
af
ad
74
28
3a
92
b9
84
d4
8b
01
0b
0d
e5
fa
0e
b0
8f
27
cb
64
86
ad
5c
f8
46
f8
20
76
ad
cd
ce
88
85
2a
63
41
53
24
9d
2b
f0
af
0d
88
9b
55
a4
72
3e
99
29
ca
e0
d9
52
a4
42
4e
01
09
ea
7f
b5
84
35
3b
eb
c7
49
9b
8f
32
b0
e3
cc
4c
ec
31
77
d8
fc
59
39
0a
4d
3a
e3
54
4b
40
97
1a
c5
db
a4
16
25
70
64
d3
33
cf
04
2d
1b
c5
ba
09
0d
b1
60
20
a9
9c
9f
c2
50
fa
82
67
b7
90
6a
8e
45
c3
3d
0f
c2
21
29
60
85
4c
0b
4a
83
76
4e
13
92
44
f8
00
a4
9e
82
0c
61
2e
c6
3b
d8
a9
ca
13
c3
3a
61
63
8b
be
07
7e
a0
ca
86
c4
a1
93
b4
c4
b7
18
70
fa
64
10
dd
c0
49
17
69
06
df
0c
48
fb
96
64
ad
1f
ad
46
20
b3
fa
77
e1
9a
1b
a8
b3
35
9c
70
21
bb
b9
ed
7d
d7
c2
70
a3
96
d5
e0
01
e4
1e
5e
f3
39
64
a0
68
3c
2e
b2
b9
6d
22
87
1e
76
22
4e
e5
ad
87
08
a9
34
d3
f2
8c
11
43
9f
d1
1a
8b
16
41
6d
95
7a
f2
23
60
bc
a9
10
46
30
0c
fb
e4
44
31
9c
85
4a
4b
dc
dc
62
c7
8b
7b
bc
21
b9
5a
ad
32
e9
f7
b8
fe
4d
5c
35
6e
da
92
66
b8
86
f6
ed
ec
ac
60
ab
34
8e
e3
32
dd
56
7b
47
