05
9b
25
64
4c
61
01
a9
85
3b
bb
6b
95
0f
76
10
27
13
86
18
4b
db
e9
b2
9a
eb
52
9c
82
71
15
34
a8
2e
57
19
f9
ba
87
2e
50
8d
c1
9a
05
17
e4
9f
be
08
5e
ef
1f
02
75
c4
38
05
1e
85
6b
19
8e
3e
6b
1c
26
9d
bf
16
17
7a
fb
a2
d3
36
4b
85
3f
3e
e4
0d
27
0b
06
f5
03
74
27
a2
8d
ed
8b
8c
ac
94
6a
d4
0a
b1
57
77
48
d7
e1
15
c7
d7
a4
e3
ef
63
50
8f
88
58
c6
63
be
9a
b7
0b
df
f9
3e
1b
a7
af
1d
44
c3
7a
13
3b
a2
79
a5
11
20
b1
75
22
a1
d5
97
29
68
76
d9
87
0c
8c
95
be
46
69
01
eb
b7
bd
3a
09
5c
4d
12
73
66
9c
64
c6
ef
fa
0a
3e
b1
d3
53
b2
8c
36
45
13
49
64
5d
bb
22
de
77
a5
b3
41
e6
95
ec
9b
cb
be
8f
bd
e3
9d
ad
a4
71
f0
67
57
93
c8
35
5d
25
26
03
8b
5c
ef
15
a1
cd
94
68
a0
85
6a
2d
5e
8c
fa
13
c1
a7
50
59
b8
c8
01
3e
31
83
2c
ae
62
48
fe
65
00
be
da
6c
a0
9a
fb
6e
af
0b
f7
e8
34
bd
47
3b
db
6b
06
39
b4
6a
0e
44
87
0b
a4
9e
a6
6a
ff
c2
a4
6f
74
39
41
7c
24
c9
63
8d
3c
68
d5
98
f9
26
02
86
41
86
a0
c2
56
97
60
bd
ff
8b
be
ee
65
bb
16
e1
b9
20
a7
b6
d2
a8
65
d8
3e
6a
cf
c5
bc
b1
15
cb
bc
00
d3
f1
69
1c
cd
43
e1
41
a2
8f
67
9a
2b
83
73
52
50
6d
35
68
05
d1
9a
8f
1d
9f
56
26
43
3e
51
18
6c
46
c0
34
fc
37
7b
04
d9
ea
ec
ff
41
2f
b6
e5
8d
89
49
46
3a
d3
46
67
74
08
52
d0
f8
73
b4
4b
2d
f1
a8
eb
ef
2b
f4
59
e5
73
11
7d
ac
be
5e
29
74
28
43
24
60
87
74
84
06
9e
ba
88
dc
6d
e3
7e
4a
5d
df
90
c6
b5
65
38
3d
a7
9c
93
4e
54
10
63
4f
e6
63
9d
d4
21
89
99
dd
9a
01
58
96
f2
70
62
21
a4
9a
13
6c
59
78
15
ee
9e
e5
61
7d
a6
ad
6e
e9
9c
1b
85
b6
da
77
d1
2f
bb
00
43
7b
b8
2d
9a
9f
75
eb
4f
5b
ff
e1
32
59
33
8e
a1
41
25
10
9c
fc
99
6a
41
3f
49
f2
9b
82
3e
5f
89
82
68
44
4d
e5
00
04
26
f6
bb
5b
04
0f
63
1b
eb
61
09
f6
2a
96
1b
5a
fe
2e
cd
1e
6a
71
59
da
6a
30
e9
7d
2b
c9
5d
fb
f5
d0
e0
f7
33
8c
c2
fd
75
ef
28
99
a0
00
57
e4
8d
db
dc
20
b4
a4
3e
70
37
2c
dd
d3
7e
de
e3
b6
e6
a1
31
3f
fb
0c
ec
76
d9
7c
4b
27
c0
ff
c8
f4
1f
c0
ac
34
ef
88
27
2d
45
8d
7d
2f
db
c6
f1
93
03
11
90
ec
84
52
34
ab
88
f7
ed
11
a2
3f
76
3e
ff
ec
01
d1
b1
77
9f
40
8f
1b
5a
9e
77
46
6e
95
33
23
33
de
7e
9c
8b
20
69
d6
11
8c
8b
86
ba
a9
26
d9
e3
26
33
3f
30
9e
e5
bc
1e
99
07
8a
13
11
c3
71
88
49
42
9f
0f
2b
59
cd
a6
cc
46
d8
17
a0
08
e3
d1
68
36
92
d0
71
ad
02
14
5f
99
79
23
0b
74
9a
f7
0a
b5
ce
02
62
e4
61
a4
62
d2
37
74
95
e3
e6
67
12
e0
d8
ce
6c
27
b6
38
4d
26
9f
ac
89
61
6a
9f
92
a6
f1
d0
9f
13
5d
b8
08
7e
87
cc
c3
a0
a4
52
60
e6
9b
a3
8f
ae
b1
47
06
55
28
da
86
54
59
b3
ef
96
df
38
28
53
02
89
d0
c2
39
13
7e
44
19
52
1c
36
b6
14
19
f5
dc
36
1c
c6
74
63
12
ff
45
d7
1b
a1
f9
53
a4
50
1d
35
38
07
ca
de
c7
63
6a
c3
5c
38
ad
42
07
ce
76
48
aa
49
b7
3b
0e
32
54
dc
0d
14
ea
d7
26
1a
bc
53
12
3b
77
48
43
2f
d3
00
97
17
bb
99
cb
6f
86
9d
54
a5
f9
ea
5a
1f
e4
4f
ba
9f
b9
3f
c2
41
64
a3
61
82
aa
8d
a7
db
f4
2d
44
fb
58
cb
dc
77
a2
03
ee
4b
a7
b8
d5
a4
50
07
96
69
88
cb
da
56
8a
11
b1
8a
b6
a2
06
81
1e
ec
ea
32
df
96
7b
bd
6b
17
92
43
97
7c
6a
61
ea
66
b5
92
c7
94
1d
9f
f4
5c
18
15
cd
f5
0a
b8
f1
89
42
4b
cb
1c
84
71
53
6d
19
ef
a5
62
e4
50
bf
6f
9f
90
8b
9b
76
89
dd
5f
44
40
36
b5
de
09
ba
0d
06
bb
5b
b6
57
25
7c
48
fd
69
3b
b1
65
83
d7
d1
2d
03
b1
2d
62
95
79
c5
f2
94
03
db
6c
a2
13
3f
f1
19
64
a2
29
7e
7e
16
ea
14
84
59
dd
f0
ce
8b
18
c8
8a
14
f2
56
cd
54
bb
3f
a4
5f
ac
35
54
d0
04
06
cf
2f
f7
0e
6f
44
55
47
cc
53
24
d4
e2
40
e1
72
fb
2e
bf
96
71
7e
28
3d
c9
8c
b6
61
26
32
0d
d3
20
0e
01
57
35
31
02
e5
85
93
97
e4
b1
dc
58
ac
4e
2f
13
4b
35
65
b8
39
49
9b
6a
bb
84
f0
ce
54
35
90
32
14
98
00
38
2b
c9
2b
72
c2
6c
1e
13
55
64
77
c2
04
36
70
6a
3b
59
67
8b
71
d8
66
d6
cd
8f
70
cc
e5
4f
fe
38
09
55
f8
21
23
ab
aa
b5
1d
03
ea
00
ba
07
f2
fc
cb
a6
dd
62
03
26
8d
c2
18
de
97
28
bd
9a
45
5f
82
30
38
11
e1
fc
2a
dd
5d
9e
20
2a
82
e6
e9
fb
f1
89
5d
fb
d8
74
43
8a
de
84
d2
22
82
75
91
d5
0c
76
7d
9d
4a
db
d8
96
9f
55
a2
55
88
36
2a
41
ff
08
fa
0c
06
8b
89
c2
d4
f2
fa
87
fa
b5
06
a2
ed
59
6d
a9
98
74
ef
f8
bf
09
2d
02
b7
76
d9
44
4e
a2
ce
9f
73
28
a8
e7
bc
7a
27
bd
87
88
6d
7a
1b
0c
a5
fd
75
8c
18
5d
02
a4
06
43
d2
62
2d
0a
98
1c
dd
72
9d
eb
9e
38
76
7a
3d
ae
6f
46
5d
8f
4f
1f
0b
ce
da
e9
fd
09
6d
de
5e
32
ed
29
9b
b6
41
d7
b8
d3
d5
c2
6c
e1
96
18
29
a8
ff
ad
6d
bb
eb
29
cf
6d
51
f4
75
a1
0c
e6
43
6a
69
c7
04
e1
c5
1f
f9
5e
e1
1f
aa
fa
74
5c
a3
e6
1d
f4
9c
99
65
dd
26
c5
d6
0c
2e
c3
3b
d1
5d
c2
75
aa
39
8c
c9
5f
29
5c
19
43
fe
1f
5f
13
c7
ac
29
56
23
02
87
44
91
ff
42
68
d9
a8
a8
f9
50
0b
d2
bc
4d
25
46
b7
ad
de
f2
67
60
6a
b8
5d
7b
84
4d
08
a6
cf
58
ba
1b
77
a6
5c
e5
a6
ec
12
cd
5d
39
4d
3d
d9
dd
3e
1f
4e
0c
31
ec
97
8e
5f
ee
12
28
8d
c3
01
0a
6c
32
d9
37
21
a3
8a
a0
44
4b
f7
40
18
7e
15
b6
d4
66
69
c5
c7
56
e3
de
5b
82
22
d9
bf
fe
b4
aa
df
94
11
5e
52
70
b4
37
39
25
4a
e6
40
2f
42
aa
78
ee
f1
ee
91
51
82
bf
51
c2
c0
39
fa
65
63
5b
fe
cc
16
88
73
3d
12
70
9f
14
8c
03
a7
0d
8a
a5
af
43
a0
3a
dc
9d
a8
84
b5
3e
b7
5b
6c
17
25
24
0c
1f
fa
fe
df
b4
f6
53
77
af
85
39
46
dd
3d
5b
0c
78
04
af
ba
99
6d
f0
50
eb
2e
38
1a
a4
d6
d4
50
f4
45
ce
ba
84
b4
48
57
4f
5d
4d
47
30
e9
21
88
3e
8a
32
74
dd
fd
92
66
62
d8
a7
b1
96
a2
36
3b
91
3f
d4
e1
ae
24
ac
f2
10
93
90
49
f0
b6
03
50
f0
d0
c6
69
6d
69
62
50
c8
03
76
36
40
fb
07
28
55
ae
d3
54
0a
81
78
4d
57
b7
e9
78
85
26
cc
e0
f7
9c
8f
4b
29
28
24
61
d0
fc
f5
d1
22
b8
50
ec
a3
c2
7b
0f
45
00
93
da
58
96
25
67
43
31
ed
ae
1b
6d
67
4b
69
31
23
ff
cc
46
b9
b9
f9
fc
cd
dd
fe
b5
e3
c6
71
83
1a
32
60
f1
78
aa
92
69
c6
07
89
5b
7f
b7
94
6f
72
d2
1f
d2
17
34
17
4c
4e
42
47
06
70
65
c1
0a
a6
09
72
8c
86
b9
7f
6a
93
8c
c9
de
47
0f
56
ef
dc
7b
b3
27
eb
d8
b3
ba
30
10
ce
5d
fe
24
33
db
3b
0a
7c
05
4e
07
91
d2
f9
38
83
42
1a
0c
6b
17
8e
02
c6
7d
b9
84
db
94
7d
49
18
2d
1d
1f
64
be
81
50
1d
e6
29
b6
67
cb
f5
42
2d
69
3b
7e
87
4a
8b
6d
05
f2
8f
af
18
77
b3
1a
00
00
7d
ad
42
9e
88
3e
7d
5e
6b
fc
98
77
93
2d
dc
b3
8a
bd
7d
0f
57
1d
f0
53
fe
37
6f
30
0c
56
e3
75
b1
47
e8
55
7a
b1
30
d7
f2
09
e0
54
38
b4
51
13
5f
7f
a0
1f
68
c3
8e
6b
be
13
78
56
dc
e3
e9
a2
85
cd
61
c1
5f
2e
2f
22
b8
fa
a8
83
81
87
16
1f
a7
50
e5
3d
36
31
ab
6b
28
c4
fe
ea
ea
a2
30
c2
18
5b
86
20
d8
5c
4e
ee
6a
4e
0d
19
5a
90
af
33
17
c5
4c
7d
8c
7b
16
03
e7
7c
66
bd
d3
0c
e0
88
b9
a5
c4
a3
55
8e
e4
2a
de
92
a1
6f
98
c6
23
5a
55
b2
14
b7
f3
2c
1d
21
10
f9
6d
0c
8f
88
65
40
15
a5
03
47
2d
95
38
6b
9d
9d
1d
c3
74
eb
bc
1f
c8
39
89
5f
de
0b
5b
83
21
34
b6
f8
54
b5
ff
e7
b5
23
48
2c
f8
95
52
63
c5
b3
ba
0c
ab
35
c2
98
88
31
85
2c
a5
b4
f7
6f
21
c3
eb
6a
cb
8b
66
82
bb
6d
91
2e
b4
79
7e
94
1a
9d
3c
ae
c2
07
6a
95
b4
db
82
fd
36
a1
91
fe
17
af
7e
17
76
c0
1c
b4
cd
97
6c
48
96
73
a2
a6
7b
a3
dc
2b
d0
94
98
fa
8c
da
aa
43
ec
39
3a
3f
ae
bf
d5
0e
09
5f
1a
b1
d4
5c
66
44
ca
ab
86
11
94
7c
78
9f
ea
ed
1f
db
ff
7c
f2
a2
77
d9
ce
31
1a
0c
b4
e0
89
76
47
2a
0c
3d
a9
24
75
ea
bf
a2
40
ef
61
d8
78
21
93
2b
0d
7a
15
82
44
00
2c
9d
07
55
9c
1c
fe
28
c3
da
5b
f8
74
c8
4c
c1
d5
b8
48
bd
d4
c8
2a
76
0a
71
20
f1
3f
88
8c
e7
60
68
cd
ac
9d
d6
61
e5
17
9e
23
de
0d
bf
e7
3a
a4
d1
3b
99
c8
f4
43
83
06
bb
56
d0
a2
ad
d7
a7
8f
11
e5
8b
3d
d7
b1
0a
5a
8a
dc
45
f2
bb
4f
e3
9e
a2
fd
11
a9
bc
02
5a
55
e0
a0
54
90
77
84
b9
f1
dc
57
75
47
75
89
e2
d2
47
be
c4
41
ee
cc
e8
bf
de
55
67
bf
3c
f3
a8
cb
58
30
43
8b
33
31
0a
83
e4
45
48
b2
1b
d4
30
79
6a
2d
fc
ad
54
37
f1
04
fe
56
63
7b
b6
99
58
cc
19
03
6b
e6
24
05
1c
55
58
98
9c
57
69
04
c5
7e
89
1b
79
78
f5
ff
fe
8a
78
d2
14
69
a7
d7
e4
5f
5a
87
fb
90
a0
21
ae
ca
3b
2a
1a
3b
e3
40
f7
4b
0a
16
2f
a1
af
be
91
55
07
0a
6b
2c
4d
87
c2
92
59
4e
b8
47
61
38
8b
63
34
1f
7d
f5
96
87
7c
58
fe
42
f9
31
91
22
1e
83
d5
6a
b3
4d
3f
0a
12
42
b2
d0
91
0a
5c
62
4a
a7
03
e4
b4
5d
72
6a
e1
1e
49
26
fb
6d
70
e8
73
5d
38
5d
bd
c9
54
ac
98
a4
86
30
a4
f6
a7
4f
22
6a
83
1a
5f
d9
6f
28
17
14
2b
5b
b1
fe
48
f5
5f
17
22
f5
53
f8
f4
5e
41
94
0f
d9
38
81
99
2a
ed
c1
e2
5b
0b
86
cf
24
36
7b
3e
57
f6
0d
15
66
d0
bf
f6
64
62
e5
d0
2d
4e
90
c0
58
ce
f6
01
52
36
dd
a4
e5
2c
a8
f2
5e
2f
a1
04
bf
9f
ef
47
f9
cb
ea
e3
b2
89
9b
02
da
c1
da
3c
ac
a0
43
ae
06
95
21
88
05
d4
fe
ff
26
1d
07
3a
6c
c7
93
d6
82
93
04
3d
aa
1d
a8
f2
dd
46
32
1e
9f
d3
ed
8f
70
e9
35
44
3d
ae
03
2c
64
36
e0
92
b4
5e
ae
9a
4f
1d
24
64
01
8f
44
dc
1f
33
69
33
2b
8c
b6
f0
85
f7
0f
f8
a1
7d
1c
ad
ef
b9
b0
59
ba
0a
d3
53
9c
c0
5a
3e
4d
c0
32
da
01
7c
30
ef
c7
ef
62
ea
31
55
94
cb
9d
86
64
2b
12
a2
8a
47
a3
4e
3d
5a
72
7c
14
79
fa
7a
93
17
ca
f0
f0
55
7a
99
d5
dd
57
be
e5
64
15
87
c3
a8
ae
a9
02
10
4e
83
83
7d
90
63
19
5f
f0
50
a9
43
57
7c
48
32
7b
0d
bf
54
c0
3b
b1
d5
63
a1
f1
c1
4c
21
df
32
ac
5f
ac
98
ed
61
43
bf
41
fc
df
ba
11
e3
31
11
b2
be
be
d0
7b
db
6c
fb
da
fd
40
61
b2
3c
3e
1a
bf
71
85
98
97
dd
8c
33
55
da
ff
82
0c
49
f1
c8
19
d5
ac
9f
66
db
58
fe
e0
0f
4d
ea
d7
61
b2
f1
6a
3b
ce
dd
41
39
8f
6d
c1
70
7e
43
fa
8e
c2
59
5b
16
30
d4
b5
b1
7f
39
26
1a
b8
bb
29
67
da
a6
ec
f2
44
53
f7
28
a2
be
61
90
91
86
8b
8e
88
35
e1
6e
a5
c0
c4
9d
fc
fb
d3
f9
1b
5b
65
ed
b8
a9
ce
59
3b
e2
f8
eb
22
52
dc
72
fd
eb
af
7c
79
5a
91
12
04
58
81
fe
4e
18
59
ee
f4
56
78
6f
cc
6f
ce
eb
82
c3
fd
96
96
1d
68
29
1e
8a
9b
d6
2d
dd
dc
f7
bf
d6
90
8e
e3
d0
59
20
7a
c3
36
40
a5
8c
3b
8e
36
dc
61
21
61
3c
c7
d2
f0
b5
a8
da
e4
bd
74
89
64
1e
5e
d1
9c
1e
12
db
74
3e
7e
ca
cd
11
fe
a1
0c
56
0e
c8
87
52
4a
79
b9
9d
b7
31
cb
41
8b
cc
f6
c5
94
a3
50
77
d2
83
7c
73
91
4b
84
8b
fb
a0
c1
a7
2a
ba
a9
c5
c0
33
0a
7d
3a
ae
0b
7f
fb
ed
f8
2b
78
ee
aa
f6
e7
f6
43
cf
40
46
e0
df
bc
af
cf
f5
e7
d1
90
02
15
50
cb
7e
07
e6
e8
45
54
b4
fb
f5
b8
4f
cd
c2
4f
85
5e
66
f9
60
69
5b
9d
cf
a9
be
30
8f
af
d0
4c
cf
d4
a4
f6
bc
d8
64
79
a9
4a
c6
bc
06
c5
34
47
70
1d
f7
f6
79
e9
7a
c3
11
9f
24
f4
a6
56
e6
ed
5f
4b
3b
c1
0b
38
9c
aa
25
c6
88
72
31
8e
b6
8f
9c
dd
c7
bd
ad
6c
fe
c9
40
fc
02
a8
9c
01
20
39
75
e9
55
fa
5e
38
02
c7
d2
89
8c
ca
b8
66
ef
45
09
ff
03
65
c2
4c
81
88
3d
8b
67
0d
3e
48
08
0c
ba
b0
39
93
a6
92
96
53
d1
f8
6d
d2
02
2d
37
2c
2b
89
1a
92
b1
94
bf
76
f3
17
d7
02
cf
eb
f1
28
99
9c
64
6f
f7
47
8b
e5
fa
c0
cf
f9
62
10
8c
dd
90
14
59
e8
2e
90
ac
d4
f6
4e
f2
51
d6
81
a3
fd
a2
b9
75
a6
e8
be
75
fa
5f
a7
c0
da
88
0e
3c
ef
7b
f9
de
d0
c2
37
b8
07
11
b5
bf
72
be
4a
b8
3d
2c
88
e9
cb
bd
94
02
d0
b7
ae
f0
f5
f2
46
de
22
c7
49
5d
f0
06
0e
cd
2c
45
58
b3
a7
37
9d
af
c7
f8
cb
c4
06
51
ea
27
d7
0c
43
78
48
fa
a1
4b
d4
b1
26
8b
24
94
35
f7
1c
71
10
d9
06
fa
f3
ae
07
56
c6
d1
3d
7d
34
54
69
7b
c9
c2
2d
0d
69
28
9d
af
d8
36
8c
22
5e
c8
ea
ce
89
98
18
e8
c2
88
d5
3d
16
39
35
d2
bc
d3
58
3c
ea
a2
8a
fb
9e
4d
eb
51
97
29
61
4b
c6
e3
4b
50
62
30
40
00
f4
97
f3
a3
28
ae
b2
da
4b
d2
a7
f9
b0
ae
4f
52
71
4c
fb
e6
fa
f7
00
42
94
89
c1
28
95
6e
b4
39
22
c5
e0
c3
26
83
e2
d0
da
59
3b
5f
34
17
62
36
b5
0c
94
e5
9d
87
93
ac
ff
20
e1
ca
42
46
c5
d0
b8
f5
d6
f2
e8
0f
6a
e0
d9
da
8a
04
64
0a
70
27
31
a5
4b
39
4d
fd
6d
54
eb
c5
64
f7
d9
e9
ae
48
37
91
dd
45
46
2e
a7
94
d0
56
a8
e2
f3
78
2c
1b
c9
df
fe
eb
74
03
d0
9d
5f
6f
fd
13
32
7d
6a
4e
00
5d
69
8a
f7
8e
2b
b1
51
4d
e2
90
cd
c5
f0
ca
d2
4d
d8
14
6a
63
87
12
60
a0
9d
cf
35
1c
e8
a3
38
0b
5d
81
d9
77
61
12
7d
57
32
5a
d0
b9
31
b2
c7
c5
07
a1
66
8a
e1
0b
e7
9e
4d
67
14
47
f1
3d
94
b0
40
a6
c7
47
be
df
85
5a
fd
d5
9a
e8
cc
b0
38
f3
88
b9
88
ff
78
5b
4a
44
05
3d
cb
7a
4d
e3
5f
b6
67
67
72
7c
86
45
97
5f
24
04
0e
dc
20
fa
d4
ae
d7
94
85
85
2a
b4
e3
82
96
3b
8c
23
1e
87
bb
59
8c
d5
85
2f
e1
3c
c1
14
7e
1d
0c
1d
b4
69
a5
04
11
25
1b
ab
30
94
a4
d6
20
5c
19
27
d3
c8
68
7b
cc
6a
e6
a3
f4
bd
cf
28
75
65
b4
1c
a8
a2
d2
d4
5d
d8
96
9c
1d
03
ba
84
d7
b8
f1
88
6e
fa
a1
c0
6c
57
62
ad
a7
d9
f5
9d
95
b9
85
bf
ec
6e
8f
04
4b
c2
de
f5
2e
e1
b4
10
97
04
9a
aa
5e
f1
20
fd
e8
ca
87
a5
3c
f9
a5
59
78
b8
de
90
10
96
7c
37
74
64
21
7c
93
32
91
e2
14
36
52
6d
1e
a9
89
1d
68
23
7f
e8
c5
22
24
c8
7d
e8
5b
43
2b
ed
69
6a
0a
12
63
c4
b4
89
f7
37
2c
4d
f6
d5
43
71
5e
d0
48
cf
97
7b
1a
03
fa
a7
23
8b
f1
3b
17
5a
d8
2a
ba
71
21
7a
73
72
73
ff
30
c0
7c
9e
58
45
7c
2e
a2
e7
36
fa
7c
56
8c
60
04
72
da
1c
f0
dd
bc
3e
96
f8
0c
0e
6f
25
83
44
28
a8
a3
6b
6d
00
8a
0a
1e
06
38
d4
4e
f3
38
27
fb
0b
59
7a
f5
61
98
2b
6f
2c
45
df
91
c0
be
49
23
f3
bc
78
cb
a8
b7
4f
82
d1
19
e0
76
ff
da
cd
5b
77
49
d2
85
fc
ae
36
5e
eb
7e
0d
f2
ec
a5
18
ec
cf
5e
82
4c
10
2d
1c
2e
cb
55
5a
01
45
1d
9a
bd
4f
92
87
2a
3f
b7
b8
b8
9f
6c
9e
db
cc
22
56
ec
e2
43
35
27
42
65
07
b8
50
36
49
06
85
7b
09
f3
a5
94
da
6f
a4
ae
a2
a1
41
6f
30
1d
d4
7f
d0
6e
18
9e
9e
a6
2f
b9
51
c5
0e
cc
9f
15
7b
e1
10
7e
54
c5
df
bf
ed
ca
61
31
03
c9
c2
4d
ec
4f
ab
9d
55
3c
c2
5e
81
b6
ba
a3
a0
33
53
ad
71
40
6f
13
2d
b6
fc
d5
df
ac
8c
66
3e
fc
60
64
d2
dd
be
5a
68
7a
88
00
ea
23
c7
a7
39
47
bf
a8
44
be
8f
89
20
5d
69
20
e0
65
6b
86
38
bf
3a
6e
2c
89
ac
d4
b7
0c
d5
a9
a9
e6
60
fb
6e
4b
f9
6a
0e
af
54
47
f5
af
d7
0c
34
35
85
15
f9
bc
fb
31
9e
86
78
cd
62
70
b8
7a
4c
a5
cb
11
e7
4f
4c
da
81
0c
1d
0e
ac
4b
f3
ec
e3
57
75
48
18
51
0c
ac
1e
0d
40
0f
2f
68
91
54
46
64
34
98
1b
16
d1
c9
26
b3
0c
64
30
64
f5
b6
02
b5
e0
c1
62
ea
b4
c9
f3
02
76
21
87
03
ff
69
e6
fb
67
8d
91
28
3a
19
dd
f5
ae
42
25
7a
26
a5
91
97
7b
75
f5
f4
04
14
88
5a
69
76
6c
e0
ba
f5
c7
c2
59
49
c1
e7
49
3a
64
79
2d
a9
7a
74
8e
21
a3
24
85
54
e2
5f
9a
50
ee
33
4b
7d
67
af
19
e7
26
b2
34
6e
01
54
9d
71
5c
e4
9e
c4
87
d0
d3
ca
07
46
ed
d0
eb
78
bb
78
0b
7a
90
db
99
26
f8
10
89
b0
57
c1
a8
ef
c4
25
93
69
c8
a5
2b
37
fd
49
67
45
fc
56
8e
93
c2
95
56
8d
98
3d
20
00
67
d7
45
b1
9b
ec
f9
e6
e8
19
c6
cd
c5
ff
43
21
d7
b1
5d
45
ed
95
de
fa
4f
e9
03
93
da
10
cf
e6
47
53
24
ae
ad
59
df
b9
9a
eb
e8
43
39
77
56
7b
29
3d
03
79
bb
07
5f
da
28
98
92
3a
01
59
82
f3
64
31
f3
1d
76
42
50
6d
32
c3
61
d5
8c
39
4b
af
eb
04
fa
6f
61
bf
c3
4f
a1
b3
37
52
23
16
6c
fa
97
aa
20
18
a3
c8
22
13
75
1e
a9
92
d4
5b
6f
4c
09
c7
02
37
0e
24
39
f8
39
72
9d
39
0d
77
97
5b
6a
d2
2e
bf
a5
ea
dd
ec
1d
e9
20
98
cc
96
fd
aa
45
c8
6b
aa
97
75
74
45
70
98
ba
1f
7b
89
28
01
f2
69
83
95
49
ec
c2
16
d0
68
52
af
a0
66
2f
54
f5
76
1a
d5
ef
81
5c
ce
3f
52
d7
6d
12
a7
21
55
7a
ca
ca
4a
fc
08
f7
6a
7e
7e
e9
66
a9
a0
22
12
81
28
4d
72
06
b4
7c
ab
bb
9a
4f
ac
f3
9d
17
43
65
5e
97
65
d7
aa
d7
dc
dd
ca
40
36
7a
42
d5
4a
28
a1
0d
da
b1
66
87
4b
f8
82
64
40
85
b2
2d
d0
fd
40
3e
b3
43
1d
e6
d1
1d
2d
6e
20
8f
25
2a
e4
b5
d4
b5
62
54
93
77
45
17
b2
25
86
4f
d2
2a
07
5a
42
ed
a5
10
ba
27
32
8f
cc
30
68
76
27
18
e0
ad
cf
19
56
12
c5
38
e6
87
49
65
c7
10
ec
38
52
a8
91
15
97
9e
47
25
1d
b4
af
a9
6a
ab
37
8c
40
df
10
43
4e
b9
c2
40
75
8a
cb
09
6c
5a
41
08
3a
2d
6d
66
1c
d9
8c
4b
30
28
58
43
f1
56
8e
b5
5c
b8
4b
6c
62
7a
03
1b
e1
27
a9
a7
27
93
a7
c0
55
e2
bf
6e
77
bc
cf
58
31
1e
cf
9c
d3
8b
3b
91
de
29
94
e8
9a
b4
c1
cc
28
62
e9
a6
31
5f
d3
67
0a
4c
7b
d7
1a
c9
c6
66
6f
23
3f
94
17
c6
22
5d
c8
f4
6e
95
9b
3c
55
b3
9c
3b
5c
a8
b5
9c
5e
c6
fa
79
18
b4
3f
9b
41
4b
05
4b
3f
5e
51
3b
4c
04
0c
cb
31
5b
a8
f1
8f
21
0e
3e
59
0f
cf
d8
d1
60
93
89
9e
0a
17
4e
12
9f
92
98
af
b8
61
fa
e9
a9
58
96
0d
8f
91
3d
22
14
9b
16
1a
18
06
b7
39
bf
b1
8a
fb
b9
65
b2
a0
3b
8b
cd
bf
bf
dd
1b
d4
09
06
7a
54
8f
85
31
95
2b
09
3a
fb
2c
79
24
9f
be
3d
1d
25
5d
0c
3a
e3
06
91
e7
54
d1
f7
cc
78
0e
33
ff
aa
03
a5
b1
0d
49
26
3d
ba
96
8d
25
c1
72
50
5b
21
e6
eb
5e
68
aa
6b
25
0a
bf
3d
b3
55
a0
ca
b9
81
ad
ef
76
e8
62
d2
a5
ca
e4
bf
5d
90
4a
bf
49
63
02
08
e4
cd
d5
6b
7f
99
44
fd
9b
9c
8a
2d
c3
2c
1f
96
33
84
10
11
b2
b4
d9
06
67
e6
49
36
64
61
bc
b6
53
b8
e0
67
f4
ad
0b
94
1f
c2
e8
aa
27
ed
cc
1f
5e
87
39
75
82
39
ff
5a
02
98
94
3b
67
5c
93
19
81
bf
71
fc
ff
fc
75
e4
18
c6
e2
49
62
6c
5b
62
0d
bc
f7
6b
a8
70
36
33
a5
d7
ff
04
00
c3
92
ba
a4
6b
0d
1b
9c
05
59
6c
ea
f7
10
92
1f
87
82
b3
f2
db
ef
8b
42
0f
a5
d6
37
88
7e
59
db
ee
cd
65
d6
fc
3f
2e
36
88
af
29
76
86
d0
14
a0
0d
40
6a
07
f7
5c
6a
2a
0e
b1
ce
07
f7
53
b9
29
cc
d4
ed
59
c3
91
c4
b9
00
c2
a8
37
a0
c9
a9
7b
f3
50
2c
7e
67
9a
14
8e
c1
56
d0
88
e8
c7
2c
ca
c6
a4
f0
e8
06
b1
4f
6d
c9
ec
9c
f3
d5
db
01
3b
52
1c
c9
44
6d
f7
f4
31
54
17
9d
26
52
6a
cd
68
65
67
96
a1
60
33
5b
0b
02
be
1b
45
5e
33
f3
2e
30
d7
f9
7b
5a
f1
15
da
a0
dd
f1
bc
a1
a8
b1
31
b0
93
5d
ea
a4
f7
75
29
fb
39
29
ad
07
9b
e3
1d
09
d7
b8
f5
ee
ab
66
b7
ea
a8
81
ee
f2
22
1c
5d
fa
86
c3
5e
d6
34
7f
13
d1
2a
15
b3
51
b9
0d
e5
ac
2e
c4
76
49
9e
6d
0f
8e
a0
ee
ce
a8
00
62
50
26
b1
c7
f1
11
0e
8f
46
12
43
e8
ea
a6
05
e8
e6
08
a4
59
a4
d1
26
96
43
4a
0d
50
68
b8
c1
82
9e
12
47
1d
9e
8c
8f
dc
6a
48
60
4c
50
ca
82
e1
9c
4c
40
16
de
7e
fb
41
b7
47
09
d9
e2
7e
60
6d
88
3a
bb
72
6a
42
09
7c
84
b5
7f
1d
36
8e
c7
7c
2f
13
e6
d3
49
40
79
d9
aa
19
c8
36
7c
d7
fe
9f
83
f1
46
1f
0e
ea
d1
ee
46
fc
22
e2
1f
6b
9b
24
f8
4e
18
6f
8d
26
86
9d
8f
46
2e
7e
27
85
9b
b5
05
ef
ea
95
60
35
86
ab
15
79
42
bb
93
98
7b
0d
bd
c0
f2
c5
0b
00
69
1e
cf
43
85
c4
84
8e
7b
da
f9
f4
73
b8
36
3a
fb
9d
fc
1a
08
ca
ad
f5
ca
3b
d4
a5
07
2d
dc
ac
70
7b
16
2c
ba
05
13
1f
39
f1
8a
48
be
1b
20
4d
e9
97
d0
e7
9d
d5
92
c4
78
be
2d
ee
c6
9f
c5
d0
fc
0e
be
26
18
b3
6c
c8
bc
b8
81
8a
93
f2
b9
14
75
61
8a
8b
9f
5b
e0
7f
1a
8d
ed
87
f9
0e
6d
7d
df
a8
b2
81
fa
b3
a4
ba
4b
74
56
30
65
92
f0
93
10
20
0b
e6
4d
5f
30
37
eb
f8
e5
f8
99
3d
03
88
24
59
b7
f1
e8
9e
7c
a4
e7
06
64
c9
95
45
b6
20
19
f2
9e
4f
22
fe
c6
cb
5d
9a
45
15
ce
a8
da
38
3a
e8
d5
90
c5
67
1e
03
8c
b5
32
e4
54
92
0f
aa
a9
3c
82
a9
a0
4c
60
49
bf
35
0a
7d
a7
7e
4a
f6
e2
b9
96
49
51
6f
e2
c8
26
3d
2a
44
31
b2
b9
f6
8f
e3
56
48
15
a9
db
91
4d
4b
ae
f7
89
0c
47
25
25
b3
0f
f0
88
66
f8
8b
c5
f7
13
99
28
a1
be
73
97
de
82
87
a2
fa
d4
88
94
9a
55
e0
dc
f7
fe
48
b7
f7
91
5c
bb
32
8a
b9
3f
79
00
7b
1f
5b
e4
ec
9f
a5
59
08
bd
3a
8b
08
45
1e
7c
2b
98
2a
14
ef
bf
d4
20
4c
37
0f
e3
b7
46
dc
79
be
c0
94
ba
c0
ac
2b
cf
f1
77
6d
6b
d2
da
2c
c6
f5
f3
96
1c
75
0b
a6
d5
31
25
c2
16
50
96
ef
c6
46
75
fc
5a
47
8f
d1
37
84
72
6c
e3
39
c0
03
ba
ee
4b
4b
62
57
d7
f2
d6
5a
dd
a7
34
9e
f4
8a
17
7b
8e
79
07
f3
b4
ad
73
7b
99
c3
fd
7c
a2
e3
e0
d3
a2
d4
f4
8d
2a
c8
34
a2
36
33
61
7d
b5
49
94
88
8b
c5
06
9b
b1
20
1f
3a
c0
3e
20
1c
0b
b2
fb
03
ec
b4
66
b7
53
5c
9f
ca
ac
58
5e
8d
df
bc
c5
6e
4d
ea
f4
81
b6
2a
ea
24
61
42
9e
e8
12
95
d2
64
bc
f5
7b
90
57
44
8f
96
eb
ca
ba
31
73
8f
6d
d6
3b
e1
11
c5
bf
32
86
b0
27
38
07
63
ce
6f
84
c6
6a
0f
18
a5
ce
f2
20
96
1e
03
9d
0d
e9
6a
4c
e0
23
6a
b8
b7
d3
d5
6d
90
d0
72
72
aa
d8
dd
c7
c9
27
31
4c
70
09
b2
30
42
d6
b4
db
0f
cf
f5
c1
41
90
aa
ed
17
bd
68
18
7a
78
b5
4b
05
3f
22
f4
8a
e7
f0
5e
c2
82
8e
e4
dc
e2
2f
c9
1e
f0
c2
94
bd
da
c2
ed
ee
b6
56
00
99
e4
46
d8
7d
e2
61
2e
bd
b7
d4
e3
94
72
fc
e2
14
23
a1
d6
e4
56
19
17
b2
b3
60
18
10
3d
8b
f2
bd
92
6e
cd
2b
a7
59
66
63
5c
dd
bd
f8
f7
eb
ec
6d
6b
23
b1
bb
ae
05
46
2a
bf
43
4f
ab
9e
6c
f5
d6
a0
01
97
1a
7c
2e
c5
1b
07
2f
12
8b
54
58
2c
81
e6
3d
37
bb
85
76
e9
8f
22
cb
78
4f
c5
60
5b
d4
e8
42
a4
d7
23
b1
cc
0e
42
3a
06
75
d2
81
39
a3
df
99
f7
8b
f5
00
b6
88
4a
e3
91
3f
76
5c
ec
3f
d5
15
83
9d
85
2c
9d
77
4b
23
a6
af
08
5f
b9
8b
b5
ce
d5
45
f9
5a
ff
d4
bb
f0
7c
50
ab
a7
ce
66
3f
aa
c3
b2
dc
0f
1a
a8
89
77
66
00
14
8b
7c
b9
71
b1
d0
e9
51
89
b6
4f
4d
ce
9e
4f
5d
e4
6e
23
8f
ab
64
fc
a5
aa
f7
cd
9c
79
aa
2d
41
18
49
1c
17
03
50
3b
10
a6
58
4f
08
d4
b8
40
51
ee
77
f8
3a
8a
07
7c
db
82
9a
31
ac
40
20
8f
e8
ba
d3
78
d0
db
f3
58
e2
5d
89
ee
29
12
fd
9d
16
c9
57
c4
c9
23
88
92
f6
3e
92
e4
e5
4c
f3
bb
d8
c6
97
17
92
f7
26
9b
8b
1a
63
ea
05
61
9e
4a
ea
1e
91
76
c8
7d
d8
f7
d1
c6
31
0d
05
4f
52
6c
a8
6f
6a
2f
42
f9
2f
01
0a
9d
b2
4d
ef
21
63
c7
de
3a
13
ae
63
05
d0
71
9e
c3
16
fa
da
6e
c1
e5
e4
60
97
5b
5b
ff
8f
b8
f6
3a
89
87
51
84
98
40
db
b7
b9
98
52
30
c2
a4
83
55
11
96
f9
0e
47
a4
1f
03
71
6c
a1
93
fa
cb
33
74
19
3b
dd
09
7a
a4
17
c9
1e
50
9f
aa
94
11
ba
49
b8
03
79
e7
e8
0f
b1
c4
d8
48
5b
ae
dd
7c
1e
b2
d9
6d
4c
64
38
8d
a9
3d
7b
21
ae
7b
58
99
48
00
48
a3
56
e8
3e
98
c3
cf
fa
72
9f
42
67
8e
4c
5d
62
08
13
a4
dd
6d
28
9d
78
c6
69
cf
3c
9a
b2
59
20
0b
08
42
5c
dd
bf
f4
d9
4a
3b
61
4a
df
dc
eb
ba
49
cf
d8
eb
e5
63
a4
f0
95
61
c7
36
f1
e7
0e
f3
b0
27
75
05
ff
f2
b2
fd
3a
5d
f0
aa
ac
37
ff
b5
aa
b9
c1
f3
c4
59
1a
04
23
f9
dc
c3
ff
af
1f
9d
3d
65
20
0b
83
e5
40
d5
76
84
86
7f
36
93
63
ca
fa
22
04
46
0e
0f
1c
6f
42
86
12
e3
af
dc
33
09
d1
6e
15
60
ad
01
c0
dc
df
53
8a
4c
6a
28
c1
5d
e3
33
cc
6b
5b
c9
b2
0c
32
df
2f
3b
9e
1c
b1
d9
be
fd
d8
b2
a4
34
1f
fe
52
72
d7
e0
37
10
2c
95
b4
e3
46
0a
e1
65
36
20
53
93
b7
a4
99
92
e1
53
37
6f
dd
c1
51
e8
0e
2c
56
0d
3f
2c
ab
23
5c
d6
04
f9
ba
65
a4
d6
0f
97
75
d9
cd
24
cd
41
0f
0a
a2
4a
2a
5e
c7
0e
91
77
4f
8f
db
08
5b
a3
31
84
db
d3
4c
b7
a4
df
8f
cf
38
34
a3
ef
cf
8d
d5
ee
a3
b8
1f
07
bf
bd
57
3f
eb
66
91
ed
d5
0b
77
9b
70
7d
c4
00
d9
77
5a
ae
d4
35
8c
8d
cd
d9
d2
17
87
16
3e
cb
51
09
3a
66
e0
91
5b
7b
29
3a
25
fb
b4
0a
55
22
b7
a7
fe
94
31
8e
cf
ad
47
e6
11
85
b4
e3
00
3e
65
7b
43
88
e6
1d
0b
a1
d9
8b
72
49
60
82
26
0c
38
01
de
d3
bd
64
50
9d
46
7e
ac
a8
46
b6
85
4b
dc
bb
54
0c
d5
97
ef
6f
ad
62
11
0e
8a
ba
b0
a6
05
51
d2
59
44
31
3c
e7
0d
5d
49
ba
85
e5
97
cd
05
78
88
4a
fc
2b
09
9d
f2
e7
a8
2f
cd
ac
53
30
32
e3
65
6f
42
ab
c1
f8
39
93
e8
c0
cb
40
35
ee
e1
e8
3a
00
12
46
5e
f4
e8
2d
46
93
5d
04
a6
0b
52
70
77
43
54
bb
79
0d
2d
d7
6e
e3
88
d5
5f
72
10
e5
39
cb
75
0d
2e
12
29
93
a2
b7
88
96
2a
f3
50
a7
ce
2b
fb
d3
37
b6
17
e6
13
44
fb
c6
fd
99
f8
62
8f
b5
67
6e
53
2d
d6
11
f8
9e
b6
2b
9b
24
8b
57
b2
1f
b7
e0
1d
42
5c
ab
b2
a9
6c
ea
ff
d2
97
81
d3
93
0c
9d
d8
5d
a0
5e
eb
8a
7b
be
0e
db
00
da
10
e0
b5
00
65
d3
c8
3f
09
0a
b2
ad
db
e3
08
05
8c
1a
47
50
a7
48
4d
48
8b
ef
62
84
06
f5
25
5e
e7
12
da
e4
5a
99
ae
c2
ba
64
06
39
e6
84
64
e5
92
87
a5
d5
e6
0f
ea
e6
91
ba
72
c4
95
ba
59
57
e7
bd
94
90
5a
c2
98
89
ee
e4
a0
46
07
63
78
98
59
1b
1e
6a
66
02
60
6d
31
41
04
a6
5a
3e
71
b3
bc
ed
45
ad
25
6c
12
fc
6a
ef
09
82
30
f2
e9
30
52
c9
1b
7b
a0
dc
52
8f
c8
10
2d
35
ca
10
ad
71
89
57
1e
ff
60
39
41
0e
4b
e7
e9
7f
e5
af
a9
4f
5a
22
fc
a3
87
1a
45
b0
be
31
8d
b0
93
6b
24
17
54
d3
ad
37
40
86
9a
d8
fa
51
17
02
c1
56
94
a7
2a
52
6f
e5
18
2f
78
8f
e6
72
c2
b9
57
f6
fb
e5
40
51
50
f0
30
7d
18
31
fa
72
35
3d
58
d5
93
14
2e
d7
ec
59
39
d6
30
f5
8e
36
c3
93
13
42
fe
b9
1f
9d
ca
7a
f5
b6
9a
1d
59
84
df
03
d1
32
d5
36
14
0d
ba
3c
3a
59
0e
58
c2
00
e3
99
bd
f5
87
8b
51
50
0f
b9
48
52
66
9f
84
21
06
ad
11
a0
95
90
c7
ff
51
4a
e5
0c
ae
76
c7
ee
91
2a
03
82
16
e2
2d
76
1b
44
48
50
ab
9b
54
0f
88
2c
b5
33
c4
a4
a7
2c
43
16
ce
9c
e6
cf
c2
28
9d
1d
66
cd
1e
ad
66
8d
cc
f0
6b
42
bf
53
49
26
5e
df
46
32
00
e3
05
ec
86
8e
c8
02
dd
e7
97
3d
a1
93
b6
37
fe
75
0d
be
fa
b5
88
63
d8
77
a7
86
cd
a5
2f
73
8a
24
e7
7a
95
1c
78
3f
ad
f0
f4
3b
01
0f
c3
59
da
6c
2a
33
a5
77
84
24
12
ff
b5
13
53
ac
ec
15
0b
29
26
4e
62
ff
38
d9
39
ae
88
b4
24
24
c5
ab
c7
5e
63
26
41
c7
2c
d3
5e
44
73
6e
b2
68
92
51
50
f9
9c
48
c0
89
f2
be
a7
77
51
91
62
3e
4e
7a
3d
44
f3
46
87
f8
30
68
7a
da
60
97
33
16
01
b2
1c
15
29
e6
2c
64
1d
5b
89
ca
5c
b7
d7
da
f9
8b
9a
e5
b8
76
05
f6
33
46
1f
f9
29
19
26
25
15
53
31
31
8c
af
cc
a7
7b
84
ec
c0
c6
ef
5d
40
9b
a9
d7
38
95
4e
cc
43
e2
5d
47
ac
a6
86
a6
0e
1b
f3
5c
18
aa
25
9d
63
7a
e3
30
79
56
f7
a1
b5
2a
60
3d
4c
47
05
78
53
22
ec
87
10
6b
24
5b
c3
40
40
fc
97
b4
63
51
7d
d5
5d
42
38
12
b4
e8
d9
57
e2
11
14
45
c8
b6
fe
c7
a5
d5
f3
fa
04
18
6a
cf
e8
c3
a6
d7
d8
9a
c1
e1
93
03
29
34
a5
75
67
19
53
6f
0b
ef
c5
2f
8f
90
da
a5
ab
32
7e
49
91
fd
3f
e0
4d
7e
a7
d9
cb
dc
13
66
f7
f8
dc
dc
4a
d7
c6
1d
cb
1c
79
3f
65
bd
12
3c
d3
79
14
81
ed
40
85
6c
b3
c5
cd
0a
98
11
89
ee
ac
62
95
3b
a2
f2
02
ca
15
bf
45
19
23
26
e5
47
73
ac
4f
79
44
51
35
f7
44
3a
97
5b
36
a5
3e
3a
7e
37
19
7c
96
cd
0a
16
e0
e7
cb
79
7d
ea
58
12
c6
85
66
7c
96
18
0c
0d
66
c3
97
18
c5
a6
7e
ec
81
62
1b
ee
a0
74
7c
91
dc
c3
6b
75
15
f1
f8
6d
95
98
55
3f
7a
96
db
40
27
a9
f0
71
8b
ba
6f
dd
59
5d
fc
31
45
5a
46
73
2f
25
b2
3b
c3
d6
96
83
1f
7f
8e
9a
63
ad
04
d7
95
e3
59
e1
5f
53
b2
24
c1
5d
1c
0c
5b
92
61
b9
e7
5d
94
ea
bb
df
cd
6a
3b
4b
72
78
cc
7f
8e
fc
bf
b8
f5
2b
a3
1e
9a
5f
34
08
95
07
7a
95
c5
63
d5
c0
59
d2
06
56
55
dd
9b
ae
fa
53
d6
ea
2f
9c
11
b1
bf
34
be
43
a3
26
79
d1
10
bb
e8
20
55
4c
65
a1
e2
ba
8d
e4
af
6d
9d
0e
78
89
07
8f
b4
2d
10
b3
8b
58
00
1a
69
13
da
09
45
5e
0d
83
e0
cd
33
62
e0
55
27
cb
b7
40
b8
fe
fa
db
21
ed
32
37
66
df
5c
77
57
2c
46
94
9e
d5
03
11
f9
32
5c
f8
85
0d
ba
f5
be
ae
48
2a
5d
a3
d9
77
78
a7
63
a5
14
a4
2c
9c
e3
1e
82
a8
ec
f7
33
c0
fd
37
2e
35
6a
a9
b0
bd
0b
87
1a
8e
fa
4b
df
57
0c
b2
ae
96
5a
90
d3
90
03
5c
46
d5
d8
ee
ba
4e
18
34
7c
9f
44
17
2b
df
26
b6
f7
a4
43
cb
49
ad
bb
d4
0a
b5
0f
a0
cf
36
13
7a
03
20
8d
5a
b2
db
ff
b3
b6
4a
6e
e2
ce
20
4c
97
99
71
1d
a2
a6
cd
4d
ed
4f
98
8f
df
30
ca
2e
b5
71
93
0d
ea
e0
02
68
6d
e1
9a
e1
e5
93
d1
bb
1c
64
dc
14
e6
5f
c0
d2
bf
e0
61
79
6b
1f
e1
d9
e9
b1
14
7c
ec
06
9d
ac
b1
17
66
b5
3f
64
9e
c8
cc
2d
22
e6
45
71
f2
ca
fb
b8
d3
64
8b
51
7d
43
68
54
aa
5b
d6
77
aa
ad
a8
b3
21
20
a7
df
94
95
39
57
bb
89
6d
5f
ae
53
77
0a
cf
23
49
db
7e
35
d4
66
11
0d
40
3a
47
84
dc
b4
47
f7
10
ba
50
db
01
ee
d7
4f
ae
e2
8f
f9
bc
04
6a
51
1b
98
07
05
86
ae
79
9c
58
c9
49
e1
c6
1b
e2
5a
bd
12
2f
e0
45
7a
3c
a0
7d
08
8a
30
63
c3
92
cb
e8
5d
03
7e
3e
e9
68
9c
9f
4f
af
59
f3
77
d7
74
1f
21
82
eb
c8
21
39
7f
3d
dd
4d
d7
6c
1a
31
e1
dc
7a
29
43
e3
b0
44
18
a7
b6
4f
9d
50
75
ed
0a
d4
be
d4
10
15
22
f8
1d
7d
9a
6d
11
b6
0e
be
b7
de
c8
2c
90
33
cd
6f
9e
40
74
4c
2b
62
9b
77
ad
cf
de
77
6f
8c
dc
dd
6a
c3
b8
6e
e7
ce
7d
a3
7f
02
bc
07
88
1a
a4
14
fa
c6
ca
6b
2c
c2
11
8d
d3
89
10
4f
bc
0a
d4
ce
dd
31
67
31
f2
08
8b
83
25
d5
af
b0
e3
e0
75
08
01
31
1e
72
40
0e
12
40
a7
c1
51
9a
3e
67
9e
45
0f
37
49
07
9d
01
16
bc
03
51
d3
6c
c5
08
15
f7
bd
25
04
89
63
ad
fe
e7
de
e5
f6
3e
ea
41
65
f4
3c
97
fa
9c
16
7f
7c
d1
8d
b0
3d
1f
86
3a
5f
8e
2c
5a
a8
f7
c5
16
c3
4a
ef
ec
31
6d
89
e6
1c
2d
5c
e3
81
a1
22
79
d9
b8
c4
8c
10
68
e2
0b
05
ec
a6
db
5e
8a
8e
44
98
0c
a7
a1
84
e3
4c
e7
53
3c
fd
f3
0f
f9
a7
df
13
be
c7
a3
10
23
d8
1b
b3
fa
f3
63
34
45
67
be
00
d9
74
dd
f8
bf
e4
15
8a
29
1d
a4
a2
f3
7d
41
11
7b
1c
4e
de
ab
8d
46
f4
4c
3c
c9
d4
e8
e0
93
69
8f
02
c9
8a
cb
4d
59
da
cf
5d
22
86
d4
a6
82
fe
b0
15
85
00
7e
24
f5
22
a3
a4
ae
c4
07
90
35
b9
e1
ed
ca
94
0d
9d
7b
c5
1d
07
f3
50
13
74
26
1e
c5
d0
0e
65
8d
46
5d
fe
1b
d4
93
05
57
f6
64
fc
09
7a
0d
13
7e
ba
f9
f2
eb
ec
1a
5f
b5
59
51
0a
d2
34
0c
b2
55
46
cb
3e
7a
61
e7
95
81
71
bc
23
bd
8f
4c
d4
41
bd
84
cf
1d
55
26
bb
86
44
3f
21
59
f9
cf
7b
44
1c
2b
28
b6
f9
86
2f
ea
1b
e9
6d
8f
7e
54
69
27
7e
e6
f9
0b
c8
a0
68
ab
1f
a8
f5
26
3c
ca
de
ed
2b
66
38
98
bd
56
1d
8f
ef
61
49
4c
9c
dc
af
16
76
16
94
d4
52
ba
7c
6f
ff
ee
35
86
05
18
67
61
ef
f7
e8
3f
b3
c1
38
f9
7a
4e
32
2a
bf
5e
6d
5d
56
36
44
24
bc
71
63
19
14
a8
65
27
53
1a
c6
25
b4
a5
cf
91
c2
c2
51
45
f8
0c
fa
50
b9
f1
76
a1
fe
00
9b
16
70
62
e2
c9
32
6d
21
8e
fc
d3
dd
91
e3
4d
79
6a
fd
35
d6
45
f0
2d
42
83
ac
56
37
f7
07
5b
40
51
e1
4c
ff
f6
3a
24
f9
ee
e3
c0
22
3b
d2
60
14
74
3b
ad
0b
da
00
5b
25
6d
b2
ee
b9
b6
54
51
b8
e1
3f
10
bf
5a
74
58
b0
b1
13
9e
4b
ef
d1
9c
83
7b
be
6a
93
bc
af
21
61
c2
22
da
a8
2f
d5
50
c1
d2
c9
20
34
e9
aa
f2
50
21
c8
2d
93
86
35
2b
b1
ed
af
79
a5
b6
8e
ca
09
56
47
48
1a
6f
d6
0c
79
09
9e
f0
1b
a0
78
27
b0
86
01
5a
69
b5
9b
ef
ea
1e
d5
53
33
dc
e9
16
7b
93
ee
70
1c
5a
99
c3
b7
bd
a0
92
44
16
4f
31
e2
3e
a8
6e
59
c0
67
b8
97
fe
56
de
29
5a
53
dc
1c
b9
92
a9
8f
e4
ae
7f
db
a5
b7
19
67
f8
41
f0
ee
da
63
24
e1
54
aa
58
e8
b3
a7
6f
61
37
83
2d
93
7a
a8
b3
49
8d
7a
46
eb
5f
00
68
98
66
29
b5
65
66
ee
17
be
ed
20
37
52
51
61
f5
62
83
ad
d3
f6
16
0c
c7
69
29
c7
36
ee
9f
19
bd
55
54
dc
9c
93
16
55
05
bc
ff
7c
dd
c8
db
77
7b
da
02
cc
35
5b
0b
b5
10
64
a0
ae
bf
0d
ac
76
a5
2c
8b
61
b8
6f
1f
92
6c
aa
77
bc
2e
07
a7
f1
d3
91
2e
50
30
29
c5
5d
13
7a
86
72
bb
b0
c4
5c
84
00
68
ef
48
87
fe
3d
8e
41
5a
53
89
4f
38
bc
48
e5
1e
af
bd
ab
8c
0f
df
5c
98
ab
f6
15
c3
d2
96
9c
7b
5d
10
66
7f
0e
6c
8c
6b
5d
af
98
c4
36
34
c8
c3
0b
ca
bc
e9
b3
0d
ee
53
e4
ca
c9
ac
0e
23
be
e2
7e
a8
ed
18
59
d6
ac
38
93
48
af
93
e5
11
f6
d3
1e
b8
aa
27
59
16
23
66
ca
79
2b
37
e2
90
a9
39
29
a4
ed
94
3f
c7
96
46
b6
39
0b
7c
39
37
29
bb
32
5f
6a
02
7d
22
8c
2a
f8
6e
e7
c4
37
05
e6
cb
a0
bf
43
5b
c0
8e
b0
86
3b
69
bc
27
f1
19
7a
27
31
cf
50
7d
7b
81
d0
0b
8d
98
98
71
2d
17
52
7c
63
05
de
44
a3
22
12
d8
50
64
8c
5d
40
29
13
29
f0
29
88
15
f5
8d
6b
52
31
b9
a0
c6
fe
6d
d6
01
5d
df
15
0f
9f
c0
78
b0
47
09
b9
84
48
a9
c3
bd
bd
af
57
75
ca
9b
3a
31
a2
18
2e
27
26
