7a
45
e6
9b
25
12
fa
1d
05
00
de
89
db
c8
86
87
8e
ac
c2
16
da
c9
cc
23
fd
bf
51
37
ce
40
85
96
8e
b9
45
24
b6
8b
fa
57
7b
d7
9f
f9
c3
bb
ef
3a
77
45
f6
6a
15
33
74
68
1a
8f
7a
da
84
c4
dc
e2
a2
5e
db
75
74
4d
a4
49
fc
fb
92
40
34
03
98
3e
6e
e0
34
d3
a4
cd
c0
2f
a7
3a
21
54
1f
7f
86
43
96
37
f0
9c
db
5d
64
d3
8a
a8
e3
a6
71
68
dc
63
f9
11
23
56
e9
ee
5f
30
d3
16
4e
e9
52
43
c8
b0
6c
ad
09
b5
21
e0
d8
02
8d
b7
73
9c
ec
96
ff
c1
76
e5
df
db
ef
a1
f2
a3
7f
14
07
6a
d8
aa
a2
4e
b1
01
89
28
22
dd
60
e2
2b
ad
7a
d3
83
0a
c3
0a
93
77
93
ba
83
8a
cc
f5
50
83
3d
e3
cb
15
cc
3e
1a
5d
17
d0
ac
03
a8
a2
dc
0a
af
c9
02
dd
42
02
91
e7
13
f1
3a
a5
0c
8e
da
dc
df
aa
57
48
36
0f
42
88
09
57
73
14
87
a4
b8
93
1f
42
61
4b
88
42
9f
10
66
fa
ae
8c
4b
f5
33
51
6e
6f
2a
12
d3
a7
47
bc
46
71
d8
3f
7d
3b
98
b7
3f
ae
ad
77
6a
de
de
ea
6b
9e
8a
ee
2b
c3
66
df
ef
d0
fa
8a
54
04
2c
74
78
29
3e
9b
14
8a
65
63
15
61
49
e5
20
12
4b
ba
db
16
72
ea
e0
ec
98
dc
98
74
a0
64
3a
54
4a
d3
51
f6
b7
99
7e
5c
22
22
f3
b4
2f
d6
20
87
d0
c7
23
fa
dd
3d
23
fc
c1
65
f1
f2
c2
f2
27
35
08
cf
08
77
05
27
a6
2d
bc
3d
77
2a
cc
af
55
30
58
48
c5
14
b2
35
d2
e8
88
42
b5
b1
90
95
3d
29
ae
62
ea
1d
73
8e
84
3d
f7
6e
1e
e7
b0
6e
56
5c
4e
c7
79
aa
bb
98
8b
08
35
a0
70
c2
1e
e1
cb
73
6a
a6
61
7a
84
0f
13
7d
c2
e4
a0
aa
d2
ce
ef
01
0c
01
c2
33
5e
a7
79
18
da
09
3c
3c
f0
48
9b
cb
91
49
9f
dd
92
21
63
88
24
dd
af
01
73
2a
ac
bb
5e
09
12
ce
5c
02
f6
59
18
b9
3e
b5
66
43
6b
cc
88
49
4a
bd
d0
9e
2a
96
71
2d
de
d8
55
e7
d1
0c
ff
d5
75
d6
8e
db
fa
d1
bd
8f
15
2a
b6
7a
00
65
23
e3
a2
6a
78
20
c2
e5
e3
2f
5d
c2
a0
74
77
64
21
e3
e8
33
38
60
cf
ee
7c
dd
bd
c9
34
c6
f9
c8
08
63
f7
a4
99
39
1e
e8
fe
5f
71
fe
9f
a9
5e
97
b8
36
55
50
1d
72
84
4a
f9
0b
8a
9a
c2
09
df
85
a1
49
76
9b
a5
d6
a7
f1
d7
f0
dd
b9
9f
63
fc
2b
e8
1c
3c
fc
30
06
18
1d
f3
89
09
40
35
ac
41
30
4e
75
5a
8c
05
f6
ca
8e
57
79
0c
d1
37
57
1b
ad
62
fa
3e
83
e8
a9
30
61
69
a5
69
e6
42
e2
c6
3c
60
1b
ae
dd
91
3c
94
cb
66
0c
9d
a5
c4
61
8a
be
73
68
b5
5d
4e
c5
5b
74
c8
6c
34
70
be
a5
96
17
52
66
0b
b3
c3
ff
65
ac
70
ad
ee
35
a0
2b
c8
0b
ef
eb
48
fc
88
a6
8a
f5
ab
b5
88
01
f7
6e
98
57
b0
e9
c5
c1
1f
f2
71
95
8e
db
0b
2b
08
9f
a9
71
96
9a
c9
d0
c0
77
96
08
e6
1c
29
24
db
e8
f0
fa
2c
1e
6b
54
7c
87
8b
68
cf
6f
13
ec
18
54
29
8a
8b
5f
27
cc
c0
32
b7
35
04
7e
bc
02
2a
9f
a9
4b
33
13
e3
02
d0
bc
63
a5
17
f0
8d
f2
a8
21
87
cc
a8
0b
58
e5
b5
d0
32
ed
4f
a6
92
94
fa
0d
5c
d0
6e
fc
51
0d
96
ad
59
71
89
ee
b9
07
4f
b8
d2
03
8f
56
fa
77
63
55
07
fb
c5
85
54
a8
df
ec
bc
ab
bc
e9
66
b2
d8
7c
bb
dd
94
4c
03
25
1d
ca
d3
a1
1d
ff
9e
cb
4a
77
dd
0b
68
fe
ff
c7
f8
5d
72
99
02
18
7e
da
5a
d3
7b
52
6b
a6
fd
82
cb
c5
b9
c0
62
ed
9b
d9
b7
a4
0c
1e
35
36
79
4c
ae
62
ae
e1
b6
68
18
94
25
83
e9
d6
00
ab
be
87
84
c4
4b
3c
29
2f
2c
ea
2d
f9
85
47
4a
5d
01
0e
f4
e7
2a
25
bd
0d
8f
11
3d
69
34
cc
76
ba
39
0a
ce
93
f4
6d
5a
9a
68
74
98
55
93
2c
4d
75
33
77
95
65
15
9d
d9
ee
fb
6e
3b
5e
b8
c1
78
51
d3
db
1b
fd
bf
53
e4
b2
97
df
2b
9d
f8
9d
c7
1d
55
f6
fb
7c
d7
9d
3b
e2
fd
89
52
ec
1d
c1
77
dc
91
92
89
08
37
4b
d2
3e
2c
f1
f5
26
4a
58
d1
68
a1
06
ad
04
db
15
87
67
90
ce
d9
9b
a4
c8
c8
15
72
a8
02
3a
e6
30
c2
ed
6b
40
da
31
20
1b
39
8b
1e
6b
e8
e3
97
3c
e1
97
6d
f8
73
1a
da
e4
89
b1
0d
a1
4a
7d
c6
d6
97
f0
38
55
a6
2d
3d
c7
bd
8f
68
3f
d9
47
61
39
56
0c
64
47
a3
dc
f3
2e
8f
92
16
36
33
1c
74
20
96
66
32
66
d5
17
17
fd
cf
ec
f9
60
1e
9e
c1
2b
2b
dc
b1
77
7c
d4
0b
40
e7
45
1d
29
90
ba
6e
d2
8c
d4
f4
48
88
a4
bd
42
0b
56
6a
76
d3
97
e9
10
16
f6
74
ec
50
3a
52
e1
a6
59
4f
85
75
79
cc
21
61
f3
7d
f8
95
78
92
c0
f3
8d
45
47
54
d8
47
04
77
ca
07
9a
bc
2c
60
b9
44
22
f1
a6
7d
2e
61
cb
2b
e4
09
6e
b1
1d
ba
15
15
11
dd
6c
69
9d
59
fd
28
9b
ec
7d
ea
94
88
47
00
35
b0
bb
68
c9
6a
d2
06
54
b8
6c
b6
36
78
bb
87
11
bf
97
dc
a4
14
9a
9e
82
6a
8e
6c
12
d0
7f
c0
f9
c8
5b
1e
7e
26
d6
65
8d
ee
32
ba
f8
1d
26
cc
88
cb
6c
33
d0
98
92
52
b6
6e
bb
d5
fa
a5
3b
6b
ab
e8
b3
86
c3
6f
62
e0
28
b8
7e
0e
c2
0b
b5
95
31
56
b9
37
05
bf
ab
93
2f
99
2c
18
b8
24
92
8f
61
0a
4a
c3
56
cf
e1
b5
0e
e4
6a
72
41
dc
36
ee
2a
4d
c3
44
ad
97
6f
f1
4d
a0
a9
fe
51
77
3c
a4
a9
45
37
02
b5
4e
de
95
27
64
93
9a
bc
59
ec
1d
fd
de
f8
92
03
cc
c5
95
2e
90
51
94
d0
6c
1f
f4
0c
ed
73
e5
48
3e
29
b0
64
6f
0a
13
95
eb
37
af
e9
2c
b9
e6
d6
b3
9d
a6
62
6a
79
08
8d
81
2b
df
88
07
1c
70
ef
da
96
5b
db
34
1b
0f
d9
20
18
d8
22
0a
23
ad
1d
03
1e
d9
d5
89
ab
f1
b5
3c
c7
ff
a1
dd
89
fa
1c
d0
d7
ce
ef
bc
5c
bd
b0
ef
74
c7
db
b7
4b
54
55
06
88
b5
3f
aa
a5
ae
1e
d3
8a
fc
86
d7
20
3c
e3
fd
d8
d3
41
73
e6
3e
25
47
1f
88
c5
77
10
1c
48
db
d5
1d
a5
27
67
a2
40
9f
3a
4f
c3
91
28
4a
ed
6c
6c
ba
25
fa
75
ee
24
29
c7
1a
0f
27
10
17
b4
99
a4
7c
4f
44
a9
4b
90
32
42
70
fc
8e
e0
d1
ed
f3
3e
aa
95
d8
0a
f3
57
e3
8a
61
23
5d
a3
d1
bf
26
3f
5f
e2
21
34
58
be
be
4f
d1
1d
96
54
6a
6b
95
76
b5
0b
00
15
ad
47
a9
07
5d
67
ea
3f
d0
1f
bd
6e
52
84
d4
e1
26
bf
2a
4e
92
bc
84
20
68
96
59
d9
6e
5f
02
d9
71
ea
fe
93
7d
ee
c8
69
33
f7
08
fd
99
f5
49
b6
01
28
3c
56
fc
16
b3
59
38
06
a0
8e
d8
21
a0
2d
56
4a
9d
ec
65
4e
bd
ee
df
c1
99
b6
88
e5
5b
1e
3f
4d
b2
35
93
a1
99
4e
cc
38
cc
67
d2
a4
22
33
f2
0c
df
98
e5
9d
bc
95
4e
0e
35
f4
a5
1d
5f
cb
73
79
c5
51
43
6b
dd
7e
59
e0
75
8b
06
cd
8e
df
05
0e
f2
48
5a
f0
22
47
b5
df
04
da
85
6b
2a
0d
43
61
60
25
46
10
c6
aa
a9
e8
74
e3
fa
d9
a0
cf
fc
77
c8
c0
df
ab
48
a2
9c
ff
58
da
62
09
0d
0b
38
73
95
e1
50
56
30
38
bf
28
41
82
98
54
8e
4d
88
fc
16
69
92
0c
5c
5c
77
1c
28
70
9d
dc
28
be
70
02
16
ee
6f
ef
27
37
03
89
d7
7d
0d
3e
12
e4
75
05
7b
83
4f
e6
97
29
4f
ca
9d
77
d7
49
fe
ac
b9
3a
ed
f5
9c
74
01
5b
af
ea
ce
ef
f8
6f
ad
81
55
81
b9
73
34
40
91
2e
03
f3
3c
13
f0
71
9b
4a
39
3e
e6
d0
48
6a
09
fa
b7
a4
dc
4b
89
ac
06
25
53
87
02
ab
0a
c9
f8
c3
e6
0e
8d
67
0b
9e
a2
7b
96
b0
d5
38
a1
6d
ea
6a
63
22
b5
28
cd
d4
67
69
32
30
ff
a4
5c
72
45
cf
13
35
b0
ce
83
f3
98
2b
f5
67
2c
29
0b
fe
0a
cd
63
ef
25
a9
3e
b8
b6
74
bb
af
c7
91
6b
9f
8e
1f
25
d9
57
34
08
c3
c5
2f
b7
59
89
dd
40
73
5a
aa
93
4f
44
fc
69
42
01
c1
f3
69
4a
e6
5e
d2
b7
ce
3d
7f
d6
5c
ce
58
e7
5f
dc
78
31
ae
64
0b
d5
72
cc
8f
b4
5b
f8
6c
28
cd
36
20
e0
32
db
7a
6b
50
18
8d
fd
ec
23
bd
ce
55
f8
5a
ac
65
a9
66
ce
c6
ed
af
cb
a6
3b
09
f7
aa
7e
0c
52
ed
c2
ef
76
e4
dc
b7
bf
47
52
48
bf
29
83
96
a1
78
a5
08
cb
ba
dc
8a
f6
4f
e8
fb
32
0b
14
06
68
25
52
68
04
7b
84
20
70
c2
d3
20
2b
5b
79
5e
60
ba
df
d1
a8
ca
c3
30
25
1b
06
04
bf
ea
62
bf
8e
0c
8f
64
3c
07
b4
23
7b
cb
1c
50
0a
ac
4e
09
a3
74
08
b2
45
cf
69
4b
18
ec
03
2a
f2
55
2d
9e
5d
07
04
b2
e4
b7
67
e0
c4
47
f9
b6
f2
8c
10
2f
f2
ed
03
f5
3a
07
23
bd
65
6d
af
99
ff
26
a9
99
2e
e3
09
3c
41
e6
6e
44
cf
37
fb
f2
ce
27
a4
04
23
1a
ec
24
0c
a9
48
8e
03
c8
23
b8
5b
ac
a0
fc
31
f2
73
1a
b0
51
c1
29
3d
0a
9c
1c
fb
9c
9c
64
44
00
50
9f
11
73
c6
d0
89
7c
1e
8d
d5
9b
8b
a2
bd
cd
b7
31
2e
d0
5c
ca
03
f8
6e
54
57
4a
6e
90
2b
35
86
f3
a2
56
8e
bd
f5
33
25
34
54
47
7c
4f
3b
a6
f0
96
c7
85
cd
b3
50
1e
d5
26
26
73
92
40
61
9e
00
7c
55
fd
6c
b2
21
a9
18
7b
0d
f4
20
18
92
59
3c
9f
3c
ef
cf
3b
8b
61
73
ca
f0
7f
fe
37
c3
37
3e
1e
cb
94
cb
7e
3b
a0
43
a2
a0
6a
ec
61
a1
92
d2
e9
cd
c1
75
a7
eb
47
4f
96
c4
fb
c7
26
fe
fe
f4
da
dc
8d
f0
2a
d3
3f
bb
0d
2d
7e
98
8b
d3
eb
99
9f
cb
1f
99
dc
bf
57
16
f3
7c
22
3d
06
a4
83
a1
b3
7c
3b
55
c1
9d
6c
0f
3a
c4
14
99
d1
82
49
bf
21
f6
10
21
61
6e
ef
eb
27
09
d9
1c
15
19
25
cb
61
6c
d2
e1
3e
cd
c1
38
aa
a3
fb
1b
9c
75
ee
5a
17
94
65
38
8e
1a
1d
16
ed
7b
aa
22
a4
70
c8
43
a5
5d
1c
14
2e
ce
58
ea
be
f3
79
59
b3
14
f7
b6
e8
ee
ff
4d
7b
78
e3
47
aa
48
a1
3e
8d
02
04
54
07
7d
16
06
8e
c2
11
1e
e7
6a
e2
cf
77
44
ef
8e
cb
f3
73
3f
ff
28
d3
eb
77
29
97
28
87
c6
08
ba
b5
b7
60
95
b6
6c
b1
2d
55
19
f2
87
ad
37
cf
f5
57
43
a3
ae
e1
a9
15
1f
2e
60
41
65
1f
aa
41
40
7a
58
9c
f2
1b
09
ae
ec
04
0e
08
2e
a1
0c
17
34
a7
e9
c5
d1
f4
88
05
4c
28
5c
20
da
c5
59
66
4e
0a
68
55
cc
3f
eb
b1
51
83
f9
21
4e
52
ff
f6
3e
87
b4
5f
37
b2
c3
b4
bb
c7
0b
43
30
24
74
44
87
d9
12
a3
46
1c
f9
e8
17
e7
01
7c
b0
23
a3
1b
98
9f
f2
11
43
f3
b0
a6
b2
e1
e8
ea
5a
54
cc
42
ed
fd
c3
98
58
e9
4f
99
58
be
13
1c
f7
9a
6a
4b
a3
28
bc
26
b6
9f
af
52
59
1b
17
d4
83
f4
90
ae
1a
ae
e7
e9
5b
d8
37
9d
01
26
1e
bf
fc
bd
a3
ee
3c
0b
85
8a
18
e9
95
44
e3
c1
eb
52
d9
33
fd
c5
d8
63
7e
ff
5b
31
ce
3a
94
5d
86
62
e2
7e
4b
ac
ce
3b
dc
c2
ef
cc
15
6f
54
8d
a0
4e
72
8e
2b
d8
9e
dc
58
c1
9e
1e
02
07
92
04
6d
36
47
c0
3d
75
62
fc
0e
01
23
32
58
cc
03
74
37
da
3f
2d
1a
f6
3d
27
84
46
bc
a5
ae
c7
c9
bd
79
1f
2a
a7
88
71
eb
01
70
40
e6
6d
0e
1e
dc
6e
29
8d
e7
42
9d
d3
9e
99
50
b6
ac
ad
94
c5
5a
76
51
24
5f
06
f8
86
10
f1
32
ea
40
67
92
01
a4
6c
b7
7e
d5
c5
aa
d3
2c
f4
89
b2
31
a1
ab
e6
13
73
ba
be
73
4e
0a
13
f4
84
59
b0
05
ae
1c
e2
72
08
13
37
47
0d
dc
d2
04
73
17
f3
b8
95
e2
4e
43
b4
f9
11
fc
33
89
81
53
87
fa
95
9f
8f
b0
05
b1
02
01
94
7a
83
c9
cf
18
a0
0c
2c
9b
20
29
53
ca
a7
4e
2a
89
20
53
88
da
63
24
c1
6c
db
57
f5
e6
2e
f1
e5
23
ee
e4
7c
5f
4d
ce
1b
7c
22
3b
8e
89
13
7b
6f
28
bd
39
af
e4
59
c2
ed
4a
cc
c0
fa
01
12
67
3a
60
1e
e8
97
df
6b
c4
d7
8a
c8
1e
ab
3b
4a
53
c2
34
45
76
bb
e2
a0
91
98
4b
f0
4a
32
78
e8
1f
dd
97
56
26
06
43
a0
20
3a
e6
35
dc
5e
31
10
17
79
cf
05
c4
41
6b
b1
e8
05
ec
75
26
40
5e
f9
15
f4
0c
29
a7
56
a6
ed
f5
04
75
8a
f6
3d
25
aa
54
41
ac
d5
78
bf
17
7b
ca
c1
70
2f
e4
a7
34
2b
a7
b4
3e
91
8b
cf
b0
05
a7
4d
e9
f5
7a
d9
84
8f
92
65
ac
fc
0f
62
18
cd
7d
3b
48
e0
f7
0d
43
b0
52
92
1d
e6
d0
6f
8c
18
c2
f6
b1
b6
88
88
34
d4
9d
40
88
94
b0
75
ed
7d
76
9f
73
30
4f
51
3f
eb
73
a7
81
b4
d6
2d
34
af
9f
e5
0e
e9
cf
91
3a
ee
d1
46
17
ca
60
10
4b
a3
a9
63
65
8c
91
9b
20
0f
d0
e2
6c
a1
2a
ce
b9
7c
44
8f
d4
c3
e7
32
d3
e2
50
fe
99
87
d4
13
f0
73
8d
d5
a3
bd
06
89
8b
ef
13
3e
af
5a
43
c2
de
0d
e0
a3
ba
1a
a3
49
73
22
65
b6
8e
47
50
9b
8f
dd
23
dd
cf
54
96
66
ae
0c
18
ac
ba
b2
4e
96
85
a6
3d
5c
54
1e
43
62
da
f9
22
7d
b6
09
20
a4
01
a9
d2
9b
03
7c
48
fe
23
91
c6
ff
6f
77
c4
fa
c5
34
6e
5c
d2
6f
08
47
fa
a6
a5
de
11
5f
e9
e3
ae
6b
a6
cc
6c
dd
8d
90
2f
83
e2
64
64
53
51
f1
75
ad
cb
cd
7e
dc
64
21
23
01
d0
b9
21
48
9c
cf
9d
76
3c
22
da
15
5b
e9
79
7e
c7
41
38
f2
d7
72
96
01
a4
f5
00
8d
67
0b
61
3c
da
52
c1
00
d8
a0
ce
df
9b
67
e3
0d
51
0c
b7
ed
8d
1b
22
5b
d7
3a
a6
01
de
55
de
17
73
ab
07
1a
49
b0
c4
87
2c
b4
93
c2
de
ee
a2
bb
51
1d
1d
cc
cd
7b
7d
4f
a2
2d
d0
4a
62
85
19
a2
5f
ef
45
3f
4b
d1
58
4f
d0
d5
86
3e
1c
59
ea
0f
63
8b
36
bb
06
cb
13
6e
a6
3e
6a
52
e1
a1
f4
4f
89
fc
a6
3e
5d
e6
a6
78
b3
46
3b
4f
8d
5b
95
f6
02
4f
ac
f0
67
65
8e
26
7a
01
9b
7a
d1
95
47
9f
93
c9
45
ec
fe
41
c4
e4
bb
57
08
2a
0d
12
5c
8f
6a
41
2b
19
30
f5
a0
06
28
72
72
98
4c
08
46
27
31
58
9c
f9
84
98
95
4f
0c
8a
8c
3e
2f
4b
bf
a3
12
34
6a
a8
20
8d
c1
86
a7
9e
b7
2d
98
60
bb
3c
e7
d1
f0
1b
7d
e4
0a
cf
98
4a
7a
11
20
d1
97
34
29
a7
63
89
d5
ba
c0
a9
28
29
30
fd
4b
c0
4f
40
23
d6
a9
b1
89
94
af
d8
c8
16
41
91
1b
4a
8d
1b
6c
95
3e
e3
10
34
ba
e6
1c
1e
0b
d5
95
1e
90
e6
97
6a
3b
a5
fd
b7
d4
7a
10
c2
5d
04
62
5c
41
99
df
0a
f0
7e
7e
ac
64
13
dd
0b
91
99
9e
a9
92
df
84
36
6f
9b
ba
84
12
b5
c4
9b
34
71
7d
0f
40
16
74
36
c6
ac
9c
42
d9
91
01
ee
a9
fe
aa
c2
12
83
55
f2
63
31
b0
e2
57
e8
7e
75
84
86
4f
d5
8d
bf
39
66
6a
65
e7
ff
20
e2
23
ae
dc
17
c5
c5
22
97
00
88
89
d4
23
de
4e
b7
29
6a
b5
bc
92
5c
79
34
11
74
b2
73
45
ce
eb
86
40
43
35
bc
bd
9e
68
66
11
c4
e3
cc
a5
d6
a5
fd
1e
66
41
b3
94
0a
ae
78
c6
18
e7
4b
a8
d1
ef
e1
c5
76
59
82
e0
64
4c
ff
51
b9
2b
45
28
aa
8f
1b
b2
1c
4a
8e
b1
42
21
45
66
c7
64
e3
d5
d3
fc
6d
99
77
f7
f6
40
bd
d3
9b
50
39
39
db
34
f1
56
1b
0f
66
d6
9a
40
b2
85
8c
99
ae
e5
a9
3a
0e
42
3e
e5
60
9c
09
c3
a7
c9
d9
9a
68
44
d3
77
d8
32
56
96
a9
7e
d8
97
86
fa
63
18
fb
62
27
e0
48
11
5f
ef
77
f3
97
72
a7
42
39
fc
0c
46
9c
71
0f
3d
93
d0
19
9b
ba
47
f5
fe
97
74
3b
eb
50
b1
e3
3a
11
64
3d
0f
66
af
f3
81
20
ec
77
8c
30
78
c7
c1
ec
3e
63
04
5b
10
67
34
26
a4
f4
f7
1a
77
ed
3b
7e
d5
0b
ce
ac
87
b9
1f
0d
1a
34
f8
62
1f
10
07
5d
6d
31
9d
08
0b
ae
b0
5a
0e
1b
08
ae
bb
ee
c0
ab
4a
9e
4c
29
46
94
67
57
e6
88
ff
d4
ad
17
ad
5b
3a
98
96
48
12
63
33
77
28
01
8a
9d
22
19
de
a8
5e
7c
6d
90
be
d8
4b
74
64
e7
a8
d7
0c
43
46
de
69
2e
53
19
86
a0
af
02
40
f5
f3
d2
37
ca
ee
6f
36
74
98
55
bb
77
09
94
46
65
1f
de
f0
8e
91
e6
cb
03
2f
00
4e
81
2a
a0
1d
a3
33
c2
6b
70
36
fb
43
64
21
8c
23
28
6b
01
a6
bf
3d
35
39
4e
c9
15
48
9a
d5
ec
3f
19
13
2e
0d
c0
22
dc
85
3c
66
19
32
8e
31
ca
dd
59
d4
d8
99
9d
07
55
5e
b8
7f
62
92
d8
31
fa
21
d9
08
36
4e
54
94
1d
37
14
70
15
b1
04
43
03
57
30
5d
f1
90
8c
db
cb
be
71
8a
1d
04
32
14
78
86
eb
c9
f2
1c
3a
8e
c2
fb
d5
a1
7d
a2
32
65
8b
8a
c5
4f
a6
4d
4b
d6
dc
61
d8
70
58
a9
c8
76
bd
19
4e
63
42
23
ce
c1
bf
86
fe
1d
19
12
68
ca
66
cc
a6
aa
a6
7d
14
24
6e
58
f4
8c
11
7e
4f
40
b5
bc
38
66
1a
b2
27
04
32
5a
26
5e
fb
2f
f7
cc
a5
51
da
09
a7
36
82
07
bd
ed
99
57
0b
cf
df
7e
3b
f6
fd
5b
d2
c5
86
53
bf
f9
78
27
b2
4b
b2
1f
75
b1
3c
c2
02
f4
18
a6
e9
24
3f
dc
4d
01
76
df
e7
17
9b
39
e4
4b
3b
8d
5b
8e
0f
f9
8a
16
8f
c1
0c
41
fe
6b
f3
22
b6
22
d7
0d
09
02
41
60
c1
1b
67
5f
11
a3
64
03
8d
8a
71
1e
cb
04
16
8a
f0
74
52
03
14
e2
d5
28
6e
c4
15
d8
f8
4b
06
3a
57
9f
d3
55
d5
2f
97
2b
c8
ef
07
40
91
8a
a0
3c
71
97
25
40
49
83
9b
32
ae
ea
e0
77
45
ae
f3
a4
df
31
f4
78
36
bf
fc
9f
11
23
7a
de
32
86
45
3d
75
47
98
30
a9
e7
49
40
e5
e6
d1
94
26
13
6c
b3
ba
e4
53
2f
e9
e8
13
8e
b0
85
74
ab
c8
0d
23
dd
d6
55
13
ce
2b
49
34
cd
af
f7
f4
5b
3a
63
90
09
58
52
ff
6b
4e
7b
1a
35
90
db
0b
3e
9b
55
3e
ee
fc
df
97
57
e0
46
3e
4b
d2
3c
d3
92
75
30
71
3b
1f
dd
db
e2
83
ff
05
cb
1e
4e
0f
0f
7b
4c
54
d2
c1
71
49
87
5f
f7
99
7c
99
47
49
81
0b
d1
d6
73
c2
1f
99
a2
dc
06
19
c8
35
a4
a7
f9
e0
4e
9b
e6
a7
21
3a
b0
c6
3e
5f
61
35
8a
1e
b7
6b
15
bc
30
48
e4
aa
8f
fb
f1
06
91
06
95
66
a5
14
76
32
fb
c0
ab
08
58
96
3a
0c
5a
db
89
fa
da
6c
1c
85
8a
60
c1
f6
9b
67
f5
41
e8
0a
03
a2
8c
a2
60
81
47
12
23
76
3c
48
a8
24
10
59
af
21
b3
e7
a4
ca
e0
dc
b6
ae
04
37
de
28
ac
ea
0e
6d
84
b7
4c
89
27
67
08
4c
05
6c
8e
8e
60
3a
bf
03
1f
aa
d0
b2
cf
a4
dc
49
30
01
e6
6f
d5
64
ae
c8
9d
30
a4
7b
0b
88
a2
21
56
cd
ab
53
b8
71
41
1e
07
56
43
e0
cf
ab
75
cd
ab
f8
1c
8b
32
19
3c
ec
75
5a
a0
ec
64
32
c9
6f
1b
d7
3a
33
c6
5e
aa
d6
c6
ac
3f
01
c8
ed
cd
5a
c7
c2
d4
40
ed
33
ba
32
0e
2d
cd
46
b1
5e
2f
93
1e
03
96
77
9e
db
8d
b4
30
28
05
2a
1e
cd
41
90
ee
bc
73
de
63
89
ef
3f
7c
45
2a
cd
f0
f5
f3
04
af
72
d2
ec
38
71
a2
46
5f
6d
b3
fe
ca
46
a6
ab
51
e0
e3
bf
dc
59
ae
e8
a8
ef
18
01
98
c2
d9
e4
f8
e2
02
29
0a
a4
f1
65
13
54
1b
54
38
94
e4
d6
e9
df
fb
0d
bb
68
84
9b
29
fb
af
c8
74
a0
4c
97
78
2c
09
55
e1
64
36
87
9b
d8
b7
23
d1
36
e8
22
de
2b
ba
a2
3f
37
6c
31
f4
76
f0
be
8c
7d
61
54
b2
16
1f
45
96
25
8f
d5
ca
d5
e6
ae
5c
05
1e
fc
af
86
37
26
1c
75
79
85
c9
d1
97
0c
5c
20
d0
20
4a
1c
e0
e5
38
81
7e
8c
ba
d6
e6
be
cc
e5
16
d4
fa
1b
2a
fe
7b
0c
ba
7c
26
3a
35
01
52
31
95
33
53
b7
fd
a0
c8
26
5c
5e
32
37
4e
5c
a3
8e
5a
ce
15
ac
ee
b0
1e
06
79
82
03
97
8a
ee
69
63
2f
29
ea
d1
fd
29
50
b9
14
99
df
e3
ea
8a
bc
39
5d
83
85
b7
0a
15
79
6b
8a
e6
4a
e5
2a
18
35
2f
69
58
f3
6a
57
fa
98
eb
bd
cf
21
a3
b9
5d
62
c6
06
da
f9
0f
15
ca
5c
ee
04
36
2c
27
cc
c6
13
59
76
23
3b
c6
66
b0
5e
ab
40
ed
8d
f6
c7
26
bf
28
6a
0b
ce
4b
4d
47
a3
c5
f1
a8
8e
0b
c3
91
00
b6
f7
33
8b
17
16
e4
55
6d
6a
24
50
f6
1a
81
18
5a
45
b8
69
ec
e3
c6
3f
6f
a6
cd
1c
bd
22
47
b8
2f
44
8a
52
1e
7c
5f
d6
9b
10
63
28
9d
48
2b
0b
dc
a7
3b
66
b2
ba
9c
3c
08
27
f7
c3
ac
e5
83
13
97
df
18
21
8d
cc
32
35
fa
2a
0e
c5
98
4f
77
fd
93
2c
8c
38
f2
2d
22
3f
f7
0f
f5
56
ad
ff
27
2a
73
5b
1b
69
db
60
79
d9
01
d4
f9
d0
31
b7
f4
fc
59
a5
4d
11
1d
37
93
a7
ea
63
17
40
b5
d0
54
e7
18
52
c7
0a
cd
6e
cb
4e
c1
ee
5c
5f
86
8a
4f
be
57
0d
32
4e
a8
00
41
90
8a
9e
35
4b
fe
c7
37
77
ca
03
cc
18
42
41
40
90
4c
11
45
54
b9
09
61
20
e6
a3
b0
a0
4a
d7
eb
48
dc
b7
c0
85
5e
55
b3
7a
41
0d
a4
bd
c0
64
1d
43
34
d2
b5
95
4c
7f
e7
66
bc
fd
b1
e2
46
82
ba
40
9a
fe
3d
56
eb
38
2c
28
3d
ae
be
ae
ff
5f
85
d0
3b
83
df
e4
ae
27
b7
58
d0
eb
db
32
78
2f
bd
55
2c
fd
5e
2a
7d
71
7a
b5
10
d1
eb
b3
d6
1e
aa
73
d8
12
58
38
45
32
da
f5
03
78
95
a2
78
6e
2a
4e
8e
e9
f4
63
09
d5
ab
e5
f8
56
8a
51
28
f2
79
78
2e
6e
c9
b4
08
2e
6e
04
3e
9b
3b
d7
be
ad
ad
72
70
b3
52
dd
d0
fc
62
af
c3
38
70
f9
ce
7e
0b
dc
58
01
87
43
c3
98
bc
66
68
34
96
2d
63
bc
7c
25
04
46
b3
e5
94
ae
b9
05
3f
0d
4b
fa
18
4b
7d
36
ec
6e
a7
93
1e
cd
af
e5
4d
dc
13
c4
ae
2e
d3
04
cb
0e
e8
5e
ec
17
e7
c9
30
25
a5
ba
21
50
f6
f0
e3
b7
c7
bd
d0
f1
2a
78
f2
4b
2e
26
1f
43
60
6c
19
ad
a5
b4
34
1f
ee
8f
69
fb
ef
d0
f7
cc
a9
d1
89
d7
dc
5a
e7
ac
5d
63
ab
86
d4
15
55
18
ac
c3
92
b0
b8
b1
dc
c2
b2
14
e6
18
94
31
c9
ca
e8
f7
39
78
69
1a
17
65
cd
e3
b3
6f
3c
d3
40
f7
0e
7f
b9
69
5c
20
a4
05
02
33
f7
69
2d
16
9a
34
64
88
2f
82
a5
3c
05
a0
92
11
58
e2
09
59
88
af
bd
67
eb
e9
92
cb
0b
f8
ca
c5
fd
7d
a1
cf
f6
76
1b
c2
f7
6d
83
6b
d6
56
e7
0b
eb
15
71
ad
09
c2
ea
d9
79
e6
5b
64
1d
9b
48
a3
89
43
1d
a9
91
4d
9b
60
38
f2
18
cc
81
7a
f2
dc
8a
b5
52
c2
38
82
75
f2
af
90
97
3b
af
bd
92
e8
4f
5e
47
28
0c
e0
26
c4
ac
5d
e8
4f
fc
5e
c9
73
c0
91
2c
a7
fc
47
3b
a8
ae
82
87
00
c5
2f
30
19
f7
30
ee
d9
2b
dc
92
75
c5
73
2b
b4
82
3c
1a
04
aa
51
58
36
6a
47
3d
7b
5b
d2
65
49
64
e3
66
72
6f
1b
f2
e8
26
54
da
6d
b6
ca
a6
d9
6d
38
44
cb
d3
1c
2f
91
3d
1f
52
86
dc
1c
28
c7
30
2f
b4
a1
a4
cf
ef
f0
b5
e4
d1
63
a1
6b
d3
c8
a0
48
ea
28
95
ab
0b
da
1b
75
32
02
68
36
4b
55
1a
f7
20
66
7c
2c
bc
c0
6e
e4
26
c2
39
2f
87
4e
9f
6a
0d
4d
10
60
ac
07
55
4c
cb
c0
22
9e
fb
0b
84
67
89
82
d6
bb
3a
fd
75
c0
49
21
f9
63
f9
d0
d2
ca
e7
03
ab
17
16
00
7f
bb
ff
d1
15
33
33
f1
b3
b4
2c
cb
34
c7
8a
e9
fa
f9
04
9f
2e
2b
69
b5
fe
ba
12
5f
e7
09
a8
97
a0
ce
d8
db
66
d9
36
fb
07
8d
b2
c7
ab
33
5a
b0
64
64
01
86
a7
94
eb
cb
c5
3e
d9
f5
2f
10
13
26
94
db
5d
c9
e2
aa
f8
fa
f0
d6
99
44
d4
fc
c7
11
67
9e
b7
68
65
86
50
71
03
95
9a
5c
d5
90
ed
9a
57
d8
ba
f8
16
d9
58
fb
61
90
a4
8e
31
55
89
31
64
5d
f1
10
7d
d1
84
51
5c
a1
af
d3
df
07
02
2c
8c
23
3d
fe
96
02
8b
96
3b
cb
33
e6
a6
91
99
aa
84
72
f2
f2
53
01
e6
78
47
48
a9
89
5e
9c
49
45
7e
cd
ab
69
e6
2d
17
71
e7
4d
da
5f
d0
2b
a5
1d
64
41
85
90
26
fe
50
31
e2
72
55
69
35
c4
b8
ea
64
52
f0
f4
fd
13
a3
96
b5
22
c9
09
eb
61
8d
00
ad
46
5b
12
dc
0a
e9
cb
24
4f
1e
c8
d3
23
42
61
ed
b3
25
1e
83
b1
d3
a3
50
43
a2
5d
22
6e
eb
1c
81
8e
75
12
08
97
73
93
13
f5
60
ed
cd
4e
ae
5f
3f
88
5d
3a
42
98
9b
49
de
a5
fb
38
be
fb
e9
f5
41
ce
b2
63
8d
b8
db
fd
b9
d8
6e
72
82
73
1e
46
59
69
2b
51
20
fd
95
c0
f8
c5
57
a6
1d
11
9c
e9
8f
28
29
52
ff
c3
d2
88
f5
74
20
a9
9c
ef
65
ae
22
99
d6
73
f6
7a
00
26
04
c5
26
a1
d6
03
40
7e
e1
89
b9
72
ed
64
45
f4
e6
47
bf
bf
a3
6e
70
ed
5d
d2
5e
24
0b
b0
db
66
b2
a9
46
b2
e4
93
3e
31
d8
83
ab
1b
e4
6f
31
da
c3
e8
e5
0c
72
d4
2f
00
c0
f6
97
1e
a5
df
75
39
13
31
9d
ab
22
17
cb
7e
c8
67
fd
ff
9c
36
36
4a
0d
7a
70
25
b1
b6
1b
d5
e5
20
58
b2
58
f3
d5
a2
42
30
72
2c
7a
09
e1
f1
ca
fe
fe
97
24
cd
c0
03
2a
d5
9a
39
5c
ee
61
5f
ec
62
74
a1
71
15
62
26
b7
6a
5c
bb
20
e0
bd
5b
17
01
e1
c0
91
ab
e3
ac
2f
b4
f4
fa
b6
75
54
6c
19
5a
d2
8a
b5
99
27
41
30
1c
f7
40
af
a8
09
18
19
5b
be
9a
66
99
5e
32
f6
69
cc
c0
21
60
5e
c9
3e
da
1d
d7
af
af
3b
12
8a
48
95
38
db
d5
c0
62
6e
d7
1d
bc
ff
93
91
8b
f7
c2
75
c3
cd
5a
4d
64
36
0d
9a
62
cf
43
7a
75
bd
70
0a
e3
8f
f9
d4
e3
69
af
76
9d
de
2c
43
83
83
28
90
ce
8d
be
de
fb
be
9b
76
24
49
9d
65
6e
96
d6
7b
7b
1b
0c
4d
f9
13
20
78
c8
a4
25
12
b1
96
ad
91
1e
6b
87
84
eb
28
8f
f3
d1
ee
ee
87
4c
9e
b0
48
09
ce
f4
63
ef
87
e1
89
9f
94
d2
c3
f3
ed
2f
9a
d5
cd
65
69
b1
d9
48
32
90
9a
fb
ae
82
84
f0
52
4c
e0
4f
28
f0
97
1c
6b
cb
e5
12
84
65
b7
62
73
8f
3c
43
d4
28
e1
34
fa
e4
69
cb
17
05
1e
1b
10
87
64
69
f4
aa
62
62
7e
27
33
6b
4f
a4
3c
e8
2b
ea
1b
95
14
6d
39
95
96
5e
5c
f2
04
45
e4
20
5e
5e
97
99
82
63
49
18
a1
8d
35
1c
3e
c0
09
6f
cc
6f
f5
b2
d1
2f
5a
54
3b
2b
6e
11
1e
2f
6f
72
b6
9c
1b
84
e0
8e
d9
2c
72
1f
43
64
8a
bc
1e
56
4e
a3
57
27
fc
30
cf
a8
dc
15
ae
24
e1
31
57
3b
2d
ec
1c
02
71
12
12
82
f8
58
91
c5
47
69
18
c0
c4
09
2b
bc
c4
c3
3d
6d
e8
c0
21
60
39
66
01
52
60
90
04
2a
23
25
7a
ae
a3
8e
5c
55
02
c2
ab
f1
9f
f0
bd
d6
b2
3f
08
78
61
8e
1a
95
e0
d9
15
ec
54
48
ed
5c
a4
1d
49
1c
2c
c5
d8
3a
2d
bd
5c
ba
39
4d
49
7b
dc
c3
2f
9f
2d
f2
dc
8d
2e
a3
ef
c2
b5
fc
82
dc
84
d7
bf
bf
eb
37
6c
ff
2e
04
85
de
74
45
82
03
26
0c
d6
23
e5
7e
65
ab
87
de
e9
0e
9b
86
06
18
5d
dd
04
24
ef
32
31
4c
55
3d
e9
c9
fe
1c
a4
f2
05
a7
a1
e0
3b
0a
bf
07
f0
89
19
29
fd
8c
ae
79
5d
2d
73
e8
25
36
32
1f
3b
d1
f0
34
5b
ee
3c
06
a7
1b
9f
00
05
12
ae
be
c2
be
20
5b
3d
47
21
1a
eb
8e
c2
8f
c8
39
16
9e
ce
f6
2b
d9
12
83
ea
20
84
d7
37
25
38
b6
d4
0a
ad
70
f2
69
57
95
cd
c4
68
0a
2c
65
5c
af
86
ef
f1
77
fc
4d
75
54
bb
65
96
92
38
1f
e7
4e
23
ad
5b
56
f9
c1
bb
37
dc
f9
55
94
a9
73
7f
9f
2d
55
4a
c5
c2
99
24
de
d9
73
1a
36
55
81
a4
51
11
ee
de
0b
67
ac
d7
ca
98
52
fa
fb
bb
cd
29
10
00
a4
96
e7
e6
39
ed
50
17
9e
63
a2
d4
7b
48
2e
cf
a2
ed
d2
5e
e2
ce
9e
1f
69
3a
e6
34
7d
fe
f2
b9
0d
e9
f3
32
e6
03
4f
26
10
9a
98
6a
c1
b8
5e
1d
a9
b7
12
9e
df
75
19
47
3f
c2
97
f6
d1
9f
a4
83
55
16
1f
a3
62
af
d5
74
39
aa
bb
39
bc
5d
b5
d0
b1
51
93
cf
55
2a
ed
8e
b7
23
56
01
3a
ce
a2
d8
16
cf
eb
b2
38
a0
86
e1
c6
1b
70
96
a8
e7
db
41
93
ca
b0
2d
0e
cf
14
1e
f8
2d
6d
65
02
52
34
9a
62
db
66
d3
33
72
0d
4c
8a
a4
ef
71
76
7a
87
1a
7e
bd
01
ab
5c
1c
17
90
7d
c9
65
c2
ba
89
17
5b
3a
9c
5d
da
dd
74
a8
88
09
14
58
09
41
27
9a
18
15
50
20
c6
c4
cf
2b
2c
ef
b9
89
25
90
ee
ce
3b
37
d0
47
71
8e
01
12
f2
af
25
ab
c7
c4
f8
04
3a
0b
b3
fe
95
16
99
a7
96
4f
1f
46
85
1c
4c
10
88
18
26
9f
27
3b
ab
eb
f3
29
ba
89
02
a5
0b
53
02
1c
58
3a
5e
73
de
2d
f4
e8
1d
a2
53
3a
e4
42
47
33
28
b2
01
c2
ea
d9
de
07
43
95
9b
ab
7d
70
4c
73
5d
5e
3c
83
76
0f
11
d7
da
8e
32
c6
40
84
5b
a0
73
f4
21
7c
de
47
d1
15
7d
74
13
b8
5e
5d
d6
cc
5f
c6
d7
60
91
ea
5c
e2
4a
94
26
7c
1f
dd
f4
a0
1f
dd
bc
38
e6
41
ca
92
a0
cc
7a
95
d0
d1
ea
00
3b
6f
3b
db
51
fa
98
7a
66
d1
e0
81
72
73
af
46
0e
4b
f9
a3
5e
fb
b2
63
92
f9
39
66
70
66
ac
b3
46
42
99
cb
37
37
2c
df
38
e5
82
66
61
e3
0a
ed
a0
82
21
fc
d4
98
03
b0
92
87
28
1a
f9
56
53
f3
eb
58
75
a2
53
83
81
cd
f0
31
06
db
75
f0
fa
cc
9b
1c
26
58
7e
ff
29
91
8a
53
b8
1c
b3
b9
05
c0
87
ef
37
c2
04
6d
83
60
92
e4
fe
4c
69
4f
ea
63
0c
20
c2
31
1b
f3
d2
ff
95
41
eb
d1
fe
5a
12
6d
e2
26
4e
9b
b7
b2
0f
aa
b5
12
e6
20
de
ca
34
07
6d
6b
93
50
ab
e9
f6
38
ac
89
34
2a
7d
70
14
aa
b3
9a
09
fd
42
b1
6c
59
ad
ba
a6
07
83
2c
84
18
53
ff
fe
7e
a3
54
2e
10
fb
a4
08
be
83
cc
08
ee
26
33
da
bf
16
11
17
2b
27
d2
eb
a8
4c
c3
b6
dc
f2
af
c6
c6
3a
79
c7
cc
0b
7e
55
9c
79
ae
b6
d8
6d
d3
3e
1c
46
10
39
85
a5
2f
3a
3d
79
56
38
4e
88
8a
6b
98
0d
c4
ba
75
48
8c
2f
0e
ea
a3
c1
0b
cf
6b
ea
77
22
dc
c9
4e
5f
f6
93
18
a0
ce
de
3b
5b
93
77
32
19
a7
86
38
77
90
2c
8f
d0
b1
ae
58
f6
be
ab
6f
e9
33
e9
22
9d
fd
e9
e9
f4
db
9a
49
a5
d8
f3
a1
da
d1
35
4a
43
bc
c4
fc
c4
d8
52
14
ae
a0
4d
dc
31
29
e1
37
1f
2c
21
8a
4f
a0
39
57
c8
b6
54
b0
d5
4f
b4
f2
ca
9b
64
e9
91
e3
97
64
a4
63
c1
bf
ee
43
53
ce
69
b5
8c
57
e2
c1
42
74
05
05
67
2f
f5
9a
ee
b9
63
42
e6
de
6e
aa
d6
18
8d
79
96
d5
f2
33
8c
0b
52
53
5b
91
f4
c1
ce
2f
55
e5
bf
28
b5
61
b3
5c
22
97
da
a2
92
4a
65
a9
0b
d7
5d
7c
fa
9f
d4
79
42
ad
dd
79
6f
35
fa
6c
97
78
ac
64
07
78
70
d7
a5
46
e5
8a
9d
33
b0
f6
37
7a
ba
fb
40
aa
35
2a
6b
f8
bc
41
54
e1
c8
96
ac
c6
b9
a3
73
a0
e3
73
94
7d
04
9f
ca
28
3f
bb
97
dc
a4
07
37
aa
1d
90
86
0d
d0
a2
43
9e
35
91
dc
77
61
af
c6
3e
11
c4
7e
e8
0c
5a
b7
06
41
a0
4d
db
96
90
c4
e9
b3
f0
c9
70
6c
35
62
5e
55
75
86
85
ec
2c
8c
15
ce
b8
58
4e
5f
ea
af
4f
ba
b8
63
3b
bf
9d
b6
8e
d7
46
4e
3a
30
48
f4
24
26
74
a1
b3
2c
14
55
24
10
28
c6
10
92
96
e2
f1
a6
3a
c6
aa
47
be
c6
42
fa
cb
8d
2f
c3
46
61
3b
3c
00
63
e4
cc
a2
64
bd
65
e5
d3
55
1a
2f
b3
e5
1e
e6
70
5f
00
52
d2
05
6c
53
3c
10
4f
0e
fc
91
6a
ce
df
23
29
4d
0f
a1
3c
65
05
9b
00
8e
d2
1c
33
e1
1f
f3
f1
aa
b3
ff
9d
6d
4f
4c
1d
36
fa
33
0d
92
98
ba
c2
41
9e
b0
77
52
06
2f
bf
44
86
6d
af
51
d4
bc
28
ff
a4
33
2c
e4
ee
28
88
2c
5b
44
3b
28
62
2c
f4
b1
70
b3
48
15
fb
60
e7
cc
17
33
92
4f
8e
0b
f4
03
f9
5c
48
a4
61
99
73
99
18
77
77
16
1c
06
78
7d
93
6e
a1
f0
f3
40
1c
a2
10
21
dc
7f
31
ed
bc
32
2a
fc
ba
e2
b8
07
d9
4e
ce
40
74
de
fd
b3
10
19
60
d6
3d
d6
b8
49
09
3f
a3
12
4f
6b
29
48
12
6f
7b
fe
01
b8
5e
d1
be
18
94
a1
db
85
2a
b3
6d
3a
09
03
ec
b3
92
2b
26
d8
58
6b
e7
63
e5
84
b9
75
25
a9
87
a3
3f
0e
dd
2d
60
9d
8d
ce
d9
e4
7e
d4
c9
c1
ef
6b
0f
86
87
47
f5
f0
f1
24
9e
ec
b2
15
c2
8c
b6
9a
10
c0
62
9d
04
ba
d0
5b
3d
37
ad
ed
fc
c9
03
e4
13
4d
be
d8
a6
27
a6
fd
f9
36
e4
5d
d6
45
7c
53
3c
b9
03
03
95
40
a0
4f
8b
b0
20
f9
5f
82
9f
97
0b
0b
5e
39
5d
a9
c4
8d
be
d2
07
88
64
14
08
07
b2
4a
c3
65
dd
0d
31
22
9d
79
ef
86
8c
d9
8c
3b
f7
92
e8
c9
a8
73
1d
2d
51
45
8e
bb
eb
30
4e
23
3c
70
92
72
08
59
74
2c
40
69
1c
e6
ea
16
33
fa
00
ea
35
3d
38
7e
e6
ea
1a
2f
21
7c
07
8c
e8
70
83
df
9d
f4
fd
d4
3e
9e
c7
7a
af
05
86
b5
fc
cc
0d
8d
0e
66
e4
b3
f7
14
75
58
fa
33
2d
a0
5a
c3
78
12
55
49
02
5a
a0
f1
eb
a1
d3
c2
ff
8a
d2
45
9e
4e
b8
b5
05
d0
50
4a
72
61
10
dc
32
97
67
ec
0a
fa
fc
fb
06
6c
5e
b8
e7
03
6b
52
06
a0
1f
79
2e
df
6a
aa
d9
7e
ad
4e
52
74
bf
0a
29
0c
fd
0a
0c
61
a4
1f
5f
d4
47
28
74
7c
c9
62
c5
a8
9f
3d
1c
94
9c
b8
b6
ca
57
97
60
6d
1d
4f
a5
bd
4b
63
6f
64
8a
d8
e7
29
c3
94
26
1f
8e
ce
26
14
0d
d2
3a
d4
1d
f2
75
8d
cc
ee
7f
d6
11
d7
f7
7b
16
95
2f
e1
ca
0e
21
17
79
95
b5
39
fe
4c
0b
35
d6
44
69
75
cd
db
fd
47
b3
83
e8
6c
51
0f
8b
7a
7b
5c
89
d0
06
33
46
f0
81
11
21
1a
3a
b1
b0
e8
09
18
6c
9a
66
87
93
78
40
d2
71
ef
ce
c2
3e
97
43
c3
bd
ff
46
4a
ee
b4
51
41
a1
e5
13
87
9d
bd
5a
f9
a1
00
fc
c4
21
8b
33
c8
11
cd
f7
d3
1c
cf
c5
49
2e
70
96
6a
d1
87
c3
17
2e
c7
e4
84
41
1d
b1
75
00
0d
df
06
b7
88
55
dc
3b
d2
f4
7a
28
ea
20
5b
12
06
f5
82
d1
e4
27
c4
98
8f
7e
88
7e
d1
ca
d9
be
a7
34
06
e0
a4
f8
a6
e4
27
fd
9d
26
b3
43
08
6d
6b
79
b0
50
79
79
2f
43
a5
d8
59
c3
e7
79
2a
c4
7b
de
f0
fd
5b
b3
03
65
d4
df
5f
f1
a7
1b
6a
c7
f9
5f
2b
84
a8
8e
77
58
37
8c
c9
0c
cc
96
31
30
6e
e2
53
fc
32
5a
92
13
fa
63
88
c6
16
98
b6
64
c6
35
28
85
59
90
b2
f5
df
ce
e3
af
1f
c0
8b
2f
7b
1f
b4
3f
b3
af
f9
52
14
db
66
d7
f2
bc
05
6c
c4
ad
d1
26
11
a3
8c
24
82
42
ac
9a
a5
14
ba
05
6e
5c
56
60
c1
56
6d
c0
b6
8e
75
a1
ca
1f
44
48
5d
d1
cd
1e
6c
76
60
04
08
78
dc
a6
c8
e0
60
ea
ef
7d
9e
b7
87
8f
4e
3e
0a
e2
f1
26
b7
5e
1a
58
a1
60
d3
2e
4e
e7
6a
fc
47
6f
b5
61
b8
a2
3d
76
a1
af
cf
5b
f0
7e
fa
a1
17
5f
70
56
1c
e5
0c
ca
99
62
06
4c
88
8f
d2
56
2c
ee
b1
90
b3
9c
53
3d
5f
1e
a7
1f
55
46
6c
9c
0b
a1
4b
77
19
88
86
91
d1
d3
ef
32
54
79
1c
8d
59
56
1f
b0
1d
ff
8d
f0
bc
67
34
6a
0e
fe
04
59
9c
a8
e2
d6
72
a3
c6
38
c7
a8
df
a6
22
4a
f3
c1
a5
3a
c1
c8
39
cf
1b
f0
43
46
d4
b2
b9
4f
3b
58
d4
bf
05
22
f1
53
92
44
3b
7c
3a
69
c6
29
49
bd
47
84
62
63
3b
f0
e4
7b
56
cf
10
b2
14
2d
dd
d0
8a
56
97
d9
b1
77
e3
8b
b0
49
8b
8a
fa
c4
90
e9
d1
2b
a6
dc
73
8a
5e
9c
1b
1e
41
1c
5b
4e
8e
06
fc
3a
93
0c
e9
1c
b7
8b
f3
63
bf
f1
58
c3
e6
ce
3b
2f
40
be
c7
91
2d
48
4e
7b
d9
ba
8f
cc
6d
81
7b
91
2e
89
3a
7d
26
41
4b
fd
8c
91
a4
01
8d
0b
52
fc
e2
d7
96
f2
df
a7
db
4f
90
d8
4b
60
4c
d1
5c
56
1a
7e
df
bd
72
94
17
b1
d9
9a
81
b8
73
5c
4f
00
6c
af
0c
5f
ba
37
7d
04
5b
79
1f
a4
35
e2
91
c3
49
90
44
cd
15
76
42
00
3f
d7
c0
b8
bd
02
62
3b
53
67
35
3d
9b
32
d1
49
66
09
ec
f9
41
cb
87
65
85
38
f7
46
69
63
93
20
6f
b6
6b
1a
38
6c
d7
1a
d0
b9
ca
ee
14
a6
ca
40
d6
13
3d
ff
fd
21
72
af
74
b0
f9
0f
db
7d
60
94
0e
e4
59
b1
21
3f
24
65
c0
a0
bc
89
37
cc
e1
f4
04
60
fb
c5
cd
23
2f
32
d3
66
3d
c8
ad
26
33
93
3c
a9
cf
a5
59
8e
d2
14
78
af
33
55
43
bc
fb
dd
c4
a2
c0
b9
b7
72
db
0c
b5
32
fb
88
52
6e
42
9d
3a
ec
ef
eb
77
dd
6d
12
0a
5c
da
06
5f
cf
a1
91
ec
ef
b9
3b
5a
95
2f
69
62
ba
c7
1b
df
ba
3a
6f
60
c0
a2
4b
84
15
6c
6d
ad
30
bf
cb
ce
b7
13
90
32
b3
6b
91
79
3f
8e
24
4f
4f
2f
98
79
70
ed
9b
a6
d6
d3
a8
02
51
ad
04
7a
ab
c4
ad
b2
d5
f5
7a
04
06
ae
b7
5d
c5
8c
3a
9a
54
83
4d
c0
00
35
0d
12
ca
55
b5
c5
13
ea
dd
bc
39
2e
45
9a
31
c1
57
79
aa
12
bf
c7
46
0b
bd
29
49
b5
71
fb
43
68
96
b8
33
0c
da
70
0f
dd
a4
28
5a
96
ef
c2
c2
12
32
18
33
3d
d0
5d
7e
a8
23
7d
15
5a
18
a4
20
a6
60
0a
0e
3b
f2
24
29
4f
1b
54
1b
0e
76
b1
70
24
57
35
03
48
65
c9
2b
b9
10
a6
33
af
87
ed
b0
3d
56
9d
6a
b6
bf
5b
ae
3c
4f
8e
a9
d2
f2
a2
d8
1b
f2
71
d8
5f
f9
