34
90
59
4a
2e
03
46
f7
b2
b8
ff
ab
35
94
ae
28
be
4d
b3
66
3d
77
85
34
cb
63
97
3a
97
38
19
04
d7
04
02
85
bd
be
7c
96
fd
6a
ec
f5
a7
81
ad
30
be
2c
fe
af
42
ed
25
f2
32
f7
28
86
fe
5a
09
90
6f
dc
67
be
da
75
d1
de
2c
2b
55
dc
3f
b3
3e
3a
ce
61
2d
e9
38
2a
6b
a3
ff
21
fc
3c
f8
29
bf
69
6e
e2
ca
07
0e
99
03
ed
92
4f
41
62
a3
37
32
43
40
6a
cc
c5
c1
0a
cd
2a
ff
47
53
ab
5a
1d
2d
65
1d
ed
bf
32
04
9a
df
44
de
16
81
f1
1d
43
35
2e
78
c6
31
94
b2
f8
54
23
07
cd
7a
f5
4d
74
ab
1c
9c
90
27
33
d0
21
e7
21
98
c6
46
6e
77
cc
1a
20
6e
47
a9
6b
fb
4d
21
ad
18
6a
cf
f5
d2
8f
e2
af
35
4a
32
79
02
f1
a6
00
ed
a9
bc
cb
dd
ba
8c
44
36
0a
45
31
59
2c
7b
12
e1
52
60
73
a5
98
b5
96
d0
99
d0
6f
f8
da
c5
ed
99
4b
d4
f2
9f
68
4e
37
eb
d6
9a
da
cb
e8
74
c2
19
82
e3
97
64
91
48
b1
92
b2
55
59
fc
1b
41
68
69
f5
23
eb
1b
1d
e7
e1
5b
f9
8e
73
ba
dc
7e
47
e7
27
5a
19
65
c9
5b
51
a3
97
f1
de
25
36
e8
26
6d
f4
34
86
b5
31
bd
1a
a9
c0
81
d5
b0
3f
74
f7
25
75
2e
94
2d
3e
a7
6e
b2
9f
77
b4
51
e3
6b
ea
fc
b3
ff
04
57
11
2e
2e
a3
8f
dd
bf
62
97
20
88
40
7e
e0
63
d8
1a
e4
36
f2
cb
69
d9
de
d0
e1
90
e7
7a
ca
22
56
63
21
3d
bb
40
ce
b0
19
bb
c9
21
a0
5c
91
cb
06
01
a8
f7
b5
0d
78
c9
e1
7e
f7
ba
a6
cb
3a
36
82
91
4a
66
fe
f2
bf
19
ee
72
59
45
a6
9d
4a
dd
db
ed
7b
56
7f
4d
c7
3a
44
f3
6d
88
e8
b9
b4
63
04
3a
78
3a
f1
d7
5a
d0
a2
83
fe
f7
17
00
e4
dd
f6
fc
70
a1
75
33
21
36
08
a7
91
55
74
4d
04
66
56
7f
d6
99
03
0a
09
7a
83
0f
e7
bf
1d
41
9d
0a
ee
37
7e
22
fa
57
46
5c
14
cb
53
7c
17
8e
e6
71
b6
20
d7
bc
35
60
38
e1
0f
2d
a3
55
d8
51
dd
cf
18
90
d9
e9
