ea
a0
5c
57
df
bd
eb
c7
5a
bc
6b
61
51
97
20
e4
ed
6c
de
94
cf
85
8f
6b
d4
14
17
bb
98
3c
21
dc
f2
02
19
ee
93
f2
3c
b6
f6
a5
ab
0e
0f
e9
06
15
24
ac
01
e1
2c
0b
a3
9c
66
36
8b
e0
bd
f1
88
e9
3f
ca
e8
49
6c
fc
7c
ea
85
7a
3a
40
bb
11
54
3a
c9
6d
31
0e
0d
40
19
f3
27
cd
99
77
40
3e
a3
7e
c4
75
05
bd
e9
3b
06
da
c0
b1
0d
2a
c7
f5
88
95
91
94
66
87
e6
23
f4
58
94
a8
e4
ba
da
25
39
44
4a
17
9f
97
cc
47
4d
87
f2
f2
82
9c
91
f3
f8
0c
af
a4
3a
42
33
cf
f7
13
19
44
cb
6b
37
d2
db
c8
c4
a1
79
2d
71
31
68
4b
90
85
b1
47
10
ce
74
d4
77
e4
e1
60
a3
d5
9f
3d
0a
6e
4a
30
6f
31
f4
71
0c
c6
4b
05
8e
14
91
dd
fc
b8
e4
f8
ec
d2
1f
7f
fa
06
d3
02
c1
21
0b
df
2f
5c
d3
96
05
03
33
57
ba
af
fa
e6
b3
75
06
1a
9a
1c
bf
0b
8b
98
24
02
16
e7
d8
e7
98
7c
ca
ae
22
b0
ab
8e
b7
19
a9
97
