7b
23
fc
58
19
e3
d0
90
5d
37
d0
74
64
9a
fe
1a
f6
6d
09
70
33
c7
71
77
d2
22
02
3a
ac
5a
f0
89
65
a6
c1
c4
0a
8d
83
90
49
53
b7
8f
de
50
eb
99
fa
fe
cd
08
f3
8c
d2
8d
fa
6d
8b
0c
fd
44
4a
37
3b
5a
20
1a
5b
db
7d
8f
2f
e8
f3
c0
b5
e4
21
4f
d8
4a
1e
1a
f7
16
0f
8a
77
14
28
fd
aa
2b
bd
a8
df
62
fc
83
10
da
de
aa
1d
1e
ce
1a
24
92
8a
6e
f4
5a
af
20
82
29
56
2c
b9
d7
37
59
75
66
77
de
2b
de
7f
fb
0d
68
15
48
a7
c6
f5
d3
7e
c5
40
21
73
a8
0e
20
77
72
f5
ac
61
45
fc
df
e3
f5
1a
66
5b
44
99
68
2c
13
86
c4
52
2b
fe
b8
36
2f
33
41
93
3f
aa
cd
89
e2
aa
38
d9
a6
12
a9
b5
ac
e4
8d
89
87
ea
ce
e9
4d
bf
ce
4f
03
c4
f3
4d
9a
e0
cb
6e
ba
79
1a
16
ae
73
09
52
f2
11
14
77
c1
89
da
ae
4d
8e
51
43
12
90
cf
f1
ee
dc
51
e4
6c
d8
b5
25
a4
14
12
43
c3
44
5a
02
c1
eb
ab
5e
ea
43
91
60
a6
d9
12
af
5e
25
ae
40
a3
c0
d3
2a
66
90
9a
76
08
4c
90
d0
8e
03
2d
f6
c8
56
4a
3a
49
fc
72
03
69
4f
af
0a
60
d7
9f
5f
f2
14
0a
c9
3e
73
70
ff
35
60
cf
0a
cf
d9
49
30
92
01
da
f4
1c
5b
b3
aa
51
f3
1d
53
0a
a8
8f
58
99
da
86
5d
20
bf
4b
4d
5d
45
e9
29
4d
81
b5
b2
af
8c
d9
e2
18
39
03
ae
84
d1
97
06
86
11
bc
b1
2d
7b
06
52
00
c1
2f
7f
ea
b8
5e
c1
df
d3
9b
dd
8c
c1
a3
b4
35
01
c8
f6
d6
1c
72
b8
d1
a4
24
4b
56
d5
ae
d0
3c
54
c7
8d
a3
7b
4a
8c
c5
f5
1a
60
7a
c4
84
d2
ad
22
a3
6d
01
65
cb
c4
a4
b9
52
25
8d
27
00
46
25
dd
70
44
51
1a
f3
2a
88
48
57
f4
32
21
72
ad
55
3b
6e
24
ae
40
37
0e
eb
4a
14
5f
b4
50
5a
df
4a
c0
95
84
b5
42
c0
5b
34
2f
ec
05
fd
a8
c4
4c
e5
ba
a6
b9
1a
41
be
64
2a
8a
88
4c
0b
1b
6a
51
d7
55
d4
38
8c
29
9d
36
25
ad
6a
09
54
a9
6b
95
a8
68
6f
f0
69
fd
35
11
cb
ba
4a
be
5b
0a
a9
eb
0c
d7
10
91
5c
16
b1
4b
ff
2f
4f
c2
2c
8b
2b
c4
4a
1e
12
20
ea
63
5d
05
dc
9e
3e
9c
a4
8d
f1
65
e1
aa
79
3a
b3
b0
6d
d1
a5
fc
68
6e
e2
46
b6
d2
3c
58
0a
7c
46
37
f2
31
74
d2
31
cc
65
3f
c7
43
af
58
88
6c
73
4d
81
04
02
12
bb
bb
f2
38
aa
21
a0
8a
09
b4
ec
b8
91
96
88
98
c8
d1
4e
a7
4d
bf
e6
8e
a2
08
94
42
ff
f8
23
8e
62
52
e0
d1
f2
77
e7
4b
f1
cf
b5
60
b5
d4
0d
87
a3
1c
46
b9
e4
92
4f
23
55
5a
10
8e
89
94
43
3d
e9
88
9c
44
47
58
10
72
30
c4
26
68
da
a6
95
79
d2
6b
07
b8
6b
35
94
f4
cc
d9
cc
f3
13
91
95
62
1b
eb
96
60
23
0a
1a
e5
f3
87
e8
48
6a
10
54
11
8c
2d
c0
84
39
fd
21
6e
fe
fe
02
52
13
82
47
fe
fb
e7
10
dd
67
f3
49
a8
fc
49
47
99
21
2e
60
42
33
e6
e4
93
8a
58
08
7d
a3
e0
83
9d
92
aa
09
91
df
16
31
57
18
0d
c0
d3
72
69
a1
ee
f5
7f
3b
b2
6d
de
d6
7a
f7
22
54
ca
58
b0
97
a6
45
fc
2c
63
15
8f
25
c2
15
d1
02
8b
33
43
40
26
7b
f6
6a
d3
bf
36
f3
19
c6
93
34
9e
18
12
70
1f
75
d5
b6
db
13
45
84
d2
36
9e
8f
0f
a8
86
ef
a3
b5
21
70
96
f7
c8
14
f1
13
b2
93
8c
5f
fd
dc
23
38
93
cd
91
ed
8f
99
14
c7
35
52
d5
a8
3d
06
8b
79
06
67
1a
a8
81
2a
39
50
33
ed
f7
27
b8
20
22
5d
86
e7
d8
e8
32
b0
2c
a0
8e
40
06
29
74
ab
df
66
5a
5c
87
67
82
39
af
d6
40
5f
11
23
9a
95
e6
12
21
b7
f9
bb
ec
dd
64
07
68
a5
7c
c0
6f
20
16
cc
d9
fc
88
a7
b6
08
62
44
5c
6a
1d
f5
c7
4d
e3
55
3f
9f
54
88
fb
62
ca
78
9e
d4
cc
c9
1e
19
3b
b5
ba
53
e1
9f
ee
b1
d2
f9
22
ca
c0
a6
93
4e
e2
92
74
7a
ef
c0
dd
74
25
16
57
18
c4
da
65
03
03
7d
a4
ad
58
16
d2
99
0d
d6
e6
47
4f
2a
c2
bc
8f
37
06
87
a1
3a
e9
63
ff
f7
de
71
48
03
71
1e
55
8d
1b
da
5a
24
c2
9b
92
31
9c
ef
fd
dc
38
c9
ef
b9
69
10
e7
39
3c
42
42
a3
42
c6
5b
f1
c3
07
39
20
5e
1f
6c
7b
f5
5e
ed
a9
39
45
a8
33
53
29
c6
06
59
88
99
a8
5f
58
bb
1f
29
73
ca
fd
89
cc
b0
67
f7
f6
7b
3d
77
a9
92
72
f3
d1
35
eb
5c
1e
6c
f3
7c
d9
83
af
fe
2d
54
d7
98
74
9e
ac
91
6d
b2
16
e7
0c
e2
1c
5c
8d
d5
d0
55
de
43
85
ad
6a
5c
76
53
48
5e
7b
5a
e7
6c
27
2c
d8
cd
29
60
a9
0b
c3
65
42
4f
ff
2c
d3
31
2f
93
de
86
5b
68
b5
92
f4
26
8d
01
a5
b2
3a
04
62
e1
6b
1f
37
88
82
35
17
ea
7c
07
02
f4
37
22
0d
f6
f2
06
9f
37
e2
e4
a7
66
f1
ee
8c
f7
94
03
8f
90
c3
18
c6
8e
b3
84
36
83
0e
ff
61
79
a6
a7
29
7a
ef
ba
95
c6
6a
1f
5f
02
a2
16
32
4e
2f
89
d6
fc
45
3d
87
8b
27
ef
37
63
d7
83
a0
de
8f
a5
0d
8e
92
aa
18
be
63
d3
f4
19
c9
ef
e9
c7
de
aa
1a
97
f9
02
aa
e9
4a
90
fb
54
1b
e1
54
8f
42
74
24
b6
ef
7b
36
7a
dc
87
c3
d1
c4
10
8f
48
18
5c
51
a5
cb
6a
4c
d7
c1
52
14
ad
2a
b2
c1
e3
d0
1d
e9
a9
af
87
2c
9a
5a
b2
be
bb
1f
77
0c
76
67
a5
00
c8
02
05
f7
d3
ce
82
9c
8b
6c
a1
d7
da
c5
49
da
39
36
fb
6e
4b
8d
b8
57
5c
d6
6b
0c
29
fe
b8
3f
c5
0e
d8
8c
ad
d7
66
2a
eb
dd
56
5e
e9
b3
c7
8a
2d
29
cf
8f
7c
24
bb
a6
a9
4c
dd
0b
96
ae
c5
26
be
48
b1
88
38
f3
6f
d1
7e
69
40
91
e5
4d
c4
04
f6
55
07
2d
1a
d5
7f
b5
20
6e
42
0e
af
06
e0
fe
91
e8
ad
e8
e3
bb
a2
26
8c
ff
9c
94
62
cc
f5
9d
ff
aa
c0
4b
fe
f5
ca
d7
2f
97
26
fa
9b
86
29
d8
e7
89
a7
45
42
09
ff
76
aa
2a
0e
ed
c0
b4
df
fc
76
24
48
e8
76
3d
4c
c1
82
08
bb
d3
6b
b5
63
a3
d5
b4
5d
2d
a2
cc
dd
b6
0a
79
0f
bb
50
68
eb
57
09
cc
ad
b3
c7
08
6d
8d
f5
ec
6d
a1
13
c4
0e
ae
bf
e0
2f
62
2c
e7
1c
84
f8
ce
6e
a2
40
05
bb
77
97
32
98
d2
88
c8
34
0f
a9
58
29
b7
ae
ca
15
ca
52
24
01
74
31
fa
48
bc
03
25
a7
fc
8d
4a
fd
2d
50
1f
1e
ca
68
5d
c2
2f
03
7b
54
c3
b4
8b
5d
47
2c
7c
bc
08
07
30
d4
32
5a
1a
b8
10
3d
e9
9f
a4
a1
a6
92
61
f2
e7
91
34
04
66
f3
5b
7e
7a
38
68
7b
b4
df
d9
78
34
ef
76
ca
e1
59
92
60
a2
9f
d0
b8
2f
e7
53
f6
78
77
76
73
47
a3
96
4b
82
96
ce
d3
83
00
a7
09
ce
7d
fc
47
29
6d
eb
34
8f
9e
76
0d
d1
a5
47
43
d0
1b
4b
89
f1
40
18
bb
5e
01
c0
f6
b5
93
fa
c8
4a
a8
41
73
e0
66
06
73
84
cf
79
31
92
87
d6
78
cb
3d
a7
21
1f
3c
7f
48
7a
0d
0d
7b
27
96
94
e8
6f
e0
d6
92
02
72
85
c6
67
b7
9f
ff
b5
f8
94
75
f2
9b
d6
e7
46
c1
13
05
2a
00
4c
47
97
8e
a2
18
4a
90
ad
72
de
2f
15
2d
93
2a
cb
c7
ab
cd
63
c2
da
00
d5
2c
45
41
a7
16
b8
57
0e
10
85
15
16
77
ff
5d
d7
cf
d0
d9
3d
70
b7
6d
5b
45
dd
ec
eb
3e
55
68
fb
4b
cf
59
b4
71
df
b3
5d
cb
4e
d5
75
15
31
5e
48
8d
ba
d5
c5
49
2c
87
b6
6d
0c
00
1a
89
d0
dd
57
5e
74
14
d1
97
8a
6f
ae
52
9b
6a
fa
02
6c
b1
02
1e
67
a4
e1
fc
54
da
e7
37
e1
67
b3
62
ab
df
6d
b7
c1
42
00
48
a3
6e
b5
b1
f3
7c
b5
75
76
50
e9
56
5d
b0
25
8c
b7
39
8a
36
06
bf
bb
41
54
25
da
33
e4
b3
b5
48
e5
23
1c
55
ff
27
eb
04
1f
9a
28
4e
2f
0c
45
1a
c4
d8
57
5c
41
6b
14
76
f0
b5
d3
be
d5
4c
38
71
55
ce
02
f7
85
1c
21
22
d0
b1
96
f1
76
2d
34
39
e0
8c
93
dc
77
90
a1
85
6a
ae
93
04
bc
f7
1d
93
70
76
86
a4
20
53
eb
f8
19
d1
b2
a3
9c
1a
9c
20
68
cc
15
90
72
8a
55
0a
d9
27
08
9a
51
41
1c
57
28
8e
1b
7b
6b
ba
69
7f
bb
e2
af
d7
e4
97
e2
76
c6
77
f2
99
c8
3d
19
7a
ba
73
58
5b
07
cf
de
59
22
69
e1
20
34
98
4f
1d
9f
65
c0
94
33
be
52
7b
31
6e
73
6a
bc
66
c9
48
84
39
02
34
96
6e
18
4f
1f
c9
d5
87
9c
33
74
be
96
d8
06
35
34
94
af
88
dd
65
e2
85
6f
cb
fd
7f
83
7a
e1
cb
64
51
11
72
60
9b
15
94
0c
33
35
4e
2c
20
bf
90
33
e0
03
f1
ad
87
8c
e4
af
53
8b
a3
a4
42
94
b0
fe
ec
21
7e
db
6a
9b
e9
27
89
a9
8f
78
59
f4
0b
f9
a6
ef
0f
7c
8f
2a
09
f2
c2
bf
dc
ef
c4
29
1c
1a
c3
13
9a
55
5a
b8
41
75
63
4b
67
bd
83
51
1e
22
18
ea
41
37
8f
9c
bb
8d
2e
c9
67
32
39
1d
16
fe
56
0a
b1
b3
87
52
94
31
f8
27
f9
7d
14
aa
9f
22
10
ea
02
81
fd
8f
7e
55
1c
91
8b
40
f2
ce
fd
ac
17
f6
99
da
fc
bd
ce
48
76
5d
3d
3d
f4
88
78
ae
e4
8a
f1
41
fa
1f
11
1b
22
0a
a7
0c
79
cd
53
70
e8
ab
d3
f2
fa
b0
d0
68
32
7f
99
16
17
ae
5f
f7
76
9d
7d
0d
02
da
c9
a4
ef
3f
cc
f2
bf
cc
22
59
82
95
c9
8a
c4
fe
10
fc
98
58
2c
ed
b6
7f
5f
c9
56
a0
49
b8
12
21
0c
53
8a
50
50
5a
9f
e6
8d
1e
78
28
36
f9
f4
55
b7
62
41
5e
93
8e
10
be
86
a2
57
52
75
9d
ff
09
68
cf
32
ad
df
25
6d
e1
66
2f
7d
a8
fd
42
ea
23
de
5b
2b
9f
fd
3b
3e
97
1b
cc
ab
cb
c6
28
aa
92
07
e1
4c
10
c7
51
ad
27
4f
da
12
ff
82
0f
0d
2a
c1
a7
77
d3
7e
fc
27
3e
b1
2b
aa
ee
d9
0a
7b
33
25
12
1f
07
a9
0b
61
7b
06
8e
01
18
d0
4b
72
4b
f0
67
b2
c6
88
c6
ba
66
0f
66
d5
2d
a9
18
1f
83
6e
8e
0f
1d
35
2a
37
93
50
4a
ac
1a
17
2b
fc
10
03
ac
85
15
b0
7b
00
42
ec
30
58
da
96
aa
4a
01
6e
63
97
16
73
ca
12
48
2d
97
9f
ac
4d
54
07
05
db
d6
cf
fe
6f
50
68
90
e7
be
ae
3b
db
31
0b
b6
96
05
04
47
ea
6a
86
a4
8a
f9
84
92
04
6b
cc
b3
1b
61
f1
c9
24
30
82
73
53
28
31
88
40
ab
e5
bf
6f
c4
11
6c
70
d2
e0
16
c9
f3
16
19
1c
5a
4e
1a
66
2c
da
8b
be
95
75
ab
51
ce
f2
c0
9e
d8
18
21
5f
52
db
1b
ef
40
46
2b
e3
8d
fa
59
f5
c6
ba
2e
5c
ed
c2
3a
44
93
5e
75
3e
32
05
5b
02
f2
0e
b8
4f
34
87
35
90
1b
ac
e6
6f
fc
34
e5
eb
e5
91
cc
94
f5
26
46
dc
98
b2
cd
f0
9c
4c
b6
09
56
b3
1f
cf
7a
c3
e3
ee
0a
78
0b
f7
be
91
08
91
7d
50
9c
20
5c
4c
b1
9d
db
c5
36
1f
3a
c4
50
44
7c
c6
3e
89
25
56
34
23
12
2d
7b
fa
5c
a6
48
17
90
7e
da
77
0a
3b
40
3c
e0
6c
0c
43
02
40
09
9a
13
46
0f
ff
cf
16
38
5b
f8
0f
48
8a
77
fe
de
b2
7e
25
60
9c
2c
5a
1d
60
dc
ed
2d
15
29
ef
34
84
66
f8
99
a6
6a
0f
56
f8
29
ac
c1
38
29
33
58
aa
95
98
d3
16
5a
4f
4c
e5
bb
5c
23
14
55
96
24
e2
8f
20
7e
2f
05
bf
e7
c0
b0
e0
7b
45
75
c8
c0
af
8b
bf
e1
42
93
fe
3b
ec
b0
a6
51
ab
91
1e
e2
70
57
5a
2d
48
0e
38
7b
2b
61
40
c7
de
61
da
16
08
18
e0
15
51
bd
2c
46
07
d7
8f
71
94
4a
0c
a1
f7
4b
57
a2
0f
cf
90
b2
71
10
06
9b
72
ca
8b
83
8f
36
84
2e
c8
e6
f2
d7
47
05
5f
d7
92
3d
9e
fb
09
56
03
98
d1
be
5e
ae
86
c8
82
b3
65
33
70
18
f8
c4
39
7b
a9
d1
89
89
cc
3f
0d
73
0a
d3
21
79
b4
f8
9a
5c
ef
cd
2b
ce
d4
35
37
0a
fa
ec
9f
49
28
c3
1e
db
1f
d0
b1
f7
8c
91
df
a5
6e
a0
ec
71
be
c7
a4
8f
77
13
f3
22
44
bd
a3
26
c2
49
e4
c4
08
44
29
b8
63
31
81
82
27
a2
9c
8e
d5
54
7e
3d
65
5e
20
c9
06
1e
d7
f7
41
07
f1
8d
2d
ff
24
64
db
b3
73
6b
a4
ef
7e
2e
a6
3c
cb
54
c3
cf
e7
64
fe
05
e7
28
31
4f
cd
ac
ae
1d
9f
fa
fe
36
ad
2f
50
34
10
ba
bf
ba
df
70
4b
00
7a
e4
ce
29
fd
c4
26
5a
3b
b1
ee
cf
14
1f
da
5a
8a
0a
fd
93
e9
de
60
9b
11
56
4f
af
4e
c0
12
a3
6f
83
6c
03
1c
77
92
fb
83
02
c2
32
ee
23
6b
55
b7
8b
1b
19
c3
38
f8
58
c8
9b
b3
c0
1f
48
63
7a
cb
7e
17
7d
1f
9b
8d
25
eb
ae
8c
49
4e
8a
13
57
f7
b6
c4
f4
93
8f
73
18
6b
cd
35
f1
d3
54
49
ef
37
35
b9
8e
b7
f1
4d
60
fc
8d
01
b9
e1
fa
f2
9c
a6
48
c9
11
0f
19
30
95
19
07
ab
48
29
4d
8d
2f
ca
e3
87
be
a6
01
86
14
cb
be
0d
07
75
49
83
6c
f9
fe
a2
8b
29
c1
a0
de
1e
69
62
a4
05
22
04
4b
bf
b5
90
98
d8
04
e0
be
6f
af
2e
b8
af
87
c8
8f
9e
8f
fa
0d
cc
81
0e
29
ad
b1
df
4e
ab
ce
d2
7a
87
39
64
61
66
38
af
3d
1b
ba
71
9d
cf
27
ef
d7
14
fe
8a
7d
1d
6d
1b
36
3f
aa
ac
39
2b
dc
66
5b
5d
33
59
ba
fe
df
67
98
44
13
8a
c0
b0
e2
d9
7b
c3
ca
41
ef
f7
47
55
91
1e
32
70
a3
41
40
16
82
7a
62
96
6f
35
7c
56
a3
d3
0a
ed
3f
e1
f7
64
03
b5
57
6b
12
03
58
02
7e
f8
1e
5d
ca
f2
a5
3e
2d
7a
1d
0f
20
95
97
bd
2e
17
15
b9
0b
81
f4
e7
c6
a9
b6
e0
59
aa
f5
78
e0
ef
71
6a
e7
e5
96
b2
09
9b
79
bd
9a
b5
df
c4
70
f8
64
ee
a2
b8
5a
3c
1c
cc
1a
31
1d
93
b8
21
b3
a9
5a
dd
a8
90
7f
c7
a6
35
7a
7d
d1
24
c4
b1
25
4b
94
28
2c
5c
6b
41
6f
87
56
e1
4c
f1
2a
04
71
6c
0b
39
04
ca
95
d6
69
44
a9
47
5b
2e
19
95
11
8c
73
55
1f
c2
6d
3e
1a
1e
74
76
63
f0
cb
6c
b1
b6
eb
64
78
b5
98
be
d5
a2
e4
44
05
d6
e5
d0
b8
5e
48
27
59
3a
8e
0f
d3
5e
ab
29
f4
19
00
da
0d
8b
96
31
e4
ea
46
ec
19
02
66
0e
11
f5
a9
50
12
4d
d2
93
a3
e0
0e
ca
91
2b
56
94
f5
ac
c5
44
79
7d
60
d2
0a
72
57
41
b0
85
46
10
ad
e9
78
11
8b
42
ad
7c
76
21
97
18
78
20
87
8b
ba
67
2c
51
7f
0d
5e
b0
12
6d
b3
21
8d
5c
b6
c5
83
74
98
d6
fd
35
13
58
36
1f
41
2f
e9
0f
27
f2
cb
74
25
75
0c
2b
2a
3e
61
71
a2
6c
81
3d
f8
49
91
50
f3
bf
0c
f0
e1
96
ae
6d
4c
f9
65
ca
66
ad
67
e0
c3
63
d5
2c
b7
1e
f5
65
91
9f
3c
62
2e
f0
29
b9
1b
a3
e1
ea
40
64
9f
32
76
67
67
05
af
4c
2d
2a
dd
59
2f
18
40
0f
64
66
b4
8c
a3
bd
1a
5b
b1
f8
15
1f
01
f4
70
8d
a8
ed
b0
37
49
84
e6
8f
5c
1a
58
e8
eb
40
95
72
70
63
c3
96
76
ac
7e
67
45
62
7b
fa
5c
8a
ca
57
be
a5
ef
53
7a
a3
22
9a
ab
2e
10
51
14
95
47
bd
e8
7a
62
4d
e2
84
40
84
cb
3c
57
54
a8
5a
ab
05
8a
22
48
af
92
c4
4a
71
b7
3e
23
3d
63
45
8e
e0
4e
e0
cc
ef
d9
92
4c
8f
6d
98
2d
43
be
2c
c6
51
dc
ba
f6
86
c0
6e
97
4e
98
bc
fd
df
9e
60
9a
5a
9e
6b
bf
f0
d6
85
21
34
ca
61
33
49
22
75
86
63
30
3a
0c
ef
f7
24
7b
93
55
49
ef
1d
07
dc
2e
3f
a3
da
f8
cc
70
62
82
9f
ff
e4
83
7a
7e
97
41
f5
e4
3e
02
86
63
5a
2c
48
1d
41
66
ad
4f
52
11
73
d2
19
b6
82
0a
fb
4f
1c
b2
ad
18
74
94
2e
03
11
69
f7
cf
d9
b0
5d
43
34
76
c4
69
da
b8
12
c8
3d
79
73
15
f8
78
0a
8c
ec
e2
50
cb
ed
c6
2b
31
14
c6
83
24
65
54
30
da
00
0a
e1
7b
c2
ec
0d
82
0f
d8
cb
fd
5e
96
cb
45
a4
4d
dd
f9
8d
93
f1
33
c4
e9
03
86
5d
9e
f3
2e
aa
56
38
3c
25
ac
87
d5
08
e9
5e
2d
d2
8f
9a
84
87
49
cf
0a
79
ad
ef
0a
28
b7
c0
03
26
68
01
e8
ee
10
c5
bc
8c
02
aa
e5
56
02
20
a5
2d
b0
da
1e
c9
1a
3b
e4
b6
10
ce
03
9e
40
b3
88
48
20
2a
84
6d
66
be
8c
4d
59
2f
b6
e4
bf
2f
be
85
8f
48
c2
b5
61
93
11
21
9f
47
58
93
17
4c
e4
28
51
58
4e
cb
cc
29
de
22
c8
2e
e5
9c
5f
91
4a
3c
ea
26
44
dd
7c
95
2f
68
27
b7
00
99
de
86
3a
3f
33
2d
6b
b7
94
c9
0a
75
21
bc
4e
a2
83
c3
b9
63
bf
ad
d4
96
d2
44
8e
4c
13
cd
54
a5
9b
f9
e3
af
e3
f3
a7
b2
1e
c0
55
2e
85
b7
d7
5a
24
ca
00
ce
98
85
c7
19
9d
ff
71
da
0a
04
2b
f2
1c
ed
b9
b6
5d
d9
5c
f9
dc
2d
9d
e8
c1
a4
3f
8e
13
dd
b1
0e
29
88
3f
17
d8
af
56
aa
49
1f
32
4a
ba
34
6e
a2
19
b5
98
20
e9
92
f0
a8
15
28
27
9c
06
71
57
07
4b
f7
6a
a0
a5
c5
20
c0
8c
be
aa
d0
ea
f8
74
c2
27
8c
05
f0
94
57
12
78
6f
22
23
d9
63
65
f1
a0
b3
4b
47
25
ae
f8
99
f3
e6
70
a6
c6
aa
38
56
08
62
ef
74
6e
76
ab
fa
a2
65
dc
9b
b9
fc
5f
a0
3e
25
fe
46
41
a2
25
f1
ce
0f
96
0a
5e
8a
d7
b9
77
52
2f
bf
96
db
3b
13
a0
c4
4c
d4
75
a2
12
bc
5a
e7
6c
e3
90
06
9b
63
f4
b3
1b
3f
58
48
16
af
13
a2
d1
be
a5
f8
d9
f8
ff
e0
66
fa
9c
9e
1c
f7
fe
1b
ce
ed
a4
e6
01
19
01
1b
83
b0
5b
6d
2a
97
68
71
fe
4d
e7
7e
d6
40
b5
b8
6d
e9
43
42
28
f3
f0
61
4c
41
71
c1
e5
f9
0d
74
74
e8
8f
58
6a
f1
0c
00
17
45
62
37
ab
6d
39
ca
db
67
c5
fe
7e
f2
35
89
49
6a
8e
87
b9
c5
7b
fe
b6
c7
b9
6d
5a
93
2a
d3
87
8a
36
ff
af
9f
01
f6
99
c2
a5
23
7e
1f
3c
f9
e9
ab
42
f2
9e
01
27
7b
28
18
88
a9
a1
41
67
84
ee
3c
ba
cd
3d
c2
25
59
85
41
5f
e7
6b
28
94
50
df
5c
12
82
72
c3
a4
00
c5
ce
53
6f
21
d1
0a
a6
87
a2
fd
ad
a8
7c
ae
a6
89
df
37
58
e7
0e
ae
22
86
1f
0c
ab
7d
6d
0b
ce
34
48
9e
f9
b0
62
2e
ec
1d
6b
75
19
8b
2f
f2
37
64
74
d2
73
92
94
55
21
04
ec
6d
11
55
c8
d9
1f
5d
b9
db
c3
de
d1
be
91
bf
64
4c
d7
26
31
6b
96
c6
86
65
95
85
3c
a5
89
56
d8
10
d6
36
4d
da
f5
c8
2d
e3
aa
1e
19
9d
5a
f1
28
df
83
9e
21
97
73
4e
b4
34
c9
e7
6b
d9
d7
76
f4
f0
c0
f0
41
4a
c7
cc
f0
35
c9
44
9f
20
65
92
28
17
25
da
73
1a
e5
fc
84
dd
1b
b4
0a
53
fe
91
d6
1e
ee
96
be
aa
f2
c5
f6
1a
00
a4
63
57
03
42
0f
da
d3
17
00
28
14
98
d4
b5
40
30
49
a2
97
9b
52
c9
92
09
a0
ef
77
2c
73
aa
f4
94
7e
18
31
d9
69
e0
6f
90
93
a0
e5
d4
81
1e
1b
e7
85
f5
8b
e7
a6
a0
12
9f
da
46
ad
06
cb
a9
da
7b
00
8e
c7
2f
fe
92
af
55
50
37
2d
e9
f1
58
69
ef
ed
e5
eb
4d
f9
cb
4a
b9
c3
49
22
89
ad
e6
60
26
39
1d
a4
c9
3f
3c
d4
57
29
6f
fa
da
0a
a1
ec
b5
b3
86
02
21
7e
ee
48
3c
93
35
fd
af
97
d4
fb
23
db
8e
41
1e
c1
ad
db
25
96
b0
4b
05
b7
34
2a
7c
22
f1
2d
b9
e8
b1
2a
dc
05
8f
06
79
79
94
59
a4
8a
ba
4c
1e
96
09
f6
f8
d9
a3
6c
3c
37
37
6c
86
5c
1a
01
6b
3f
ee
c8
c4
3e
ff
68
2c
b0
e9
00
f8
68
9b
4c
5a
05
8d
08
68
72
2a
17
bf
8c
78
fb
a1
fc
26
5a
ff
24
07
84
01
50
9d
ca
a6
75
96
82
a4
d2
5c
9c
de
1f
55
81
42
dd
09
07
86
86
df
00
3c
7f
10
60
3a
c8
08
4d
bb
a5
0d
b1
45
58
24
a3
b6
19
c9
33
2e
3b
89
98
2d
c7
ec
33
b0
b7
a8
2e
ef
86
96
d8
e7
07
35
b1
6e
e6
99
52
fd
76
0d
fb
0b
1b
42
45
4d
6e
32
8d
ec
36
52
f9
fd
46
46
1f
6b
70
21
10
9f
d6
41
e9
dc
93
4d
78
21
5e
61
c3
3d
ac
d0
43
c4
69
71
92
03
e6
4a
28
a4
f8
bf
7f
5e
2f
2a
1c
4e
8d
fe
9e
c6
d5
56
b1
0e
a2
bf
4a
8a
58
84
3a
34
90
2d
12
2f
7b
53
18
ed
35
08
fe
4b
16
02
49
68
bf
b2
cb
4a
3e
91
fb
fb
62
0a
11
4d
a4
a1
b2
f8
ae
2a
b3
2a
6b
a3
8c
ab
cf
09
94
dc
9e
53
c1
44
75
49
ec
e0
24
08
a0
9e
0a
ce
33
61
d9
99
1b
f0
b5
44
ac
8a
ab
98
4f
af
46
50
f4
3d
b3
f2
71
1a
56
3a
01
cd
e5
46
6e
c2
43
f1
ba
32
71
a5
54
e7
55
ba
29
e9
0c
1a
b2
03
40
c1
14
2b
b1
48
a9
4a
d7
f1
9d
2e
32
14
8b
cd
bf
1f
e7
1a
d7
5c
40
ce
04
db
cf
97
70
8b
53
82
6d
b3
a2
42
af
8b
a1
30
e0
a5
9a
69
15
63
ba
c0
e3
8c
e0
9f
3f
03
44
b0
66
4a
d6
c0
92
e6
60
a3
a9
61
72
94
11
59
d5
8e
4c
f4
9b
67
60
02
d3
60
a4
f9
2a
cf
7d
de
ca
5b
54
7d
cd
25
a2
d1
ad
14
9c
13
17
4b
b4
02
1d
e2
69
72
15
64
7a
40
71
01
5d
9e
b4
e0
63
ce
b2
db
eb
86
34
24
68
ee
e4
a5
2a
9c
ff
b2
1c
43
10
1f
1f
31
e6
75
3b
09
5b
d6
c0
64
22
46
13
ec
6a
e1
30
ad
68
10
bb
71
9f
12
4e
59
28
1a
c4
73
62
aa
75
7f
d4
3b
d3
5b
88
a4
fc
d3
33
c6
32
55
8a
8b
df
f5
50
7a
e6
c5
61
b6
88
20
11
da
22
d6
c0
77
04
8d
37
88
66
ae
f6
d4
9c
a4
44
74
10
77
6f
fd
ea
72
3e
87
a3
20
56
72
ff
be
c1
9d
57
1a
a9
0b
e4
6c
85
11
1d
6a
34
c6
64
f1
36
68
ec
e1
74
b9
4e
5f
bb
dd
e2
e9
aa
fe
b7
3d
3d
99
3f
f1
9c
86
00
46
5c
5e
b7
28
e0
68
54
62
2a
4a
95
e9
6f
fd
3d
66
fe
76
85
32
3d
cf
52
fb
98
16
33
c6
5a
9d
3f
71
49
6d
7e
d9
02
40
a7
9c
81
22
72
ae
cc
e6
23
c8
41
b7
b7
43
8f
32
92
ef
1d
9c
ca
cb
78
d0
d5
7b
aa
5c
97
2e
e5
3d
5b
d3
f0
4d
72
7d
66
ae
c8
93
a9
e7
1c
87
f0
24
fc
c0
51
26
47
1f
ff
42
88
9c
1a
a4
cc
5d
9e
0c
f6
26
cb
1b
be
e5
6a
fb
df
97
6e
9b
b0
78
e9
de
e3
96
f9
51
ca
c0
87
69
89
d8
fd
82
1d
17
a9
ee
26
68
97
75
68
71
22
fd
be
20
e9
92
a7
09
4d
94
60
b9
7d
49
4b
14
b7
59
f6
53
a3
c9
55
a3
4c
61
78
a5
b3
c8
51
e8
f3
c4
e3
61
e5
1d
e2
b2
5c
8a
72
11
4e
2d
77
9f
5d
57
6d
73
0d
da
e9
f8
7a
57
8a
87
f7
53
5e
8d
3b
fb
75
73
1a
38
a8
fa
79
3e
74
6d
a6
53
9b
cc
62
e1
fb
f4
13
44
8b
c5
bc
e9
ae
fc
93
d9
5e
50
6d
3a
69
1c
83
be
48
c0
3c
66
d9
5a
2d
87
3d
2a
e4
8c
a3
e0
6a
06
48
2a
ab
00
43
26
29
7c
ec
c5
d6
46
ca
7a
fd
13
dc
66
22
de
aa
5b
0b
fd
10
c0
70
c1
9d
73
ef
c0
c4
c9
1b
4d
d4
8e
49
90
a9
96
b1
d0
7d
33
82
38
93
ac
c8
9e
26
5c
12
d9
d7
96
05
4b
2b
c6
64
e2
61
2e
cf
49
e3
70
ee
6e
05
6a
95
a6
6d
60
be
4b
9a
38
17
3b
38
4c
ab
ba
87
0e
e1
f4
1a
4a
7c
c3
8b
37
53
0f
35
ff
00
7b
fc
29
66
b3
bf
34
16
74
fa
99
87
9c
b8
6b
9d
f4
24
fe
df
be
be
e7
78
1d
8e
32
0f
83
10
8d
13
2a
75
38
2b
21
13
a3
ea
b7
84
99
1f
c0
c9
03
ac
e5
f2
53
a7
fb
bc
dd
b5
3c
ca
20
af
a7
ca
d9
eb
38
40
1e
41
ef
a8
20
6c
0c
b9
36
34
bd
e5
86
7b
4e
c0
17
ee
3d
70
71
10
b6
9a
87
2d
ca
fd
56
01
eb
a3
eb
b6
5a
40
ee
d4
12
5b
52
37
98
ff
d2
64
8a
ff
63
c9
d6
db
1b
59
e6
7b
02
40
54
33
f4
10
dd
91
8f
5b
36
78
af
ff
32
05
ed
8f
ed
9f
3b
fb
32
4d
a5
f7
87
7a
fc
5d
96
06
16
cc
e7
1c
9f
d5
2e
67
2e
d5
26
cc
c4
0e
8d
eb
9f
a7
e6
a9
45
20
51
b1
3b
43
26
e9
db
c1
25
eb
1b
c4
ff
93
ec
75
05
db
53
1e
41
75
64
a4
9d
e6
ef
c2
d0
df
8b
a6
0d
05
92
27
36
2a
e5
f9
ba
3a
a2
01
6d
53
d0
6b
b2
9a
dd
61
0e
a0
aa
b0
4d
62
96
98
41
59
25
b0
c0
db
ef
b7
97
67
d2
a2
3b
2b
f9
f7
bd
58
7d
1a
10
77
f4
d6
5c
40
e0
a5
2b
35
dc
09
d3
63
85
8e
49
ba
b4
ec
a2
82
9c
46
58
ab
03
46
86
c6
34
73
88
04
6e
78
47
b7
f3
72
a1
30
71
f5
29
ba
98
de
96
ba
03
e7
ee
25
2b
0f
87
66
a3
b8
0a
14
f5
fa
01
db
55
0b
fb
33
49
55
3a
f3
77
70
72
d5
b2
25
b9
e9
5f
04
1a
00
0f
85
2d
9f
50
fb
92
97
cd
3b
61
8a
4a
f4
37
c6
fc
00
8f
64
49
f5
04
ad
54
e7
c1
6c
93
d0
38
8a
d9
4d
74
27
a8
0b
34
ed
f1
98
10
9e
34
ba
35
6c
4c
ed
2c
19
39
64
50
65
e1
d3
c8
46
b1
54
ae
e2
68
74
77
7c
7a
98
62
5c
1c
a0
4e
7b
71
bd
5e
eb
f5
da
e1
ca
6c
83
06
63
fe
f5
61
a3
7e
3a
9c
a9
3e
c0
81
3f
3e
d4
8e
52
9f
2b
95
b5
36
8a
ad
fa
7d
8e
a1
9c
18
a8
38
ce
1b
7e
f0
5e
68
a1
60
e8
64
42
c9
1f
8c
b3
52
71
42
70
14
90
33
9b
44
f8
63
56
59
cc
5d
41
ba
d5
f1
de
e6
4f
f3
ca
ad
02
45
26
98
ed
f2
22
53
b3
a5
2d
1a
26
7a
91
62
a5
0a
be
97
62
1f
bc
44
1a
24
df
d8
f4
6a
fc
7d
28
bf
0b
09
46
81
09
bf
1a
31
de
2c
ee
27
85
5c
b4
e6
29
22
5d
68
28
c8
83
7b
9c
7f
90
f2
28
18
c2
8e
78
41
e1
07
5b
0b
17
03
51
a7
e4
c1
b5
70
96
d6
3f
c6
c6
dd
48
da
fc
ad
eb
db
0c
6e
3f
4b
b2
5b
5a
f9
ee
c8
aa
73
ec
be
18
6a
b1
51
e5
36
2f
4a
dc
d1
d9
88
55
0e
15
fb
39
28
d0
f7
75
d2
d2
4f
4b
4a
eb
ee
b3
63
cf
8c
27
64
b4
05
ee
d7
38
71
a8
33
1e
52
e0
40
d3
b8
b0
f9
bf
9e
50
9e
a0
bf
18
0b
63
8b
ce
3d
cf
19
4e
8e
51
e4
a1
1a
23
e5
cd
a2
1f
d9
03
85
7b
ca
11
b9
64
05
6c
a0
b3
c2
c6
f3
a0
27
4c
be
a1
69
7d
79
0b
87
4c
de
41
c5
49
15
6a
c5
cb
9c
a6
4f
75
d5
05
c6
32
ca
1c
cd
45
a0
ae
08
da
6d
76
34
c7
34
e7
91
77
42
cf
0b
fe
76
79
71
62
07
84
59
25
96
0b
6f
d3
5c
48
cc
d1
10
00
b5
c4
c9
b6
eb
fb
bf
be
0f
43
d3
eb
28
31
a9
79
48
d1
fe
76
a5
10
c2
1d
91
7d
ee
95
db
48
18
1b
00
cf
7f
4e
93
a0
d2
df
33
ad
1f
d3
2e
c1
76
2d
f9
f0
28
ad
a2
f8
74
a1
36
55
03
e3
18
46
29
c3
66
b6
ee
4d
b2
ed
38
6c
5b
a7
dc
ba
04
48
9f
2b
6c
11
87
96
f0
68
45
e2
1a
b1
e5
aa
f1
19
73
6e
24
2a
bd
6e
52
e3
af
45
f6
57
6d
8e
3b
09
18
09
7a
22
76
d7
0f
f6
ad
88
ca
33
32
72
0c
31
d4
1f
77
aa
8c
36
99
fc
6e
85
dc
55
17
b7
20
42
f9
74
65
3f
22
89
f2
ab
31
16
7b
df
84
95
d0
06
53
22
e0
18
f2
2d
5d
95
94
c2
7e
de
9e
db
c2
b9
47
2a
4b
32
8c
40
b9
71
1c
aa
c6
e0
9a
eb
be
6b
69
2f
2b
a5
99
c6
ad
59
33
39
8c
30
62
55
e7
11
88
c2
5e
ad
c4
44
fb
9b
3c
a1
f7
df
1c
2a
0c
d1
08
cd
82
93
da
6d
28
26
a8
1c
4f
e2
b9
60
a5
a7
08
c0
9a
61
44
43
e1
2b
a7
24
bc
59
14
34
d0
e3
0b
6a
f1
73
41
96
13
e4
a1
d9
05
a5
17
2c
4b
b7
5f
13
ae
ab
4c
0d
20
7b
b6
b6
b5
69
e5
e2
a3
da
ae
ee
95
53
df
b9
09
e7
c0
9b
7a
5b
b7
1e
a8
f2
44
92
7d
cf
38
61
73
6e
cd
ba
b5
d8
3d
84
c8
c0
ee
0d
91
ea
f4
ef
68
bb
0a
d5
3c
2d
96
ad
ce
54
58
1c
ef
19
04
ce
fc
41
4a
60
b2
c5
b9
91
82
62
e0
d3
ac
f4
b6
35
54
8a
91
9b
6e
d9
35
2e
bf
6e
8b
fd
03
6d
1b
33
b0
bd
5b
73
0d
3a
2d
04
c2
45
4a
20
41
76
8c
f6
3c
87
e5
9f
08
fa
c5
0a
52
47
29
23
02
7e
df
7f
a0
99
0f
b5
b8
d2
1e
92
dd
29
b6
f2
bd
da
d5
e0
b3
6f
b5
49
98
0f
0e
96
d2
d5
86
70
15
aa
f2
ed
ae
49
c0
93
cf
1d
9e
b7
90
97
9d
f9
5d
69
2b
15
89
7d
fe
fb
46
ed
8b
66
30
f5
dc
07
94
09
f6
cd
09
cc
fc
7d
f4
4b
2d
8a
23
a1
91
38
26
87
e9
33
99
be
03
c9
d9
69
a4
94
e8
cb
d3
d2
03
ee
f1
c7
84
3a
2a
eb
7d
3c
7d
f8
8e
d7
23
d8
2b
96
1d
de
f3
17
fb
89
6e
75
dc
f2
e1
c1
11
1c
41
91
31
b7
59
3a
db
43
ff
c0
ba
51
e6
c8
87
8b
91
10
63
fd
a0
e8
7e
e9
79
1d
5b
16
b0
af
93
ac
f8
58
ee
98
f9
59
59
ce
03
16
65
c7
53
bd
31
ff
03
c3
fc
91
68
20
87
ac
f7
45
a0
32
ce
6f
7c
2f
4b
78
ec
4e
d9
52
ad
0f
c6
69
50
47
25
54
b8
51
b0
e3
ca
91
1c
ab
2f
34
d1
ec
55
14
02
28
47
35
20
55
29
bc
b1
cb
e6
e2
f4
88
71
58
cc
c4
c5
4a
d0
26
e1
4f
f8
89
13
3e
c2
c0
b2
67
35
b7
cd
27
b7
e5
e5
36
3a
01
ea
ec
7e
66
6b
b3
1f
2c
e9
6b
7e
be
97
73
f0
05
54
0c
8b
d9
61
de
b9
b1
07
e7
bc
f6
eb
bd
ab
9b
2d
7a
d0
d0
c0
47
5f
66
eb
35
9b
46
4d
f1
8a
4f
83
60
76
7b
23
69
c0
4f
a8
48
ce
11
be
e4
2e
e4
cb
0a
a3
10
11
40
84
aa
85
ec
29
f2
9a
0c
c9
da
31
1f
03
68
f8
1b
56
c9
06
8b
96
b6
37
75
33
5a
16
f2
eb
d9
b9
47
9d
bf
2d
82
42
c3
3d
8c
04
58
aa
86
cf
66
63
4e
a6
6f
87
1b
35
84
fd
4e
70
f9
48
8a
9a
29
23
e7
47
18
8e
b2
22
e1
a9
e2
93
f9
b8
6f
0f
fa
20
52
76
a5
d8
ae
e7
d1
48
17
e2
0e
67
e3
fb
cd
ff
2a
6e
4e
7d
f6
88
d5
68
97
bb
cc
d1
ab
da
ce
83
9f
22
3f
47
e8
84
c4
9d
cb
dc
a0
60
5c
d6
ea
34
b4
24
a4
b0
52
6b
1c
a4
78
4a
c8
ae
36
d9
af
c2
12
d8
00
77
96
00
c8
c6
25
95
66
6c
f3
90
af
6c
4e
56
68
0f
d1
2c
a8
e5
f3
fe
f9
31
4e
4c
28
4b
e7
a8
42
16
37
a9
4d
ae
bc
93
7b
55
04
6d
60
78
f3
02
b0
39
13
f0
e0
98
31
27
23
30
ad
e0
b5
f0
fb
4c
4a
8a
ce
e9
da
1c
16
3e
e9
c3
b1
59
f8
3e
98
59
bb
21
8c
47
67
11
9c
ec
9d
0d
1d
66
7e
b3
82
fa
0a
fc
56
ba
82
0c
e4
47
a8
00
e0
ea
75
fe
96
d2
79
14
15
48
cc
38
03
06
e9
73
25
47
17
6e
38
e3
16
16
57
f6
b2
9d
f2
b7
90
eb
1d
7e
14
68
9f
cb
a3
9a
09
63
9a
77
ee
c1
4c
5d
c7
36
4d
c2
d8
7e
78
6e
fa
ab
1b
69
7b
9d
61
a0
54
97
46
0a
16
b9
a7
2d
bd
c4
31
8e
51
e7
72
f0
d6
45
2e
da
4f
24
84
0a
a5
3d
07
e3
78
36
fd
72
9c
08
86
ed
ea
6d
01
08
9f
03
2a
60
a9
ca
7a
31
57
7b
0a
0f
4e
51
5d
4b
15
74
24
5a
bb
f4
66
8e
a8
cc
48
7b
ba
ff
6f
07
5e
aa
4a
61
69
a5
2f
d7
6a
a6
16
28
4b
2a
b4
ed
88
16
08
1c
e1
a6
56
a3
06
eb
75
77
68
d3
14
14
da
9b
65
a3
2b
2b
ad
96
12
c2
ad
28
64
17
b0
54
86
46
9b
06
88
0a
45
6a
bf
52
52
07
d0
18
2b
05
0b
f8
ed
4a
af
f7
02
c4
a5
91
64
4b
5a
2c
02
a6
89
e0
23
a3
0d
98
f3
d7
55
9c
54
29
b1
da
93
3e
ff
d2
7a
31
1c
e9
9c
14
42
e3
85
f9
17
7a
18
e5
f4
b3
01
f5
26
f4
3b
ff
1b
05
85
59
bf
d0
57
a8
07
5b
83
fb
95
90
10
94
d0
88
08
9a
56
c8
c3
34
03
52
59
4f
71
19
fe
9c
fb
e2
28
35
72
8e
3d
84
64
78
be
99
ce
74
1f
13
16
4f
ac
e5
17
a1
59
5c
de
61
38
0a
15
8f
50
0b
88
97
b2
f7
9f
f3
3c
07
76
cb
6d
43
95
60
87
e1
7d
12
47
1c
8e
4f
54
2d
e7
1b
c3
89
7f
1c
93
f7
15
33
84
ce
a8
7d
f2
0a
1d
1d
a3
94
dd
78
08
0c
b7
28
ad
bd
e2
b3
09
d5
77
63
f1
49
17
12
99
27
e2
ad
95
f9
ef
6e
5c
7d
3a
90
63
9f
c6
4f
39
d9
8f
3f
76
4f
8c
59
51
50
fc
59
6c
62
aa
3b
a8
9c
cd
27
7a
d9
92
2e
8b
d0
c6
a9
c3
6e
bb
de
62
cf
21
c2
18
f6
52
7d
f8
79
b7
60
a9
ed
4d
11
94
bf
aa
88
4a
e5
65
cf
86
9e
dc
bf
f2
29
a7
10
bc
6b
f0
cc
0d
5c
55
99
4c
e5
37
3b
09
e3
1c
a5
bf
eb
e8
a7
8d
cd
91
47
22
9a
5b
91
03
31
e0
48
eb
a1
b9
bd
37
63
0f
af
ab
46
c0
a6
8e
8c
89
a3
ad
11
13
49
ef
69
03
5b
3d
fd
8b
05
b9
61
ec
60
ee
bc
97
74
57
ef
3f
04
56
25
1e
31
8a
f4
c7
23
d7
ef
bf
61
86
ff
b8
a1
2e
1b
38
b3
4c
66
ef
cf
e0
d9
67
fa
57
4a
53
95
d2
d4
e3
d6
68
b4
02
f1
d6
73
55
bf
b5
11
e9
38
73
17
25
6d
78
36
46
41
16
d4
03
23
6c
4f
a7
59
59
16
cd
58
f9
d3
59
57
b7
46
1d
98
f1
b8
d7
67
23
db
91
95
19
96
8b
32
f7
5f
cb
43
45
6d
fd
c8
be
8a
57
40
93
7d
a8
5d
a8
d8
cb
f3
78
6a
88
f9
00
6b
87
20
b3
90
56
39
fb
cd
f3
b0
6f
7f
da
a6
b9
02
d5
39
52
ff
2c
bd
c7
17
f8
e1
70
76
2d
46
8e
01
2a
a7
c5
23
ee
67
fb
1b
da
42
9d
1e
56
3c
06
5b
11
1f
55
9f
7d
73
1c
8d
88
cb
1a
c6
19
c0
f3
b6
71
9e
6b
4c
1e
88
f2
c6
a8
fe
23
56
c6
8b
25
21
25
15
d4
25
e9
4d
c7
d4
ea
51
f7
70
a2
08
95
c8
a5
0a
8a
9f
85
f7
d7
e5
10
d9
3b
f0
25
11
d3
5e
4d
86
be
ed
9f
3f
d8
36
16
04
f5
8c
8a
b8
f4
bd
50
2e
dd
b0
5a
32
27
56
4c
01
d7
34
52
2c
f0
c2
cc
a7
55
ec
0f
3c
e2
b7
77
4c
ae
a8
fa
ed
6c
32
34
14
c7
4d
6b
63
a1
43
bb
5f
95
7c
1f
65
4f
d0
bc
86
9e
19
48
59
e1
4a
f5
2d
a8
91
dd
3b
03
84
a9
42
dd
b1
f4
8d
d2
07
9b
e8
4b
aa
90
8b
00
d7
c3
aa
44
2f
1a
d8
63
68
04
13
d8
57
3c
6a
e6
52
69
41
bc
7d
4a
e4
82
f4
9c
7c
6d
24
c2
9d
b6
99
bc
2f
8f
3f
a5
52
2c
a4
d8
3b
d7
1f
da
72
a9
1c
e4
95
ee
d3
b1
a3
dc
b1
92
9c
d9
f0
c1
eb
65
38
87
3d
e8
a9
e8
ea
41
a8
99
3a
8b
bf
c9
85
ff
cf
df
ee
18
82
15
52
49
13
48
b2
81
20
d6
07
91
f8
8e
93
56
69
93
ae
9e
28
76
c0
cd
b8
60
d5
d9
06
cf
d5
4f
29
ba
54
11
c8
3f
c2
0d
95
bb
08
d5
7b
8a
9a
d3
16
44
39
32
c7
f0
d3
11
97
21
95
8f
35
fd
97
2d
4f
8d
96
0a
90
59
59
50
f1
1d
88
6a
ad
7f
83
51
8f
93
c2
a4
f1
97
53
f4
30
eb
c6
66
78
e6
a7
17
d1
d8
b5
cf
7e
46
02
47
d5
f0
16
7c
fc
02
e1
db
9d
8e
35
4c
1d
1b
36
21
fa
c6
fb
c4
6c
90
b5
65
20
e8
1e
cd
4e
5d
3e
49
9f
8f
48
fa
0b
2d
c3
9c
b0
c0
76
14
7c
d5
28
9b
81
23
9b
0d
43
d9
2c
4c
e0
51
ce
ea
ba
56
8f
6c
c6
e3
4a
9a
a5
1f
b3
b2
16
13
ec
7a
78
4f
2f
f9
cd
02
7e
a6
2b
64
9d
fe
11
cd
10
65
f8
6d
31
87
7b
7d
eb
c5
b6
56
f6
ef
8b
d0
98
61
a0
9f
ef
02
bc
a5
70
95
b9
4f
c9
43
47
9b
f1
d0
6f
e3
30
3c
8e
e5
2f
b9
6a
75
2b
9d
3e
64
ee
f0
36
9b
68
59
72
6c
46
4a
bd
ad
fb
d3
ea
f2
cc
06
f8
2c
26
95
96
d9
6f
40
ca
3f
93
68
ce
40
2e
1b
df
6b
62
24
a2
b1
de
38
92
60
d4
14
01
e7
ba
b2
60
3a
f7
db
3b
01
01
2e
95
53
dd
90
7a
01
10
bf
6f
56
13
dd
d6
6d
8f
20
8a
77
40
7a
1d
d0
18
4a
0e
c4
03
c2
93
aa
ca
13
de
a3
e1
e5
f9
2f
21
31
95
03
36
51
22
aa
50
8e
5d
4f
d9
09
01
43
dc
01
23
c2
8d
d5
48
8d
26
de
0d
94
4a
11
a9
cb
a9
46
9f
16
bd
e5
2b
e4
b4
47
d0
c2
6b
69
0a
00
6d
3d
7f
b6
a8
c7
a7
ac
9a
21
e7
4e
d4
cf
97
b4
ce
94
e1
e7
32
4c
cb
9c
43
5f
85
61
eb
57
28
79
f1
e4
88
30
01
de
e5
af
ba
87
9f
bc
a4
31
63
a7
d8
73
06
6d
1b
2d
27
5c
b0
e4
48
89
85
30
af
60
58
79
d5
e0
0e
3d
08
b7
7d
05
09
48
6d
59
74
31
e5
23
75
cc
14
dd
c8
52
21
31
79
59
6f
b6
b4
08
38
1a
3d
07
f9
ad
ba
8d
ce
d0
b8
ce
4a
3c
d2
57
45
a5
dd
97
8a
5a
2c
77
55
f8
fe
65
0e
0a
eb
26
c0
a2
94
7b
25
5d
1e
03
9d
f2
b5
fa
a6
12
73
94
4c
aa
8f
47
29
8b
f1
86
4d
95
17
a0
61
62
ec
e1
5a
c2
34
d4
26
70
02
ff
5a
86
de
94
1b
f9
8c
f3
de
af
3a
97
7f
8a
d5
bc
ab
2b
a8
82
2a
da
48
ef
3e
56
85
08
12
bc
8b
6a
f3
94
6f
5c
30
55
84
6e
d0
7f
92
17
39
d8
3b
c0
8b
62
e3
3a
78
88
77
ce
65
16
ad
e9
2b
b8
75
8a
bf
7a
24
0b
ee
04
66
ac
91
4b
b4
d7
16
c6
e1
e7
30
7a
b1
98
af
6e
7f
28
7b
5f
64
07
eb
af
ac
d3
ef
ca
fa
76
e3
af
30
7a
9c
97
17
82
b7
27
ac
9a
90
f6
09
86
b2
f4
cc
86
79
33
06
69
40
05
7e
79
1d
ea
b2
27
7e
bb
42
95
e1
c2
e3
dd
90
1b
72
1d
ab
93
50
b8
fb
b0
7e
2b
5b
66
04
c3
2f
24
a6
ce
b5
ce
7a
7e
5c
6c
d9
23
4b
c3
ee
ff
b5
2a
01
a5
44
06
fb
2c
a6
09
99
50
7e
9c
c6
88
cd
62
24
91
fe
5d
45
7d
06
10
5c
08
b6
93
c4
a7
bc
34
8f
47
15
79
ab
11
4a
f5
d0
2f
1b
99
13
04
91
40
31
37
a6
ba
64
e1
c5
75
08
46
01
d0
cf
98
6f
db
fb
0c
3b
51
b5
42
ab
98
97
19
69
69
87
15
de
3e
60
40
e0
17
0d
0a
13
bf
eb
6b
16
d0
39
42
69
dd
1a
ed
ea
ef
a6
22
4c
6c
3b
d5
83
11
cc
2b
7a
f0
77
1d
fb
d9
56
5e
0c
37
3c
c9
ca
57
42
31
3b
34
1b
b9
5f
db
83
69
b0
65
35
c9
18
76
2b
3e
0e
38
c1
c8
1c
57
a0
1d
27
76
ee
eb
8b
d0
cf
79
