8e
03
ed
65
25
37
af
75
95
39
41
a1
b4
43
9c
b0
b0
17
38
62
59
13
38
ee
93
09
23
19
9f
a7
c9
35
ed
40
03
75
4c
0b
51
15
78
08
ef
23
c0
5a
47
e2
62
b2
c7
5e
52
62
de
53
22
5b
fc
10
a3
0d
ed
5e
8f
ac
ff
18
a0
43
07
2f
b9
2f
6c
be
12
61
a1
27
4e
c9
6e
18
53
28
1c
ac
47
b5
de
eb
e6
2f
e0
49
a5
14
40
31
3e
0a
7c
7e
04
46
26
47
b4
a7
b8
81
03
94
75
9b
c4
13
bc
a4
6e
ab
89
2f
2a
cd
ad
ef
ab
93
a9
d3
34
54
51
60
dd
02
01
e8
81
95
cc
bb
f7
2b
ff
d3
f0
43
88
e3
c4
8c
9e
7f
cc
38
d2
6a
39
93
04
8f
24
91
ea
c0
b4
1f
da
7a
40
b5
77
d6
e8
6f
a0
b3
89
46
8f
bf
85
06
7e
da
b8
7f
b1
22
4b
6a
fb
2e
c1
5b
66
ae
ec
7c
e4
9c
f2
d6
9c
e0
03
26
25
03
93
3a
7c
4b
89
3b
cf
f4
d3
15
87
ec
db
18
b2
1f
9c
a3
58
dd
e2
8b
ca
ba
dd
15
2b
cd
e1
25
a5
7f
53
28
89
54
03
b1
dc
3f
97
6b
04
44
3e
d8
17
2c
0f
c7
48
54
6e
23
4b
86
58
31
2c
65
6c
27
e4
cc
fb
c7
51
df
81
bf
dd
ff
9c
c6
9e
9d
54
ae
3c
62
e1
53
8b
c2
4e
d4
01
dd
26
b6
e6
64
b3
86
37
d2
df
fa
53
84
84
59
5d
3a
8d
55
ee
56
b8
9b
7a
aa
bc
04
48
1e
e6
d7
af
6a
a2
38
15
c8
b7
43
7a
4d
fb
32
0e
04
01
ce
ad
db
d9
5f
5f
77
f6
a2
87
5c
63
b9
af
83
4b
1a
9d
21
ce
7e
a6
bc
cb
85
da
4b
2b
2b
ac
03
4d
cf
ff
f0
a5
25
11
ff
fd
69
28
e3
bc
9b
74
28
37
7f
6e
40
b5
9e
d8
d8
02
cb
b6
09
d5
27
e1
a9
54
d0
1d
4f
84
39
32
25
cb
eb
31
a6
05
b2
82
1f
06
cb
89
0d
30
1c
b6
eb
ae
63
d1
0e
b9
2e
30
3b
69
52
f4
20
2c
b5
ee
26
0a
8a
a7
fd
d0
55
ae
10
67
0d
0a
d4
0b
c8
0c
3b
da
0f
c6
ba
27
e1
3c
8c
14
47
9f
0d
a6
b3
3a
82
d5
cc
0e
90
6f
fa
bf
7e
f7
2c
96
f1
c2
06
88
9d
bf
9d
fd
04
3d
8a
c7
2d
a4
4b
6f
0d
d5
13
dd
31
