cf
5c
fd
7a
b9
c3
4d
b2
25
db
06
28
fb
09
1f
74
92
7f
52
4f
1d
d3
99
51
82
9b
e5
c3
6e
25
2e
be
45
c3
1a
1c
e2
c6
da
8a
a6
e7
7c
29
f2
2c
0e
c2
5b
e9
f2
d7
88
22
a3
c4
00
a5
2b
37
2b
57
c9
f1
8c
85
79
2e
2a
81
0b
99
36
8c
0d
4f
49
ff
6c
21
24
46
e8
87
d4
af
47
18
2b
6d
15
20
a7
56
30
2f
21
d4
c8
bd
63
9d
08
6d
0a
8c
78
e5
48
be
ae
ea
6a
ee
5b
b1
0c
71
bc
e6
a4
2d
c3
c6
ba
91
55
10
8b
57
f1
72
97
cd
84
ca
43
35
2c
ac
8c
36
87
8e
ec
cb
38
35
a4
4b
b9
a1
3c
46
f3
61
5f
ac
6e
ad
23
7d
cf
c2
56
d6
29
d7
df
76
03
38
53
be
31
d9
de
f2
55
52
e7
75
90
1e
86
3f
83
ba
c3
62
ea
ea
4f
e5
e6
11
cb
97
04
2a
06
27
d3
0f
fe
2e
9a
eb
48
51
ae
39
60
35
a4
4c
15
b5
fd
fa
ef
3c
78
81
bf
e9
a6
93
dd
f0
f8
12
c9
ac
c7
44
03
17
3b
f5
b0
c9
ff
55
b9
2f
34
84
dc
2e
3a
11
43
b2
78
0c
