83
f5
7c
93
ec
75
81
45
e4
51
23
8a
f5
a2
58
6c
55
bd
2c
9d
11
48
59
15
44
93
d7
aa
7e
76
a3
b9
a5
0d
7d
28
4f
cf
47
27
ef
e6
98
a0
a7
11
e6
cb
14
4d
f1
a7
ea
cf
52
18
38
db
45
c6
39
91
63
61
25
a7
ed
21
b2
e8
d3
df
8f
82
e7
c0
e9
aa
40
88
e1
e9
81
bb
2d
7e
a6
62
24
4f
6a
fd
95
09
04
df
5f
52
21
a9
45
87
0c
dd
87
28
67
c4
8a
6e
31
f1
16
f0
d6
eb
83
0a
67
0b
82
41
a9
d7
4a
18
ab
96
bb
18
e9
94
87
63
8a
b0
e6
ad
ec
86
0b
f5
b3
a2
5d
39
3b
a1
42
57
5f
e0
b8
85
82
9b
fa
19
8d
3d
8b
30
19
13
57
27
9c
73
b2
9d
54
ab
da
dd
be
37
ac
36
bd
e6
9b
84
e4
e2
5f
0f
fa
8a
f3
66
fe
cf
5d
a5
fa
16
98
67
0b
48
0d
ef
f1
20
3d
c0
45
0d
12
c9
f4
e0
35
02
9f
42
5b
bd
61
67
bb
32
25
cd
47
a2
22
ae
68
12
23
08
06
2a
05
1c
f1
9a
aa
1b
7a
7c
e9
2e
68
a0
33
e3
ee
01
f4
4f
76
9b
a7
9c
5b
56
9b
5c
2d
9e
f7
d3
84
89
f4
8a
ab
6d
e9
a6
53
4c
9f
d7
b5
b4
bc
5c
12
0c
f1
1d
61
6a
41
bf
a3
12
23
da
34
b9
30
9b
5b
da
67
bd
a7
72
17
c3
ee
93
3c
15
cd
2b
07
d3
96
fb
e8
86
10
ab
f5
de
09
41
10
90
af
e7
d0
e4
f5
eb
fb
4a
18
bd
23
21
af
7a
60
81
8f
5a
df
47
ec
c3
19
5a
60
9e
ea
ca
e6
d2
66
fc
ce
2e
df
db
ce
d5
23
5e
9b
17
3c
5d
24
25
49
8f
9f
fc
01
92
3a
a1
0b
f9
ae
64
fd
36
d3
cc
7e
e4
8d
08
17
02
17
fb
ef
3a
e4
ab
b0
f0
5f
ea
25
db
e8
6f
97
66
0f
c2
47
b6
7a
29
f5
4c
fd
fa
72
90
0a
af
ec
0a
e0
7f
1f
b6
b7
ce
72
b3
c8
59
78
ff
cb
61
d1
4c
01
8e
24
f1
d2
db
db
1d
f8
f0
70
b2
a5
14
7c
0c
77
06
89
f7
ce
c0
07
c2
01
df
b2
53
ee
c8
42
55
ef
7a
78
a8
3d
13
a1
9b
13
52
65
37
c9
a4
04
70
5c
9e
34
a7
d2
9f
69
ed
f5
bd
bf
0e
1c
96
59
4d
f4
62
c5
17
78
e5
92
7e
