2a
a6
56
ed
28
9e
64
8a
0e
11
24
f0
22
b4
50
22
6a
17
f6
58
1d
ff
55
87
3c
be
93
70
61
7b
04
71
bc
10
ac
27
11
e7
60
78
68
0c
7f
0b
8e
ad
39
05
b0
40
fb
61
06
fa
52
22
c6
fe
d2
fe
5b
e7
0a
85
9e
7a
15
62
fc
02
32
1f
c1
f7
41
75
53
d2
e0
d1
24
0d
f2
36
81
c0
c3
74
35
a9
ed
a5
02
b3
f9
ba
ee
21
61
d3
7b
55
31
29
f4
95
16
e3
b6
e2
f8
cf
d2
7d
2f
cf
04
6c
f1
0e
f4
a2
e1
a3
a5
c8
5d
37
f8
86
d3
e4
a9
bd
57
72
b1
ff
ed
2c
1b
07
a7
2e
6e
7c
6c
0e
b3
3c
02
f9
71
be
75
1f
54
0f
c1
fd
65
6a
12
78
ab
f1
28
25
22
f1
50
86
dc
25
b8
9d
b4
ba
35
90
d4
f8
14
18
a6
58
5c
90
7f
a4
17
a5
64
6b
c4
58
ab
7b
23
86
27
d9
e8
5e
de
d5
b4
f7
41
e7
67
a4
e9
44
67
07
20
42
98
8f
c4
c1
0a
6f
89
eb
b3
6d
8b
8f
38
5b
ab
b6
24
58
09
0f
22
68
de
f4
76
2e
ec
65
64
50
05
dd
10
77
27
94
5c
ea
