3a
78
a3
57
aa
4d
6a
94
b9
7a
ee
bb
1c
dd
ee
39
30
ae
21
2c
6b
48
c3
29
af
c3
8c
35
e9
d6
e5
84
69
96
3e
c3
a2
63
ad
27
00
65
e7
82
1e
af
7a
ee
54
1a
42
c8
5a
73
ca
b8
43
7c
89
9d
da
08
5b
26
ec
cb
f7
5e
64
f2
ae
74
49
66
e9
33
23
e0
26
05
e3
1b
e0
77
8b
76
67
b5
a6
fd
37
32
c6
8b
20
fc
9d
4a
5f
a1
1b
95
92
1a
63
62
66
09
1a
93
3e
ae
ad
1c
d4
5f
07
a7
2b
01
d5
1c
bb
cd
ba
a7
ed
0e
00
2b
ee
f9
5c
b7
a5
ac
cc
e0
69
13
a0
0a
59
dd
5c
eb
e7
66
5e
69
2f
e4
2b
08
16
4d
b3
e1
8d
ef
ba
a3
ee
df
04
eb
f6
b3
89
da
4c
f6
75
8c
d5
9a
af
ef
a2
e0
26
ee
ae
2b
d4
fa
76
f9
f0
61
00
a2
c2
c4
2b
f2
5e
a8
dd
ce
32
ab
78
0a
c8
7f
77
a1
43
e2
e3
c7
3e
34
b6
73
b3
2d
1c
87
06
5c
04
7d
0d
9e
d4
e4
7a
8f
1e
15
92
f2
81
1f
31
8b
25
d3
d4
1e
ec
49
f5
d8
6c
4e
d0
bf
97
53
67
2c
9a
02
69
f0
f5
d0
70
c8
4c
4d
3b
37
cc
38
f0
ad
79
9b
25
23
30
ce
6a
98
49
73
97
17
6d
dc
de
0b
60
79
c2
e6
cd
c4
36
d4
4d
f2
9f
7d
46
b2
28
c2
a4
38
24
88
c5
0c
22
cc
e3
4d
a8
74
65
75
33
9b
9b
19
11
33
62
22
10
ea
02
81
c7
b5
ba
5d
a0
48
de
85
44
0f
9d
a2
c4
fb
9d
42
26
13
c8
4c
24
ad
39
4d
5f
2c
cc
e2
70
df
af
15
34
8b
17
f1
9e
da
c1
5d
6a
a7
36
2b
94
c3
ce
8b
ce
95
1a
93
b7
27
9e
e2
7b
2e
02
4f
52
82
5e
9a
20
9d
31
a1
07
48
f4
b2
c0
00
cb
b7
f4
ff
6e
18
ee
67
5d
07
0d
b4
c5
8c
de
89
bd
45
e9
fd
92
6e
ff
ff
77
62
f1
cc
9f
41
35
bc
31
71
9f
8a
49
70
64
63
d2
7c
ea
64
41
af
15
13
ac
21
1c
8e
e7
d4
a1
69
dc
e5
31
a4
7b
b6
38
72
cd
47
c9
ff
dd
e1
ac
bb
f7
96
5e
dc
82
07
cd
bc
c2
17
25
b5
29
ba
43
cd
ed
a1
28
34
c0
a1
e4
3c
4e
cb
87
0e
ad
6f
99
b3
5f
8d
73
0c
d7
da
