48
3f
b8
14
ca
ec
6f
cb
82
d5
02
ca
38
62
81
25
b0
39
65
d4
38
0a
b0
dd
b3
77
d0
49
c8
e3
fc
40
bb
ee
55
4e
9e
67
e6
dc
33
33
3e
8e
dd
fd
3a
a6
d5
da
36
18
0d
50
e6
ed
b4
e6
3d
50
cb
c9
cc
c5
b2
bf
5e
ea
cd
86
48
58
25
0e
a7
d0
4c
3e
8a
c0
6e
41
15
d3
d8
87
21
f3
69
e4
72
79
24
82
36
00
9a
e2
87
0e
ea
7f
b7
8e
45
5f
e1
cb
ec
2b
15
23
c9
5d
6c
a4
55
0c
2b
69
50
94
01
23
ce
50
c2
20
1b
74
83
6c
e9
0a
78
42
d4
10
f2
12
f1
da
66
4c
dd
e2
d2
e1
ff
cd
ff
ff
6d
88
91
83
01
e2
86
3c
06
55
41
72
d2
b0
5f
8b
d5
f6
f3
aa
39
97
08
5e
28
13
e1
88
0a
60
c3
d9
e9
e8
26
92
02
8c
71
f1
9d
4a
db
59
60
a1
2f
41
fe
ce
ca
2c
d4
24
57
2d
c2
c0
95
b8
8d
b6
33
54
7b
b8
5c
01
19
4f
a6
13
06
4d
e9
b2
f7
39
f9
9f
19
ff
02
33
30
ea
52
ed
f2
1c
75
5e
2c
f4
d4
5f
51
d4
af
8c
9c
f8
1a
d2
86
67
13
87
57
fb
c9
42
05
26
70
ed
a5
ad
6b
ed
d5
db
a6
1e
f5
87
9f
f9
0b
13
b9
11
46
f0
02
de
e7
c9
d5
fc
3f
36
84
6b
b7
b1
2c
7b
e4
1d
d6
9c
f7
12
93
9d
0b
26
bf
1a
02
4d
17
27
ba
1a
b4
6b
69
d1
f5
23
d3
5b
7d
09
fc
9d
6f
d6
41
16
0f
3f
d6
44
1f
75
5d
0a
71
ab
24
08
85
da
25
2c
de
58
78
a6
ff
0e
a2
aa
8a
75
1f
44
6c
0c
6e
7c
8d
54
69
1c
ff
de
74
2a
6a
7c
df
66
51
54
37
3b
cb
89
b7
04
6f
7d
ea
32
9d
5d
c3
47
3e
7a
29
df
b4
1b
ea
8d
e6
2e
48
7a
3f
dd
07
6b
72
0c
f2
3c
8d
68
4d
25
b3
5d
6b
b1
f6
14
d4
8c
05
b0
09
47
f8
fa
96
ca
1e
2f
70
66
50
57
25
3d
d2
d6
50
bf
82
f5
3d
6d
e0
fe
20
17
a3
0f
30
26
4e
0e
20
92
48
6f
74
62
56
44
ab
a7
36
96
0e
30
23
1c
2f
07
bf
c4
5b
c6
4f
62
c3
01
74
b7
b6
8f
39
51
f8
9f
d0
4c
dd
a4
ae
7f
53
3d
1e
5e
02
e6
bb
df
ac
cd
e7
df
