2d
76
57
8f
5d
bc
0a
8b
df
bd
4a
bb
36
23
96
7f
8c
06
d3
a6
ac
3a
48
6b
bd
cf
cd
49
4e
3f
87
1d
43
c1
f1
1b
67
61
a0
f3
37
38
3e
04
b7
db
22
e4
fa
a0
a2
1d
2d
d1
ea
46
3c
13
76
fe
46
a1
60
ce
bb
86
5f
ea
70
ea
f2
69
8d
5f
f0
7c
a2
ad
aa
15
d2
a6
3c
54
47
0f
94
96
21
28
53
14
9b
c6
4e
75
bd
35
68
a2
24
8b
4c
bc
4e
cd
d4
d4
39
24
c3
82
a8
2c
64
7b
89
11
d5
72
15
d9
1b
6d
0d
29
44
18
e0
be
e5
3c
45
79
50
56
3d
77
81
f5
5c
af
35
e4
03
04
bc
8e
de
7b
5b
a4
62
f7
ad
d2
05
82
1e
f5
cc
e0
36
37
e4
df
8b
32
36
c6
16
0a
49
f1
ee
fd
bc
66
9e
18
4d
20
b1
3e
3c
fa
f8
38
b2
71
cd
9d
24
4a
8e
1c
7d
2e
a2
f4
3e
05
bd
e8
75
55
b5
6b
8f
89
c5
f4
cd
5c
04
4d
4b
7e
1e
c5
60
bb
3f
16
29
32
5b
5c
ab
fe
4c
cd
7a
a3
6e
16
c7
ee
c1
f4
b0
61
a7
4d
b3
d3
c9
5a
e6
0a
18
df
d2
64
a0
75
90
19
21
55
ab
d7
fc
78
7b
59
1e
d8
c1
3c
45
66
3c
5a
fe
1f
d4
54
13
05
12
e5
08
c7
42
51
7e
d3
fe
2b
23
e6
e1
3a
35
cb
4e
fa
27
ab
ad
e9
26
c0
59
af
01
97
bb
12
2d
70
fd
aa
2e
82
b7
64
fe
b5
8d
38
8c
aa
59
20
47
fb
1f
87
2d
da
58
84
bd
3a
79
d0
d6
21
91
58
6f
ce
26
5c
9f
0a
03
fa
1d
52
b1
04
65
e4
1a
4e
27
ec
fa
79
20
d9
55
05
bd
8d
63
16
27
f5
71
44
22
5f
b4
eb
10
e4
8a
e3
9f
59
66
73
42
9c
d1
9b
eb
db
01
33
6f
48
b6
c6
96
84
e8
f1
90
8f
b6
e1
61
5e
2f
44
3e
f7
76
9c
c6
94
a2
aa
6a
3c
3b
5b
86
da
39
c8
1f
a1
79
02
64
7e
01
98
ad
bd
ff
de
b8
47
f3
1f
e1
97
ab
7b
f8
90
8c
8e
48
6e
aa
7b
ef
fd
59
3e
55
dd
dc
40
d8
3f
b8
24
59
a3
d9
92
24
ab
f2
ad
22
16
0d
23
40
4a
e0
94
6c
93
b0
fd
f8
8f
3a
dc
74
1b
65
28
10
00
f6
5d
6b
39
41
b7
a0
7a
89
94
d5
be
d5
d3
8a
ca
6c
ca
ad
34
81
7c
08
f9
06
ac
a5
09
3d
ad
a0
76
69
d3
5a
4e
29
37
3f
3c
9d
5b
2f
3a
e1
d5
14
b3
b6
ce
ec
46
b8
a4
26
c7
4f
7e
b3
ca
ea
86
cd
82
69
fe
95
ee
4d
99
6c
08
ee
84
e7
79
ee
a4
e4
91
fa
9e
a5
ba
7b
12
07
7a
82
7c
53
81
a4
17
ad
43
93
ca
b2
ba
26
46
86
66
ad
6a
df
ee
df
eb
bd
d0
c8
ce
70
2f
95
da
c3
04
84
45
93
14
3e
84
6f
3a
69
73
bd
0e
67
fa
48
c5
3f
25
e0
4d
de
87
41
87
40
45
c5
48
81
6c
f2
69
e5
de
4b
a2
3a
2b
d1
05
15
f0
73
71
a0
1e
37
c8
05
f7
c6
83
aa
3f
3d
3d
58
c9
fa
d5
bb
ce
e2
65
c5
2a
7e
d9
45
69
0e
3e
6a
48
2d
31
9b
e6
68
9a
e2
6c
af
a0
34
e9
86
1b
e7
cb
8e
2f
c3
cc
a7
9e
db
04
e1
4f
4a
2d
a0
e3
f3
3a
53
ca
a6
6c
17
31
b8
33
65
d7
ee
ec
f9
9c
10
22
ef
8f
eb
60
cd
c5
1e
24
c8
93
3b
92
ae
e4
72
67
e9
06
82
0e
b7
9c
65
73
cf
7f
a3
cd
34
ee
f1
f4
8d
9a
8f
83
f2
42
6b
75
ca
4c
fc
0f
a6
57
5a
fb
cb
5a
8b
f3
78
93
fb
74
ba
6c
19
0d
b8
9f
ba
36
f8
61
50
c4
c5
d3
ff
29
ea
c9
21
df
84
b7
65
3d
e7
8a
ee
e2
1c
ca
84
a3
a0
b9
36
47
76
26
86
39
d2
13
ab
b9
4c
35
ea
50
1b
88
e9
eb
3a
d0
ba
e9
8d
a8
09
60
20
7f
a3
14
fb
9f
97
5e
2b
ba
bf
19
e1
36
f8
8a
a6
ed
09
08
a8
cf
0f
3f
36
0c
8e
09
04
84
d1
53
fc
24
01
b5
a3
02
ee
73
96
87
6a
d0
9d
be
33
ec
75
c3
9c
5c
fd
5e
49
68
54
4a
e0
82
4d
09
af
8e
a8
f4
c8
22
4f
e8
14
23
3d
97
11
1d
43
b9
d3
d3
7f
b6
d0
c4
c8
42
1b
cc
64
4d
a8
3e
42
9a
b9
de
cf
3a
bd
ea
73
8a
eb
b9
46
95
b0
2b
51
d7
e9
40
bf
0a
e5
22
a7
c6
43
46
57
71
ad
bb
d1
8f
7d
4c
64
52
33
0d
f8
3d
86
3e
f0
d7
3c
a8
5b
da
d1
df
85
2f
5b
5d
c1
a5
fd
15
b6
36
3c
5f
86
76
af
a9
11
8b
97
ae
f8
a2
d5
b6
fe
f9
fc
b3
72
8b
69
bb
db
58
e2
64
f9
9d
ac
0e
d1
cf
95
70
a5
ef
60
55
fa
db
f6
0a
df
5c
11
f9
28
e3
26
45
60
94
2b
f7
aa
aa
9f
1c
4f
f3
b5
b1
21
a5
75
ae
66
df
ac
9d
d5
4c
bc
14
92
38
9a
65
b3
58
ba
02
96
e3
02
f6
a6
f9
2e
38
8d
b2
c1
e7
f5
9e
bf
8a
e2
0f
0e
b6
83
9a
b6
c3
fa
20
ec
6f
09
b0
12
6c
49
2a
0f
56
31
01
cb
f0
40
40
73
f9
51
04
62
f5
f7
12
e1
dc
ee
55
d3
b7
29
35
b4
9b
79
99
e0
4f
d7
6f
29
85
14
28
a5
0f
8b
8d
1f
98
89
d1
71
56
67
e3
36
15
04
30
2b
3b
a9
77
55
29
5b
4a
77
d7
1c
c8
f8
8c
d5
ef
d6
67
d8
a1
5a
03
35
85
6d
da
fe
af
d4
9e
90
07
52
a1
92
bc
95
0d
05
fa
6c
d2
3d
9e
74
fc
2d
a2
da
3a
f6
b5
78
e6
68
49
b5
d0
e1
1e
e3
3f
20
ee
49
06
69
1b
44
32
04
d3
99
f3
f6
27
8e
24
d3
a4
7a
1e
1e
e0
84
dd
24
99
98
ca
c7
45
97
81
36
1d
be
eb
8a
f2
71
55
60
f0
20
54
d7
c4
1f
21
e6
cc
e4
54
b2
81
25
97
93
6a
7e
31
b1
cf
75
6f
a8
40
1f
35
03
3e
07
c4
bb
58
98
d5
a6
6d
e9
10
8e
f8
18
a5
7c
d6
19
02
44
0d
39
e4
a7
8a
73
fa
7a
af
62
4c
de
30
68
92
5a
e8
d8
60
50
0f
9d
ec
00
31
0b
4e
74
93
0d
90
95
0d
b4
de
ed
34
38
cf
68
39
ff
3f
07
9a
58
c4
ae
19
ab
b7
4c
8c
ab
0c
08
57
9e
10
bd
c5
aa
35
e5
f4
b5
40
93
f0
d7
1d
88
8f
9a
15
d0
37
58
5a
42
c4
f7
c3
35
f1
a4
61
06
10
ba
7a
07
bc
08
bf
89
89
5f
7a
07
15
2b
cd
62
7a
ec
24
23
a8
4f
97
df
05
75
2f
1e
31
5c
dc
48
47
92
40
3d
b7
9e
bb
d4
d0
56
3a
30
14
7a
1b
b1
0e
cf
ad
37
0e
cf
de
cd
f4
63
87
ff
bd
54
5f
e5
b5
16
1f
0e
d4
57
a5
47
d0
b3
2f
c1
7d
bc
02
99
01
a1
29
11
66
ed
48
97
56
83
60
3d
5e
23
bc
a0
48
d9
39
f2
84
c0
ac
ca
1c
bd
02
1c
cc
ff
71
76
9b
28
64
89
ba
70
c7
ab
24
93
31
9c
00
3e
c3
60
c3
fc
bc
98
a4
64
22
02
b4
82
d4
d4
8f
35
76
a8
ff
47
16
76
44
10
8e
5d
c9
22
50
04
f2
e2
49
1d
54
fd
e9
9b
42
24
c0
3a
d7
d8
a2
f0
05
7d
8f
55
99
c6
36
90
c6
c7
c4
53
e8
55
ff
4c
dc
90
db
d2
e2
32
a6
9a
b4
25
79
ca
a6
e5
e2
e4
11
94
bd
db
71
03
24
ec
ca
40
9e
47
67
5e
47
83
5f
1d
ef
22
30
38
5f
a1
36
3a
a8
36
fc
ad
4c
67
a1
b3
d8
06
a0
57
08
3d
2b
5d
1c
73
ac
14
d4
01
f7
b0
e4
ab
8a
5e
29
f7
74
6a
98
74
d1
74
53
58
a0
79
05
e3
b8
00
7a
ff
a1
eb
9c
6a
b4
7d
9d
2d
29
f1
a3
ff
d1
83
2f
38
e1
4f
5e
56
ea
11
dd
1b
39
54
3f
71
21
fe
da
59
cd
55
70
e5
a9
33
d1
d9
98
23
57
13
e8
41
57
8b
fd
8e
11
4c
73
c2
6a
bc
76
da
e3
9d
26
d3
72
1c
9e
66
4d
39
2a
fe
a8
5d
87
b3
77
36
a1
34
9e
b3
8a
85
08
20
fc
03
40
3d
56
5c
5d
7e
54
c9
d5
76
7b
f2
36
26
c3
e3
63
71
13
6f
f9
6f
a6
af
2f
7d
0f
30
2a
38
9c
f1
8d
94
1a
65
14
a3
4c
bc
ec
9a
64
ed
ff
41
52
5f
1a
72
5f
59
0a
37
d3
6f
c6
5f
b4
60
d4
2a
8a
7b
a3
72
31
54
fb
4e
0e
95
86
63
10
37
ea
2b
c4
9c
e3
76
a0
0b
8c
3a
cd
17
df
79
0d
58
e2
00
c9
f6
b2
98
b5
76
2a
05
8e
ac
f2
fc
d1
07
af
13
f3
e4
65
a1
8c
b2
c1
07
fa
7c
6d
c5
bc
ee
01
6f
58
7f
93
f3
48
8e
d5
d8
a9
fe
5a
3a
d1
49
9e
9b
4a
9c
4d
78
09
50
e9
ea
7d
45
dd
d3
70
0a
61
d8
07
57
d7
98
62
dd
19
0d
f2
50
3a
0c
1e
e3
de
1a
07
52
fd
1d
c0
d3
a8
35
f8
97
43
6b
15
6b
10
70
86
a4
11
5c
cf
fa
8e
06
73
d1
4f
f5
c4
da
eb
e5
cb
7f
43
8d
1e
54
a6
c7
df
0a
6f
90
b3
ce
c5
54
b0
d7
14
35
33
e0
75
7e
11
35
87
6e
0f
bc
d4
14
fd
97
d2
18
86
43
38
e5
a3
1d
a2
e4
59
3e
a3
5e
92
25
da
f6
72
67
c9
de
18
46
30
52
0a
55
4b
e5
5f
7c
37
03
5a
3b
0c
91
dd
b7
45
a1
42
8e
a2
08
7a
a9
5a
af
e9
59
6e
dc
76
84
d4
00
91
ff
19
ee
42
5f
8f
73
31
85
65
0b
3d
29
b7
db
58
9f
fa
cf
6c
5b
91
ac
fd
6a
1d
1f
6c
4b
12
69
43
8f
8e
74
66
be
a3
de
cf
c8
f2
20
e5
75
90
6e
5f
85
7a
04
28
46
f4
1f
a3
68
b6
01
fb
d6
87
4f
cf
16
20
ca
84
9b
af
56
bb
b5
dd
34
dc
b7
04
8a
be
1e
ce
88
4f
cb
be
e3
ed
c3
96
5e
a4
6e
13
6c
a5
8b
20
99
19
4f
8f
0e
9b
51
7d
09
ca
1a
cc
64
94
6c
3f
1c
3f
a8
70
36
60
c6
06
57
ef
89
13
3f
0f
51
c8
5a
61
1d
e2
fe
70
02
26
d5
b5
9c
17
6f
84
84
84
5c
38
42
63
ee
5c
ca
43
7a
5a
9d
52
e1
df
61
bb
9b
d2
68
4b
c1
d0
70
c1
37
ec
23
bd
0c
74
90
a5
2e
ae
cc
f0
53
ab
58
65
19
cc
0e
59
62
fb
07
27
ef
74
1a
5d
25
8c
e0
99
c6
eb
81
bd
c5
57
c3
93
94
44
fb
6c
63
26
19
21
af
91
22
fe
6b
21
74
b7
e6
2e
