ae
89
fc
50
7b
16
ce
1a
bb
10
14
30
da
16
f8
4c
f1
98
52
ca
07
8f
35
95
52
b2
ae
cc
28
2d
da
a3
29
82
96
46
86
24
38
ca
d0
29
44
e6
af
7c
4a
9e
5b
4b
18
a5
20
68
0d
75
38
76
d9
19
cd
9a
ae
a4
89
e2
06
e0
cc
25
fe
ca
e9
fa
40
08
09
de
38
8e
f7
0c
95
62
e0
2d
6c
34
4c
52
c0
13
84
12
40
7a
6e
9a
c0
68
5c
23
ea
83
2c
36
b5
6d
ea
49
58
8b
ba
57
b1
26
d8
60
f9
dc
cc
64
a9
ef
f1
13
3a
5c
bf
e1
6e
92
9b
30
ff
e5
6b
95
ed
9a
3d
60
4c
cf
e3
3e
c1
46
05
58
a3
0e
01
60
5e
14
a8
bc
ac
82
bc
70
a3
3c
56
97
37
4d
03
14
c9
29
d8
81
ab
f4
7a
3d
50
3b
65
ec
60
77
d8
ae
f1
f7
c4
fa
2d
ab
3f
64
e2
57
22
96
9f
1e
c8
ff
3f
74
1c
45
32
ff
ab
66
22
39
61
f7
b7
6b
e2
19
46
50
a6
49
c5
8f
c2
5f
d1
96
93
a0
d3
7d
2b
43
68
48
51
7a
8c
86
45
c5
a5
5c
26
02
70
cc
3a
c1
4b
c5
a6
f5
de
44
7c
ca
36
79
48
78
8f
62
c5
2a
02
68
ae
81
d2
05
b2
2d
b1
8a
93
c4
0b
6e
c6
af
13
25
4f
ed
a0
5a
39
95
60
35
a1
77
58
8f
52
a9
53
03
1b
a8
d7
45
51
b8
97
5a
85
85
74
06
29
82
70
23
b9
04
50
06
85
49
93
1c
29
9e
28
0d
2f
2a
66
a8
ff
4a
16
a7
f2
d7
f2
ce
b8
c0
a2
f1
b7
00
ca
f0
d3
b3
2c
0e
3b
97
f8
64
58
9f
e7
09
50
d5
6a
fc
ca
c4
98
32
0d
a6
bb
4a
21
4b
1a
b0
b1
fc
ac
6d
6f
cc
c9
4f
03
70
b8
e0
aa
a1
8a
2c
0f
b6
14
07
73
ed
6d
a2
9a
16
14
41
38
5a
a0
74
34
03
75
6f
57
40
a7
34
99
ea
f2
c9
e4
18
d9
90
5b
6c
67
1c
ed
8e
34
72
